{
  "\u0000": 0,
  "\u0001": 1,
  "\u0002": 2,
  "\u0003": 3,
  "\u0004": 4,
  "\u0005": 5,
  "\u0006": 6,
  "\u0007": 7,
  "\b": 8,
  "\t": 9,
  "\n": 10,
  "\u000b": 11,
  "\f": 12,
  "\r": 13,
  "\u000e": 14,
  "\u000f": 15,
  "\u0010": 16,
  "\u0011": 17,
  "\u0012": 18,
  "\u0013": 19,
  "\u0014": 20,
  "\u0015": 21,
  "\u0016": 22,
  "\u0017": 23,
  "\u0018": 24,
  "\u0019": 25,
  "\u001a": 26,
  "\u001b": 27,
  "\u001c": 28,
  "\u001d": 29,
  "\u001e": 30,
  "\u001f": 31,
  " ": 32,
  "!": 33,
  "\"": 34,
  "#": 35,
  "$": 36,
  "%": 37,
  "&": 38,
  "'": 39,
  "(": 40,
  ")": 41,
  "*": 42,
  "+": 43,
  ",": 44,
  "-": 45,
  ".": 46,
  "/": 47,
  "0": 48,
  "1": 49,
  "2": 50,
  "3": 51,
  "4": 52,
  "5": 53,
  "6": 54,
  "7": 55,
  "8": 56,
  "9": 57,
  ":": 58,
  ";": 59,
  "<": 60,
  "=": 61,
  ">": 62,
  "?": 63,
  "@": 64,
  "A": 65,
  "B": 66,
  "C": 67,
  "D": 68,
  "E": 69,
  "F": 70,
  "G": 71,
  "H": 72,
  "I": 73,
  "J": 74,
  "K": 75,
  "L": 76,
  "M": 77,
  "N": 78,
  "O": 79,
  "P": 80,
  "Q": 81,
  "R": 82,
  "S": 83,
  "T": 84,
  "U": 85,
  "V": 86,
  "W": 87,
  "X": 88,
  "Y": 89,
  "Z": 90,
  "[": 91,
  "\\": 92,
  "]": 93,
  "^": 94,
  "_": 95,
  "`": 96,
  "a": 97,
  "b": 98,
  "c": 99,
  "d": 100,
  "e": 101,
  "f": 102,
  "g": 103,
  "h": 104,
  "i": 105,
  "j": 106,
  "k": 107,
  "l": 108,
  "m": 109,
  "n": 110,
  "o": 111,
  "p": 112,
  "q": 113,
  "r": 114,
  "s": 115,
  "t": 116,
  "u": 117,
  "v": 118,
  "w": 119,
  "x": 120,
  "y": 121,
  "z": 122,
  "{": 123,
  "|": 124,
  "}": 125,
  "~": 126,
  "": 127,
  "�": 6569,
  " t": 256,
  "he": 257,
  " a": 258,
  "in": 259,
  " the": 260,
  "re": 261,
  "on": 262,
  " w": 263,
  " s": 264,
  "at": 265,
  " o": 266,
  "er": 267,
  "is": 268,
  "an": 269,
  "en": 270,
  " c": 271,
  "it": 272,
  "le": 273,
  " b": 274,
  "or": 275,
  " an": 276,
  " of": 277,
  "al": 278,
  " m": 279,
  "ou": 280,
  " p": 281,
  " f": 282,
  "es": 283,
  "ing": 284,
  "ar": 285,
  " in": 286,
  "ic": 287,
  " th": 288,
  " d": 289,
  " to": 290,
  "ed": 291,
  "ion": 293,
  " h": 294,
  "om": 295,
  " and": 296,
  "\n\n": 297,
  " e": 298,
  "ct": 299,
  "et": 300,
  "ve": 301,
  "as": 302,
  " is": 303,
  " n": 304,
  " .": 305,
  " l": 306,
  "ll": 307,
  " we": 308,
  "st": 309,
  "ot": 310,
  " \n": 312,
  " I": 313,
  "ly": 314,
  "ig": 315,
  "ent": 316,
  " that": 317,
  "ow": 318,
  " g": 319,
  "im": 320,
  "ut": 321,
  " be": 322,
  "ce": 323,
  "her": 324,
  "ld": 325,
  "se": 326,
  " on": 327,
  " it": 328,
  "ra": 329,
  " re": 330,
  " for": 331,
  " T": 333,
  "ro": 334,
  "id": 335,
  "ur": 336,
  "ay": 337,
  "ation": 338,
  " ha": 339,
  " wh": 340,
  "ver": 341,
  "ht": 342,
  "um": 343,
  "ch": 344,
  " u": 345,
  " �": 25988,
  "qu": 347,
  "ith": 348,
  " (": 349,
  " st": 350,
  "am": 351,
  ".\n": 352,
  "ight": 353,
  " as": 354,
  " at": 355,
  " y": 356,
  "ill": 357,
  "and": 358,
  "’": 359,
  " are": 360,
  "ul": 361,
  " with": 362,
  "nd": 363,
  " The": 364,
  "ck": 365,
  "ol": 366,
  "the": 367,
  "ir": 368,
  "ang": 369,
  "ke": 370,
  "if": 371,
  " ﬁ": 372,
  " you": 373,
  "th": 374,
  "ter": 375,
  "ould": 376,
  " have": 377,
  " A": 378,
  "“": 379,
  "ag": 380,
  "”": 381,
  "pp": 382,
  " not": 383,
  "ich": 384,
  "ate": 385,
  " S": 386,
  " can": 387,
  " he": 388,
  "ad": 389,
  " mo": 390,
  " \n\n": 391,
  "ren": 392,
  " con": 393,
  " ex": 394,
  "rom": 395,
  "ss": 396,
  "lect": 397,
  " W": 398,
  " ch": 399,
  "−": 400,
  ",\n": 401,
  " r": 402,
  "ant": 403,
  " her": 404,
  " by": 405,
  "il": 406,
  "ect": 407,
  "ity": 408,
  " sh": 409,
  " was": 410,
  "ri": 411,
  "art": 412,
  "oo": 413,
  " en": 414,
  "ist": 415,
  " se": 416,
  " pro": 417,
  " ne": 418,
  " which": 419,
  "ure": 420,
  "ble": 421,
  "pl": 422,
  "ime": 423,
  "ust": 424,
  "ome": 425,
  " so": 426,
  "ive": 427,
  "ical": 428,
  " di": 429,
  " al": 430,
  " sp": 431,
  "em": 432,
  " or": 433,
  "—": 434,
  " v": 435,
  " one": 436,
  " will": 437,
  " su": 438,
  " k": 439,
  "per": 440,
  "all": 441,
  " me": 442,
  "ain": 443,
  "us": 444,
  "ple": 445,
  "bra": 446,
  " this": 447,
  "hen": 448,
  " de": 449,
  "to": 450,
  "ﬀ": 451,
  " do": 452,
  " but": 453,
  " F": 454,
  "cket": 455,
  " B": 456,
  "eld": 457,
  " com": 458,
  "lectr": 459,
  "os": 460,
  " from": 461,
  " if": 462,
  " all": 463,
  "te": 464,
  "bracket": 465,
  "erg": 466,
  " “": 467,
  ")\n": 468,
  "ci": 469,
  " there": 470,
  "\n\n\n\n": 471,
  "oug": 472,
  " M": 473,
  "angbracket": 474,
  "ame": 475,
  "ction": 476,
  "we": 477,
  "ces": 478,
  " \n\n\n": 479,
  "iv": 480,
  "out": 481,
  " E": 482,
  "very": 483,
  " le": 484,
  "right": 485,
  " ﬁeld": 486,
  " she": 487,
  "ide": 488,
  "rent": 489,
  " ab": 490,
  "au": 491,
  "ergy": 492,
  "’s": 493,
  "ther": 494,
  " tw": 495,
  " equ": 496,
  "arg": 497,
  " electr": 498,
  "of": 499,
  " go": 500,
  " j": 501,
  " out": 502,
  " H": 503,
  " wor": 504,
  "de": 505,
  "our": 506,
  "ace": 507,
  "red": 508,
  "agn": 509,
  "un": 510,
  " li": 511,
  "ough": 512,
  "lo": 513,
  "/angbracket": 514,
  " po": 515,
  "ens": 516,
  " C": 517,
  "ake": 518,
  " would": 519,
  " We": 520,
  "10": 521,
  " energy": 522,
  "ap": 523,
  "end": 524,
  "ine": 525,
  "ally": 526,
  " two": 527,
  " part": 528,
  "ound": 529,
  "ong": 530,
  "ies": 531,
  "ber": 532,
  "ry": 533,
  "here": 534,
  "/p": 535,
  "agnet": 536,
  " they": 537,
  "ind": 538,
  " II": 539,
  "ance": 540,
  "ite": 541,
  " some": 542,
  "now": 543,
  "ations": 544,
  "for": 545,
  " any": 546,
  "be": 547,
  "ial": 548,
  "ave": 549,
  "act": 550,
  "ore": 551,
  "ie": 552,
  "ook": 553,
  " other": 554,
  " us": 555,
  "ous": 556,
  "one": 557,
  " same": 558,
  "so": 559,
  ".”": 560,
  "ﬁ": 561,
  " what": 562,
  "ions": 563,
  " no": 564,
  " qu": 565,
  " pl": 566,
  " up": 567,
  "ab": 568,
  "hat": 569,
  "are": 570,
  "les": 571,
  "ause": 572,
  " un": 573,
  " when": 574,
  "ass": 575,
  " his": 576,
  "ak": 577,
  "con": 578,
  "du": 579,
  " O": 580,
  "ft": 581,
  " ar": 582,
  " P": 583,
  "led": 584,
  " get": 585,
  "ans": 586,
  "itt": 587,
  " about": 588,
  " like": 589,
  "own": 590,
  "ort": 591,
  "/angbracketright": 592,
  "The": 593,
  "cause": 594,
  "est": 595,
  " only": 596,
  "ep": 597,
  "ard": 598,
  "res": 599,
  " then": 600,
  " It": 601,
  "oment": 602,
  " N": 603,
  " J": 604,
  " know": 605,
  " time": 606,
  "ated": 607,
  "av": 608,
  " ve": 609,
  " more": 610,
  "rime": 611,
  " our": 612,
  "ase": 613,
  "ics": 614,
  " had": 615,
  ".\n\n\n\n": 616,
  " am": 617,
  " L": 618,
  "ach": 619,
  " way": 620,
  " has": 621,
  "di": 622,
  " res": 623,
  " just": 624,
  "ose": 625,
  "itu": 626,
  "other": 627,
  "’t": 628,
  " dis": 629,
  " very": 630,
  "cu": 631,
  "aw": 632,
  "int": 633,
  "ﬀe": 634,
  " cur": 635,
  "arge": 636,
  " im": 637,
  "20": 638,
  "/prime": 639,
  "pt": 640,
  " ph": 641,
  "erm": 642,
  "12": 643,
  " In": 644,
  "iz": 645,
  "el": 646,
  "ast": 647,
  " co": 648,
  "ents": 649,
  "ω": 650,
  "∂": 651,
  "ons": 652,
  " than": 653,
  "ular": 654,
  " moment": 655,
  " how": 656,
  "agnetic": 657,
  "ult": 658,
  "),": 659,
  " If": 660,
  "ers": 661,
  "ue": 662,
  "his": 663,
  " see": 664,
  "way": 665,
  "ctor": 666,
  " tr": 667,
  " say": 668,
  "ater": 669,
  "ys": 670,
  " atom": 671,
  " partic": 672,
  " were": 673,
  "ates": 674,
  " diﬀe": 675,
  "od": 676,
  "11": 677,
  "hing": 678,
  " app": 679,
  "ree": 680,
  "tain": 681,
  " because": 682,
  "uch": 683,
  "ear": 684,
  " them": 685,
  " look": 686,
  "able": 687,
  "ven": 688,
  " sm": 689,
  "pon": 690,
  " ﬀ": 691,
  "ary": 692,
  "that": 693,
  "left": 694,
  "19": 695,
  "We": 696,
  "ress": 697,
  "ac": 698,
  " bet": 699,
  "'t": 700,
  "18": 701,
  "ood": 702,
  "umber": 703,
  " ac": 704,
  " dist": 705,
  " also": 706,
  "ne": 707,
  "ence": 708,
  "13": 709,
  " my": 710,
  " could": 711,
  " D": 712,
  " work": 713,
  "gr": 714,
  "15": 715,
  "ess": 716,
  "ice": 717,
  "ition": 718,
  "∆": 719,
  " fe": 720,
  "fore": 721,
  " thing": 722,
  ").": 723,
  " into": 724,
  "rection": 725,
  "sel": 726,
  " him": 727,
  " inte": 728,
  " ob": 729,
  " man": 730,
  " wr": 731,
  "pe": 732,
  " point": 733,
  "ack": 734,
  "com": 735,
  " sy": 736,
  "ittle": 737,
  " per": 738,
  "urn": 739,
  " cal": 740,
  "16": 741,
  "omet": 742,
  " chang": 743,
  " ag": 744,
  " such": 745,
  "17": 746,
  "ject": 747,
  "'s": 748,
  " spe": 749,
  "14": 750,
  " ra": 751,
  " Jo": 752,
  "rough": 753,
  " number": 754,
  " ang": 755,
  " now": 756,
  " Eq": 757,
  "\"\n\n\n\n": 758,
  " ﬁnd": 759,
  "ving": 760,
  "ds": 761,
  " pr": 762,
  " little": 763,
  " diﬀerent": 764,
  " state": 765,
  " cons": 766,
  " rel": 767,
  " who": 768,
  " must": 769,
  "ible": 770,
  " force": 771,
  "big": 772,
  " z": 773,
  "aid": 774,
  "ink": 775,
  " their": 776,
  "ween": 777,
  "You": 778,
  " ad": 779,
  "og": 780,
  "ment": 781,
  " So": 782,
  "port": 783,
  "age": 784,
  " its": 785,
  "Fig": 786,
  " te": 787,
  "wh": 788,
  "ature": 789,
  " R": 790,
  " make": 791,
  " light": 792,
  " law": 793,
  " But": 794,
  "loc": 795,
  " cl": 796,
  " G": 797,
  "ved": 798,
  "oun": 799,
  "∼": 800,
  " did": 801,
  " Fig": 802,
  " should": 803,
  " magnetic": 804,
  "ory": 805,
  " giv": 806,
  "plitu": 807,
  "nder": 808,
  "ip": 809,
  "ating": 810,
  "not": 811,
  " these": 812,
  "hed": 813,
  " charge": 814,
  " much": 815,
  " each": 816,
  "ential": 817,
  " x": 818,
  "·": 819,
  " wave": 820,
  " been": 821,
  "ative": 822,
  " des": 823,
  "imes": 824,
  "cess": 825,
  " happ": 826,
  "ener": 827,
  " ﬂ": 828,
  " sim": 829,
  "∼,": 830,
  "φ": 831,
  "olut": 832,
  " electron": 833,
  "pend": 834,
  " fact": 835,
  "ourse": 836,
  " may": 837,
  " mat": 838,
  " between": 839,
  "stem": 840,
  "ud": 841,
  " through": 842,
  " right": 843,
  " want": 844,
  " current": 845,
  "self": 846,
  " said": 847,
  "ade": 848,
  "ious": 849,
  " sur": 850,
  "ex": 851,
  "21": 852,
  " does": 853,
  " vector": 854,
  " term": 855,
  " small": 856,
  " form": 857,
  "get": 858,
  " This": 859,
  " over": 860,
  "sc": 861,
  " electric": 862,
  "ince": 863,
  "cy": 864,
  "live": 865,
  " amplitu": 866,
  " sc": 867,
  "fe": 868,
  " lo": 869,
  "ick": 870,
  "quen": 871,
  "ero": 872,
  "der": 873,
  " course": 874,
  "li": 875,
  " +": 876,
  "eps": 877,
  "pect": 878,
  "θ": 879,
  " new": 880,
  " mot": 881,
  "rst": 882,
  " take": 883,
  "chan": 884,
  "locity": 885,
  "rib": 886,
  " inter": 887,
  "stant": 888,
  " fo": 889,
  "ertain": 890,
  "me": 891,
  " your": 892,
  " =": 893,
  "reat": 894,
  "ever": 895,
  " direction": 896,
  " ho": 897,
  " under": 898,
  "ﬁn": 899,
  " pe": 900,
  " hum": 901,
  "bigg": 902,
  " going": 903,
  " equal": 904,
  "gral": 905,
  "ample": 906,
  " quant": 907,
  " long": 908,
  " every": 909,
  " gr": 910,
  " down": 911,
  "∇": 912,
  "ile": 913,
  " momentum": 914,
  "ψ": 915,
  "ced": 916,
  " too": 917,
  "with": 918,
  "otential": 919,
  " another": 920,
  " where": 921,
  "side": 922,
  " gener": 923,
  "by": 924,
  " pre": 925,
  "ign": 926,
  " think": 927,
  ".\"\n\n\n\n": 928,
  "ator": 929,
  " even": 930,
  "ax": 931,
  " exper": 932,
  "requen": 933,
  "ional": 934,
  " turn": 935,
  "ict": 936,
  "µ": 937,
  " ﬁrst": 938,
  " system": 939,
  " cir": 940,
  " For": 941,
  "llow": 942,
  "ph": 943,
  " somet": 944,
  "aves": 945,
  " phys": 946,
  " again": 947,
  "fter": 948,
  "22": 949,
  " cor": 950,
  "which": 951,
  "ise": 952,
  "In": 953,
  "cond": 954,
  " use": 955,
  "ppose": 956,
  "thing": 957,
  "ves": 958,
  "?”": 959,
  "co": 960,
  " back": 961,
  "ount": 962,
  "ility": 963,
  ",\"": 964,
  " made": 965,
  "dis": 966,
  " ide": 967,
  "unction": 968,
  " velocity": 969,
  "rence": 970,
  "po": 971,
  "apter": 972,
  " let": 973,
  "pro": 974,
  " zero": 975,
  "cle": 976,
  "face": 977,
  "bab": 978,
  "ire": 979,
  " don": 980,
  "ather": 981,
  "ism": 982,
  "ty": 983,
  "cl": 984,
  "ople": 985,
  " gra": 986,
  "cul": 987,
  "ilon": 988,
  " str": 989,
  "ge": 990,
  "ssible": 991,
  "epsilon": 992,
  "ull": 993,
  "my": 994,
  " result": 995,
  "ways": 996,
  " three": 997,
  "ady": 998,
  "π": 999,
  " ro": 1000,
  "rest": 1001,
  " equation": 1002,
  "ual": 1003,
  "oth": 1004,
  " example": 1005,
  "blem": 1006,
  "xt": 1007,
  "ful": 1008,
  " She": 1009,
  " pos": 1010,
  "hem": 1011,
  "cre": 1012,
  "00": 1013,
  "ord": 1014,
  " rem": 1015,
  " hand": 1016,
  "ish": 1017,
  "It": 1018,
  " produ": 1019,
  " good": 1020,
  "Now": 1021,
  "ib": 1022,
  " spin": 1023,
  " states": 1024,
  "aren": 1025,
  " cont": 1026,
  " There": 1027,
  " He": 1028,
  " many": 1029,
  " det": 1030,
  " change": 1031,
  " need": 1032,
  " motion": 1033,
  " sl": 1034,
  " comp": 1035,
  "form": 1036,
  " still": 1037,
  " put": 1038,
  " given": 1039,
  " called": 1040,
  " equations": 1041,
  " mechan": 1042,
  "orm": 1043,
  " potential": 1044,
  "ﬀect": 1045,
  " atoms": 1046,
  "resent": 1047,
  " kind": 1048,
  " mass": 1049,
  "II": 1050,
  " frequen": 1051,
  " line": 1052,
  " comple": 1053,
  ":\n": 1054,
  "ls": 1055,
  "sh": 1056,
  "ked": 1057,
  "tern": 1058,
  " mole": 1059,
  " most": 1060,
  " em": 1061,
  " charg": 1063,
  "des": 1064,
  "ume": 1065,
  "air": 1066,
  " desc": 1067,
  "mo": 1068,
  "..": 1069,
  "ower": 1070,
  " something": 1071,
  " constant": 1072,
  " certain": 1073,
  "ward": 1074,
  "eth": 1075,
  "23": 1076,
  " vol": 1077,
  " problem": 1078,
  "olar": 1079,
  "gth": 1080,
  "where": 1081,
  "irst": 1082,
  " mean": 1083,
  " distance": 1084,
  " An": 1085,
  " sub": 1086,
  "ears": 1087,
  "stand": 1088,
  "ub": 1089,
  "34": 1090,
  " add": 1092,
  " shall": 1093,
  "ought": 1094,
  " always": 1095,
  "ually": 1096,
  "tal": 1097,
  " III": 1098,
  " ear": 1099,
  " things": 1100,
  "ˆ": 1101,
  "aking": 1102,
  "dam": 1103,
  "ily": 1104,
  "app": 1105,
  "asure": 1106,
  " come": 1107,
  "eg": 1108,
  " probab": 1109,
  "ically": 1110,
  " particle": 1111,
  "=−": 1112,
  " electrons": 1113,
  " pat": 1114,
  "gether": 1115,
  " val": 1116,
  " waves": 1117,
  "ensity": 1118,
  " var": 1119,
  "rect": 1120,
  " might": 1121,
  "30": 1122,
  "olution": 1123,
  "aterial": 1124,
  " never": 1125,
  " surface": 1126,
  "emper": 1127,
  "igh": 1128,
  "als": 1129,
  "iss": 1130,
  " ∆": 1131,
  " cent": 1132,
  "inte": 1133,
  " V": 1134,
  " amplitude": 1135,
  " people": 1136,
  " shown": 1137,
  " function": 1138,
  " ‘": 1139,
  " trans": 1140,
  "play": 1141,
  "25": 1142,
  "ities": 1143,
  " bl": 1144,
  " car": 1145,
  " ey": 1146,
  " That": 1147,
  "/angbracketleft": 1148,
  " really": 1149,
  "part": 1150,
  " around": 1151,
  " case": 1152,
  " And": 1153,
  " You": 1154,
  " follow": 1155,
  " interest": 1156,
  " molecu": 1157,
  " eﬀect": 1158,
  "ider": 1159,
  "emperature": 1160,
  " show": 1161,
  "ody": 1162,
  "ρ": 1163,
  " set": 1164,
  " eas": 1165,
  " tell": 1166,
  "can": 1167,
  "/paren": 1168,
  " after": 1169,
  "ane": 1170,
  "ting": 1171,
  "cur": 1172,
  "cial": 1173,
  " try": 1174,
  " U": 1175,
  " quantum": 1176,
  " second": 1177,
  " real": 1178,
  " Olive": 1179,
  " ke": 1181,
  " well": 1182,
  " radi": 1183,
  "iment": 1184,
  " ﬁelds": 1185,
  " tra": 1186,
  " object": 1187,
  "dt": 1188,
  "35": 1189,
  "ﬃ": 1190,
  " human": 1191,
  " act": 1192,
  "erv": 1193,
  "scill": 1194,
  " away": 1195,
  " before": 1196,
  "36": 1197,
  " possible": 1198,
  "vers": 1199,
  "display": 1200,
  " start": 1201,
  "olog": 1202,
  " anal": 1203,
  " found": 1204,
  " elect": 1205,
  " forces": 1206,
  " call": 1207,
  " material": 1208,
  " When": 1209,
  "ﬂ": 1210,
  "(x": 1211,
  " beg": 1212,
  " both": 1213,
  " oscill": 1214,
  " space": 1215,
  " Ch": 1216,
  "less": 1217,
  "portional": 1218,
  " terms": 1219,
  "press": 1220,
  " write": 1221,
  "man": 1222,
  "from": 1223,
  "ning": 1224,
  "×": 1225,
  " give": 1226,
  "38": 1227,
  "plic": 1228,
  "26": 1229,
  "sum": 1230,
  "ength": 1231,
  " bo": 1232,
  " unit": 1233,
  " together": 1234,
  "24": 1235,
  "met": 1236,
  "27": 1237,
  "ark": 1238,
  " Then": 1239,
  " inv": 1240,
  "cept": 1241,
  " charges": 1242,
  "cient": 1243,
  " speed": 1244,
  "ryst": 1245,
  "If": 1246,
  " far": 1247,
  " sum": 1248,
  "urie": 1249,
  "ail": 1250,
  "oton": 1251,
  " feel": 1252,
  " inst": 1253,
  "ried": 1254,
  "ines": 1255,
  " large": 1256,
  "28": 1257,
  " particles": 1258,
  " general": 1259,
  "cuss": 1260,
  " min": 1261,
  " par": 1262,
  " lif": 1263,
  "uppose": 1264,
  "ribut": 1265,
  " true": 1266,
  "ia": 1267,
  "This": 1268,
  "33": 1269,
  " temperature": 1270,
  "akes": 1271,
  " compon": 1272,
  "have": 1273,
  " times": 1274,
  " rep": 1275,
  "electr": 1276,
  "He": 1277,
  " world": 1278,
  "tra": 1279,
  "olariz": 1280,
  "ps": 1281,
  " Now": 1282,
  " Meg": 1283,
  " sol": 1284,
  " mechanics": 1285,
  " frequency": 1286,
  " cannot": 1287,
  " understand": 1288,
  " deﬁn": 1289,
  "ild": 1290,
  " ax": 1291,
  "aurie": 1292,
  " bel": 1293,
  ",”": 1294,
  " moving": 1295,
  "ection": 1296,
  " total": 1297,
  "ian": 1298,
  "arly": 1299,
  " inde": 1300,
  "ron": 1301,
  " angular": 1302,
  "ors": 1303,
  " exact": 1304,
  "ross": 1305,
  " rot": 1306,
  " along": 1307,
  " theory": 1308,
  " great": 1309,
  "ug": 1310,
  " br": 1311,
  " laws": 1312,
  " day": 1313,
  " calcul": 1314,
  "/epsilon": 1315,
  " reg": 1316,
  " depend": 1317,
  "arm": 1318,
  " proportional": 1319,
  " done": 1320,
  " measure": 1321,
  " idea": 1322,
  "alk": 1323,
  "inci": 1324,
  " What": 1325,
  "will": 1326,
  " discuss": 1327,
  "ances": 1328,
  "=/": 1329,
  "ange": 1330,
  "itive": 1331,
  " sign": 1332,
  "yn": 1333,
  "ments": 1334,
  "wn": 1335,
  "its": 1336,
  " Amy": 1337,
  " col": 1338,
  " ent": 1339,
  " since": 1340,
  " How": 1341,
  " integral": 1342,
  " magnet": 1343,
  "ten": 1344,
  "ppos": 1345,
  "ff": 1346,
  " squ": 1347,
  "up": 1348,
  "pos": 1349,
  "alf": 1350,
  " -": 1351,
  "atic": 1352,
  " Adam": 1353,
  " simple": 1354,
  " clo": 1355,
  " imag": 1356,
  "ases": 1357,
  "ings": 1358,
  " old": 1359,
  "ately": 1360,
  " cryst": 1361,
  " used": 1362,
  " experiment": 1363,
  "ton": 1364,
  " consider": 1365,
  " appro": 1366,
  "σ": 1367,
  " seem": 1368,
  "ember": 1369,
  "-\n": 1370,
  ").\n": 1371,
  " enough": 1372,
  "ident": 1373,
  " Y": 1374,
  "ared": 1375,
  "inciple": 1376,
  " side": 1377,
  "ucle": 1378,
  "aug": 1379,
  " stud": 1380,
  "ists": 1381,
  "\"I": 1382,
  " order": 1383,
  " complete": 1384,
  " formul": 1385,
  " Th": 1386,
  " particular": 1387,
  "verage": 1388,
  "leftbigg": 1389,
  " end": 1390,
  "ew": 1391,
  "ms": 1392,
  " last": 1393,
  " place": 1394,
  "par": 1395,
  " gl": 1396,
  " quite": 1397,
  "ready": 1398,
  "ures": 1399,
  "32": 1400,
  " ev": 1401,
  "arch": 1402,
  " thought": 1403,
  " while": 1404,
  " ans": 1405,
  " probability": 1406,
  " proper": 1407,
  " being": 1408,
  "hes": 1409,
  " exactly": 1410,
  "integral": 1411,
  "29": 1412,
  " whe": 1413,
  " goes": 1414,
  " class": 1415,
  " neg": 1416,
  "—the": 1417,
  "ts": 1418,
  "ted": 1419,
  "ativ": 1420,
  " |": 1421,
  " next": 1422,
  " abs": 1423,
  "/c": 1424,
  " physics": 1425,
  " inside": 1426,
  "cel": 1427,
  "39": 1428,
  "40": 1429,
  "’d": 1430,
  " They": 1431,
  " matter": 1432,
  "rightbigg": 1433,
  " int": 1434,
  " che": 1435,
  "ied": 1436,
  " Mr": 1437,
  "wor": 1438,
  " why": 1439,
  "imens": 1440,
  " K": 1441,
  " ﬂow": 1442,
  "op": 1443,
  " beh": 1444,
  " four": 1445,
  " rest": 1446,
  "37": 1447,
  "ner": 1448,
  " left": 1449,
  "What": 1450,
  "action": 1451,
  " air": 1452,
  " \"": 1453,
  " Laurie": 1454,
  "wer": 1455,
  " reas": 1456,
  " oper": 1457,
  " head": 1458,
  "ng": 1459,
  " sym": 1460,
  "31": 1461,
  "pr": 1462,
  "und": 1463,
  "ues": 1464,
  " rather": 1465,
  " didn": 1466,
  " however": 1467,
  "respon": 1468,
  " ind": 1469,
  "dd": 1470,
  "iew": 1471,
  " el": 1472,
  " less": 1473,
  " ﬂu": 1474,
  " curve": 1475,
  " interesting": 1476,
  " won": 1477,
  "gen": 1478,
  "201": 1479,
  " sat": 1480,
  "42": 1481,
  "cent": 1482,
  " those": 1483,
  " means": 1484,
  " water": 1485,
  " angle": 1486,
  "ness": 1487,
  "ined": 1488,
  " though": 1489,
  ".)": 1490,
  " density": 1491,
  "omen": 1492,
  " average": 1493,
  " happen": 1494,
  " off": 1495,
  " without": 1496,
  "ove": 1497,
  " principle": 1498,
  "ped": 1499,
  " care": 1500,
  " complic": 1501,
  "riend": 1502,
  "ither": 1503,
  " eyes": 1504,
  "hy": 1505,
  "portant": 1506,
  "igin": 1507,
  " situ": 1508,
  " sour": 1509,
  " quest": 1510,
  " life": 1511,
  "hemat": 1512,
  "ru": 1513,
  "ided": 1514,
  "sp": 1515,
  " here": 1516,
  "ense": 1517,
  " heat": 1518,
  " volume": 1519,
  " dec": 1520,
  " already": 1521,
  "rad": 1522,
  "cos": 1523,
  " descri": 1524,
  "ser": 1525,
  " few": 1526,
  " got": 1527,
  "ob": 1528,
  " words": 1529,
  "cal": 1530,
  "ix": 1531,
  "ize": 1532,
  " high": 1533,
  "but": 1534,
  " polariz": 1535,
  " solution": 1536,
  "row": 1537,
  "ute": 1538,
  "come": 1539,
  " hel": 1540,
  "old": 1541,
  " acc": 1542,
  " condu": 1543,
  " better": 1544,
  " As": 1545,
  " diﬀerence": 1546,
  "itten": 1547,
  " hard": 1548,
  "que": 1549,
  " ru": 1550,
  "ks": 1551,
  " move": 1552,
  "There": 1553,
  "was": 1554,
  " square": 1555,
  " gir": 1556,
  "xim": 1557,
  " belie": 1558,
  "41": 1559,
  " ele": 1560,
  "though": 1561,
  " crystal": 1562,
  " years": 1563,
  "direction": 1564,
  " keep": 1565,
  " happens": 1566,
  " base": 1567,
  " cond": 1568,
  "She": 1569,
  "formation": 1570,
  "do": 1571,
  "-h": 1572,
  "integraldisplay": 1573,
  " nucle": 1574,
  "rain": 1575,
  "angbracketleft": 1576,
  " position": 1577,
  "place": 1578,
  "ully": 1579,
  "celer": 1580,
  "angbracketright": 1581,
  "there": 1582,
  " phase": 1583,
  "aps": 1584,
  " incre": 1585,
  " amount": 1586,
  "So": 1587,
  " Suppose": 1588,
  " looked": 1589,
  "would": 1590,
  " pie": 1591,
  "etic": 1592,
  "ervation": 1593,
  " ω": 1594,
  " expl": 1595,
  " whole": 1596,
  " der": 1597,
  "'m": 1598,
  "ead": 1599,
  " reason": 1600,
  " power": 1601,
  "–": 1602,
  "ract": 1603,
  " mind": 1604,
  " complicated": 1605,
  "ingle": 1606,
  " fl": 1607,
  "atter": 1608,
  " nothing": 1609,
  "energy": 1610,
  " respect": 1611,
  " Beth": 1612,
  " important": 1613,
  " formula": 1614,
  " free": 1615,
  " face": 1616,
  "you": 1617,
  " talk": 1618,
  "'ll": 1619,
  " disco": 1620,
  " amplitudes": 1621,
  " own": 1622,
  " following": 1623,
  "bit": 1624,
  "α": 1625,
  " express": 1626,
  "sy": 1627,
  " press": 1628,
  "equ": 1629,
  "pposite": 1630,
  "ordin": 1631,
  "oy": 1632,
  "any": 1633,
  " origin": 1634,
  "aces": 1635,
  "(t": 1636,
  "Olive": 1637,
  "most": 1638,
  "ata": 1639,
  " rate": 1640,
  "nal": 1641,
  "like": 1642,
  "verse": 1643,
  "/parenrightbigg": 1644,
  " area": 1645,
  "read": 1646,
  " therefore": 1647,
  " ask": 1648,
  "what": 1649,
  " chapter": 1650,
  " gu": 1651,
  "ﬁeld": 1652,
  " went": 1653,
  " dra": 1654,
  "day": 1655,
  " gas": 1656,
  " sound": 1657,
  "dro": 1658,
  " Let": 1659,
  " '": 1660,
  " once": 1661,
  "ology": 1662,
  "ric": 1663,
  " cle": 1664,
  " anything": 1665,
  "But": 1666,
  " strong": 1667,
  " arg": 1668,
  " expect": 1669,
  "partic": 1670,
  " value": 1671,
  "itions": 1672,
  " molecules": 1673,
  " path": 1674,
  " correspon": 1675,
  " hy": 1676,
  " coll": 1677,
  " ret": 1678,
  " came": 1679,
  "err": 1680,
  " answer": 1681,
  " determ": 1682,
  "(a": 1683,
  "ell": 1684,
  " whether": 1685,
  " deriv": 1686,
  " axis": 1687,
  " asked": 1688,
  " using": 1689,
  "fect": 1690,
  "vel": 1691,
  "alle": 1692,
  " ever": 1693,
  " heart": 1694,
  "ited": 1695,
  "ision": 1696,
  "ale": 1697,
  " mathemat": 1698,
  " physical": 1699,
  " classical": 1700,
  " love": 1701,
  "|ψ": 1702,
  " electro": 1703,
  "fully": 1704,
  "io": 1705,
  "cies": 1706,
  " describ": 1707,
  "ding": 1708,
  "state": 1709,
  " begin": 1710,
  "ational": 1711,
  " negative": 1712,
  " seen": 1713,
  " positive": 1714,
  " approxim": 1715,
  " Al": 1716,
  "uring": 1717,
  " question": 1718,
  " special": 1719,
  " currents": 1720,
  " pass": 1721,
  " symmet": 1722,
  " written": 1723,
  "xy": 1724,
  "ired": 1725,
  "ribution": 1726,
  "go": 1727,
  "val": 1728,
  " ple": 1729,
  " cap": 1730,
  "ference": 1731,
  " represent": 1732,
  " earth": 1733,
  "some": 1734,
  " suppose": 1735,
  "iting": 1736,
  " acceler": 1737,
  " low": 1738,
  " circu": 1739,
  " opposite": 1740,
  "arn": 1741,
  " comm": 1742,
  "istic": 1743,
  "ption": 1744,
  " Be": 1745,
  " first": 1746,
  " herself": 1747,
  "ze": 1748,
  "ath": 1749,
  " close": 1750,
  " circ": 1751,
  " plane": 1752,
  "henomen": 1753,
  "iled": 1754,
  " gre": 1755,
  ".(": 1756,
  "ized": 1757,
  "elt": 1758,
  " molecule": 1759,
  "√": 1760,
  "compon": 1761,
  "well": 1762,
  "new": 1763,
  "Ch": 1764,
  " comes": 1765,
  "ret": 1766,
  " situation": 1767,
  " near": 1768,
  " cy": 1769,
  "ient": 1770,
  "?\"": 1771,
  " home": 1772,
  " bu": 1773,
  "chn": 1774,
  "ished": 1775,
  " half": 1776,
  "att": 1777,
  "inary": 1778,
  " easy": 1779,
  "ording": 1780,
  "ched": 1781,
  "An": 1782,
  "(b": 1783,
  " St": 1784,
  " correct": 1785,
  " friend": 1786,
  "ply": 1787,
  "For": 1788,
  "romagnetic": 1789,
  "col": 1790,
  "axis": 1791,
  " later": 1792,
  " read": 1793,
  "radical": 1794,
  " cre": 1795,
  "ior": 1796,
  "selves": 1797,
  "wo": 1798,
  "ﬁc": 1799,
  " experi": 1800,
  " ir": 1801,
  " source": 1802,
  "ires": 1803,
  ",y": 1804,
  " ref": 1805,
  " gives": 1806,
  "otons": 1807,
  "−v": 1808,
  " process": 1809,
  " help": 1810,
  "ij": 1811,
  " clos": 1812,
  " components": 1813,
  "length": 1814,
  " humans": 1815,
  "mation": 1816,
  " comb": 1817,
  "That": 1818,
  "pped": 1819,
  " hole": 1820,
  " best": 1821,
  "med": 1822,
  " beam": 1823,
  " wire": 1824,
  " grav": 1825,
  " On": 1826,
  "haps": 1827,
  "ote": 1828,
  " To": 1829,
  "-d": 1830,
  "eﬃ": 1831,
  "ah": 1832,
  " length": 1833,
  " took": 1834,
  "this": 1835,
  "til": 1836,
  "uck": 1837,
  " fam": 1838,
  "ond": 1839,
  " indu": 1840,
  " oc": 1841,
  "raction": 1842,
  " New": 1843,
  "when": 1844,
  "lf": 1845,
  " plan": 1846,
  "iform": 1847,
  "inetic": 1848,
  "ei": 1849,
  "has": 1850,
  " view": 1851,
  " present": 1852,
  "just": 1853,
  " met": 1854,
  "’,": 1855,
  "uth": 1856,
  "ides": 1857,
  " ser": 1858,
  " felt": 1859,
  " looking": 1860,
  " young": 1861,
  " least": 1862,
  "50": 1863,
  "200": 1864,
  "rop": 1865,
  "|+": 1866,
  " cos": 1867,
  " laug": 1868,
  "√\n": 1869,
  " bas": 1870,
  "-f": 1871,
  " everything": 1872,
  " op": 1873,
  " net": 1874,
  " super": 1875,
  " ﬁg": 1876,
  " numbers": 1877,
  "How": 1878,
  " big": 1879,
  " describe": 1880,
  "γ": 1881,
  "ties": 1882,
  "Let": 1883,
  "−/": 1884,
  " above": 1885,
  "ected": 1886,
  "atur": 1887,
  "cious": 1888,
  "no": 1889,
  " att": 1890,
  " bit": 1891,
  "about": 1892,
  " ed": 1893,
  " phenomen": 1894,
  " various": 1895,
  "allel": 1896,
  " against": 1897,
  " Since": 1898,
  "summation": 1899,
  "-axis": 1900,
  "lic": 1901,
  "iet": 1902,
  "ird": 1903,
  " obser": 1904,
  "ention": 1905,
  " subject": 1906,
  "aken": 1907,
  "oice": 1908,
  " /": 1909,
  "atus": 1910,
  " wish": 1911,
  "ars": 1912,
  "ev": 1913,
  " either": 1914,
  " fall": 1915,
  "must": 1916,
  " Chapter": 1917,
  "?\"\n\n\n\n": 1918,
  "oid": 1919,
  "ank": 1920,
  " pa": 1921,
  " doesn": 1922,
  " often": 1923,
  " March": 1924,
  "fort": 1925,
  " yet": 1926,
  "comes": 1927,
  "τ": 1928,
  " whose": 1929,
  "veral": 1930,
  " pressure": 1931,
  "ands": 1932,
  " body": 1933,
  "drogen": 1934,
  " remember": 1935,
  "ann": 1936,
  "because": 1937,
  " coordin": 1938,
  " able": 1939,
  "more": 1940,
  " Pro": 1941,
  "aut": 1942,
  " direct": 1943,
  "ization": 1944,
  " atomic": 1945,
  " neut": 1946,
  "radicalbig": 1947,
  "ium": 1948,
  "ling": 1949,
  "time": 1950,
  " making": 1951,
  " upon": 1952,
  " component": 1953,
  "electric": 1954,
  " dem": 1955,
  "hn": 1956,
  "ouble": 1957,
  " single": 1958,
  "-direction": 1959,
  " circuit": 1960,
  "No": 1961,
  " proton": 1962,
  " complex": 1963,
  " study": 1964,
  "ination": 1965,
  " Thus": 1966,
  "igher": 1967,
  "oke": 1968,
  "light": 1969,
  "ival": 1970,
  "itude": 1971,
  "velo": 1972,
  " satis": 1973,
  "vered": 1974,
  "moment": 1975,
  "kT": 1976,
  "str": 1977,
  " At": 1978,
  " center": 1979,
  "lock": 1980,
  " sure": 1981,
  "ral": 1982,
  "aratus": 1983,
  "◦": 1985,
  " slow": 1986,
  " calculate": 1987,
  "ened": 1988,
  "aced": 1989,
  " count": 1990,
  "’m": 1991,
  " obtain": 1992,
  " coil": 1993,
  " contin": 1994,
  " table": 1995,
  " room": 1996,
  " toward": 1997,
  "gor": 1998,
  "TE": 1999,
  " learn": 2000,
  " ass": 2001,
  "pendent": 2002,
  "vert": 2003,
  "/parenleftbigg": 2004,
  "ement": 2005,
  "times": 2006,
  " turns": 2007,
  " operator": 2008,
  "ormal": 2009,
  " sk": 2010,
  " having": 2011,
  " tor": 2012,
  "eyn": 2013,
  " mult": 2014,
  " argum": 2015,
  " else": 2016,
  " itself": 2017,
  " makes": 2018,
  "iness": 2019,
  "know": 2020,
  "ries": 2021,
  " invol": 2022,
  " run": 2023,
  " lines": 2024,
  "“I": 2025,
  "vector": 2026,
  " ﬁgure": 2027,
  " loo": 2028,
  "ific": 2029,
  "gra": 2030,
  " kinetic": 2031,
  " several": 2032,
  ".,": 2033,
  "ert": 2034,
  " separ": 2035,
  "ences": 2036,
  " nature": 2037,
  " relative": 2038,
  " stra": 2039,
  " pair": 2040,
  " ˆ": 2041,
  " book": 2042,
  " product": 2043,
  "sin": 2044,
  " ext": 2045,
  " sense": 2046,
  " coeﬃ": 2047,
  "body": 2048,
  " requ": 2049,
  " conservation": 2050,
  "used": 2051,
  " region": 2052,
  " says": 2053,
  "cience": 2054,
  " hold": 2055,
  "ωt": 2056,
  "gorith": 2057,
  "istance": 2058,
  "000": 2059,
  " find": 2060,
  " known": 2061,
  " simply": 2062,
  " rat": 2063,
  "component": 2064,
  "ier": 2065,
  " stand": 2066,
  " ﬂux": 2067,
  " uniform": 2068,
  "tr": 2069,
  " imagine": 2070,
  " radius": 2071,
  " No": 2072,
  " adv": 2073,
  "vious": 2074,
  " assum": 2075,
  "ash": 2076,
  "ins": 2077,
  " instance": 2078,
  " theore": 2079,
  " inﬁn": 2080,
  "conom": 2081,
  "ury": 2082,
  " electrical": 2083,
  " i": 2084,
  "tered": 2085,
  " conn": 2086,
  "su": 2087,
  " dimens": 2088,
  "),\n": 2089,
  " turned": 2090,
  " completely": 2091,
  "Th": 2092,
  " factor": 2093,
  " suc": 2094,
  " almost": 2095,
  " subst": 2096,
  ")is": 2097,
  " short": 2098,
  "atch": 2099,
  " One": 2100,
  " child": 2101,
  "summationdisplay": 2102,
  "∇×": 2103,
  "they": 2104,
  " reﬂ": 2105,
  "rium": 2106,
  " magn": 2107,
  "ows": 2108,
  " −": 2109,
  "/dt": 2110,
  " dif": 2111,
  "acter": 2112,
  " distribution": 2113,
  "imum": 2114,
  "say": 2115,
  "": 2116,
  "enty": 2117,
  "see": 2118,
  " usually": 2119,
  " oscillator": 2120,
  " longer": 2121,
  "ergies": 2122,
  "∇·": 2123,
  "position": 2124,
  " eye": 2125,
  " higher": 2126,
  ".)\n": 2127,
  " sun": 2128,
  " eﬀects": 2129,
  " volt": 2130,
  "rang": 2131,
  " vari": 2132,
  "possible": 2133,
  "rel": 2134,
  "redict": 2135,
  "ape": 2136,
  "ho": 2137,
  " mill": 2138,
  " chem": 2139,
  " lot": 2140,
  "45": 2141,
  "atom": 2142,
  "ouse": 2143,
  "eynman": 2144,
  "cise": 2145,
  " poss": 2146,
  " deﬁnite": 2147,
  "ma": 2148,
  " cross": 2149,
  " piece": 2150,
  " described": 2151,
  " told": 2152,
  " values": 2153,
  " \u0000": 2154,
  "ised": 2155,
  "!\n": 2156,
  "oc": 2157,
  "∂t": 2158,
  "ott": 2159,
  " play": 2160,
  "ament": 2161,
  "only": 2162,
  " wrong": 2163,
  " until": 2164,
  "how": 2165,
  "ery": 2166,
  " pict": 2167,
  " )": 2168,
  " wavelength": 2169,
  "dx": 2170,
  " trying": 2171,
  " Q": 2172,
  "ternal": 2173,
  " changes": 2174,
  "When": 2175,
  "//": 2176,
  " detail": 2177,
  " saw": 2178,
  " points": 2179,
  "avior": 2180,
  " angles": 2181,
  "/∂": 2182,
  " lect": 2183,
  "urther": 2184,
  "ters": 2185,
  "pole": 2186,
  " arri": 2187,
  " mother": 2188,
  " tens": 2189,
  " absor": 2190,
  " art": 2191,
  " produce": 2192,
  " However": 2193,
  "ivid": 2194,
  "43": 2195,
  " hor": 2196,
  " girls": 2197,
  " cr": 2198,
  " eng": 2199,
  " deal": 2200,
  " conf": 2201,
  "And": 2202,
  "vels": 2203,
  " div": 2204,
  "cons": 2205,
  "ene": 2206,
  " sphere": 2207,
  " Of": 2208,
  " believe": 2209,
  " nice": 2210,
  "—”": 2211,
  "’re": 2212,
  "mer": 2213,
  " ideas": 2214,
  "ilar": 2215,
  " rotation": 2216,
  " depends": 2217,
  " frequencies": 2218,
  "olute": 2219,
  " taken": 2220,
  " explain": 2221,
  " perfect": 2222,
  "axwell": 2223,
  " reson": 2224,
  " results": 2225,
  " self": 2226,
  "cult": 2227,
  " outside": 2228,
  "  ": 2229,
  " hydrogen": 2230,
  "she": 2231,
  "cer": 2232,
  " gave": 2233,
  " conductor": 2234,
  " incl": 2235,
  " parallel": 2236,
  "bed": 2237,
  "As": 2238,
  " techn": 2239,
  "aracter": 2240,
  "diﬀe": 2241,
  " First": 2242,
  " easily": 2243,
  " analy": 2244,
  " plate": 2245,
  " Un": 2246,
  " Vol": 2247,
  " acceleration": 2248,
  "44": 2249,
  "δ": 2250,
  "ON": 2251,
  " become": 2252,
  "astic": 2253,
  "hip": 2254,
  "Chapter": 2255,
  "oul": 2256,
  "λ": 2257,
  "ories": 2258,
  " due": 2259,
  " knew": 2260,
  "ives": 2261,
  " John": 2262,
  "inst": 2263,
  "reg": 2264,
  "Oh": 2265,
  " seemed": 2266,
  "ﬃcult": 2267,
  " name": 2268,
  " dear": 2269,
  "ek": 2270,
  " doing": 2271,
  " hands": 2272,
  "uct": 2273,
  " φ": 2274,
  " relations": 2275,
  " oﬀ": 2276,
  " soon": 2277,
  "let": 2278,
  "bet": 2279,
  " vis": 2280,
  " polarization": 2281,
  "∂x": 2282,
  " \n\n\n\n": 2283,
  "ring": 2284,
  "ww": 2285,
  " relativ": 2286,
  " properties": 2287,
  " energies": 2288,
  "work": 2289,
  "omb": 2290,
  "ethod": 2291,
  " actually": 2292,
  " leave": 2293,
  " happy": 2294,
  " photon": 2295,
  " began": 2296,
  "wr": 2297,
  " straight": 2298,
  " Anh": 2299,
  " uni": 2300,
  " lim": 2301,
  " sens": 2302,
  " God": 2303,
  "cor": 2304,
  "ify": 2305,
  "ged": 2306,
  " electrost": 2307,
  "ield": 2308,
  "ining": 2309,
  "ush": 2310,
  " analys": 2311,
  "!\"": 2312,
  " Ph": 2313,
  " full": 2314,
  " independent": 2315,
  " appear": 2316,
  " predict": 2317,
  " instead": 2318,
  " sto": 2319,
  " develo": 2320,
  " pers": 2321,
  "olutions": 2322,
  " mach": 2323,
  "ilib": 2324,
  "ilibrium": 2325,
  " main": 2326,
  " Car": 2327,
  " wa": 2328,
  "ividual": 2329,
  " natur": 2330,
  " Therefore": 2331,
  "?\n": 2332,
  " across": 2333,
  "ased": 2334,
  " parts": 2335,
  " vary": 2336,
  "=E": 2337,
  "rem": 2338,
  "cing": 2339,
  "chang": 2340,
  " pret": 2341,
  "through": 2342,
  "ets": 2343,
  " bound": 2344,
  "vol": 2345,
  "then": 2346,
  " addition": 2347,
  " satisf": 2348,
  " works": 2349,
  "lind": 2350,
  "uman": 2351,
  " mode": 2352,
  "itted": 2353,
  ",z": 2354,
  " mathematical": 2355,
  "point": 2356,
  "usion": 2357,
  " pattern": 2358,
  "than": 2359,
  "Jo": 2360,
  " algorith": 2361,
  "ages": 2362,
  "To": 2363,
  "100": 2364,
  "itting": 2365,
  " ways": 2366,
  " lower": 2367,
  "change": 2368,
  "+/": 2369,
  "'d": 2370,
  " ste": 2371,
  "mal": 2372,
  "48": 2373,
  "ats": 2374,
  "umst": 2375,
  "ream": 2376,
  " beaut": 2377,
  "quid": 2378,
  "look": 2379,
  " fr": 2380,
  " dev": 2381,
  "dden": 2382,
  "lier": 2383,
  "ferent": 2384,
  " scient": 2385,
  " dr": 2386,
  " saying": 2387,
  " vert": 2388,
  " quantity": 2389,
  "pper": 2390,
  "ering": 2391,
  "mechan": 2392,
  " occur": 2393,
  "isions": 2394,
  "ront": 2395,
  " comput": 2396,
  " changed": 2397,
  "into": 2398,
  " red": 2399,
  " produced": 2400,
  "ector": 2401,
  " dimensions": 2402,
  "agnetism": 2403,
  " apparatus": 2404,
  " sudden": 2405,
  " analog": 2406,
  "ump": 2407,
  " brain": 2408,
  "": 2409,
  " coming": 2410,
  "two": 2411,
  "down": 2412,
  " rule": 2413,
  "Adam": 2414,
  " diﬃcult": 2415,
  " probably": 2416,
  " entire": 2417,
  " diﬀ": 2418,
  " similar": 2419,
  "certain": 2420,
  " grow": 2421,
  " past": 2422,
  " expression": 2423,
  "joy": 2424,
  "amics": 2425,
  " year": 2426,
  " These": 2427,
  " loop": 2428,
  "oney": 2429,
  "gan": 2430,
  " Or": 2431,
  " meaning": 2432,
  "ots": 2433,
  "reak": 2434,
  " anim": 2435,
  " mar": 2436,
  " normal": 2437,
  "produ": 2438,
  " hist": 2439,
  " ﬁn": 2440,
  " necess": 2441,
  " Mrs": 2442,
  "ices": 2443,
  " exc": 2444,
  " vectors": 2445,
  " dri": 2446,
  "anced": 2447,
  " picture": 2448,
  " α": 2449,
  "—and": 2450,
  " lab": 2451,
  "rying": 2452,
  "pid": 2453,
  "eter": 2454,
  " slight": 2455,
  " sil": 2456,
  " coordinate": 2457,
  "onic": 2458,
  " return": 2459,
  " tried": 2460,
  " method": 2461,
  "imensional": 2462,
  " Tom": 2463,
  "az": 2464,
  "ising": 2465,
  "head": 2466,
  "ilities": 2467,
  "cont": 2468,
  "use": 2469,
  " gets": 2470,
  "ivalent": 2471,
  " pol": 2472,
  " lay": 2473,
  " With": 2474,
  "iction": 2475,
  " gravit": 2476,
  " voltage": 2477,
  "-component": 2478,
  " precise": 2479,
  "cho": 2480,
  "aring": 2481,
  "—that": 2482,
  "rep": 2483,
  "χ": 2484,
  " fund": 2485,
  " pick": 2486,
  " isn": 2487,
  "-dimensional": 2488,
  " attra": 2489,
  "same": 2490,
  " liber": 2491,
  "under": 2492,
  " ones": 2493,
  " intensity": 2494,
  "ﬁne": 2495,
  " electromagnetic": 2496,
  "asant": 2497,
  " err": 2498,
  " By": 2499,
  " behind": 2500,
  " directions": 2501,
  "medi": 2502,
  " ord": 2503,
  "aving": 2504,
  ")and": 2505,
  "/~": 2506,
  " econom": 2507,
  "-m": 2508,
  " success": 2509,
  " solve": 2510,
  " Maxwell": 2511,
  " fast": 2512,
  "Then": 2513,
  "oose": 2514,
  " voice": 2515,
  " pur": 2516,
  " ge": 2517,
  "rical": 2518,
  " except": 2519,
  " absolute": 2520,
  " All": 2521,
  " analysis": 2522,
  " nearly": 2523,
  " magnitude": 2524,
  "magnetic": 2525,
  "alcol": 2526,
  " Feynman": 2527,
  "oud": 2528,
  " bro": 2529,
  "iod": 2530,
  "-hand": 2531,
  " wall": 2532,
  " character": 2533,
  " mus": 2534,
  " boy": 2535,
  " stay": 2536,
  "rix": 2537,
  "alcolm": 2538,
  " alone": 2539,
  " couldn": 2540,
  "Ex": 2541,
  " harm": 2542,
  " top": 2543,
  " prop": 2544,
  " weight": 2545,
  " pract": 2546,
  "+\n": 2547,
  " till": 2548,
  " imp": 2549,
  "ift": 2550,
  " Why": 2551,
  " box": 2552,
  "'ve": 2553,
  " themselves": 2554,
  "ude": 2555,
  "ivity": 2556,
  " capac": 2557,
  "oman": 2558,
  " displace": 2559,
  "unt": 2560,
  " interaction": 2561,
  " remark": 2562,
  " materials": 2563,
  " prov": 2564,
  "ung": 2565,
  " cell": 2566,
  "br": 2567,
  " rec": 2568,
  " takes": 2569,
  "sur": 2570,
  " individual": 2571,
  "ost": 2572,
  " bad": 2573,
  "put": 2574,
  " block": 2575,
  " perhaps": 2576,
  ";\n": 2577,
  "fess": 2578,
  " dipole": 2579,
  " changing": 2580,
  " tend": 2581,
  "−i": 2582,
  " remain": 2583,
  " wanted": 2584,
  "line": 2585,
  " ill": 2586,
  " approximation": 2587,
  " axes": 2588,
  "sing": 2589,
  " torque": 2590,
  " problems": 2591,
  " index": 2592,
  "them": 2593,
  "using": 2594,
  " ground": 2595,
  "auss": 2596,
  " Newton": 2597,
  " tri": 2598,
  " vertical": 2599,
  " becomes": 2600,
  " ρ": 2601,
  "ently": 2602,
  " liquid": 2603,
  "...": 2604,
  "were": 2605,
  " word": 2606,
  "ously": 2607,
  "ledge": 2608,
  " exist": 2609,
  "Yes": 2610,
  " taking": 2611,
  " clock": 2612,
  "III": 2613,
  " bus": 2614,
  " sometimes": 2615,
  " six": 2616,
  " color": 2617,
  "52": 2618,
  " cylind": 2619,
  " mon": 2620,
  " behavior": 2621,
  " related": 2622,
  " larg": 2623,
  "(r": 2624,
  "orn": 2625,
  "Be": 2626,
  " original": 2627,
  "diﬀerent": 2628,
  " looks": 2629,
  "inter": 2630,
  " spl": 2631,
  " night": 2632,
  " fore": 2633,
  "ray": 2634,
  " relationship": 2635,
  " sw": 2636,
  " internal": 2637,
  "idd": 2638,
  " himself": 2639,
  " enjoy": 2640,
  "Al": 2641,
  " arrang": 2642,
  "aybe": 2643,
  " equilibrium": 2644,
  " contain": 2645,
  "asing": 2646,
  " open": 2647,
  " element": 2648,
  " corresponding": 2649,
  " spins": 2650,
  "rely": 2651,
  "ially": 2652,
  "—it": 2653,
  " slowly": 2654,
  " earlier": 2655,
  "between": 2656,
  "min": 2657,
  " swe": 2658,
  "Eq": 2659,
  "pendic": 2660,
  "−(": 2661,
  " relig": 2662,
  " engine": 2663,
  "IN": 2664,
  " added": 2665,
  " ther": 2666,
  " notice": 2667,
  " moves": 2668,
  "cident": 2669,
  "particle": 2670,
  " condition": 2671,
  "Suppose": 2672,
  "pre": 2673,
  " data": 2674,
  " poor": 2675,
  "alth": 2676,
  "ission": 2677,
  "ibr": 2678,
  "amp": 2679,
  " exp": 2680,
  " circumst": 2681,
  " greater": 2682,
  "ches": 2683,
  " discovered": 2684,
  " minute": 2685,
  "outh": 2686,
  "RE": 2687,
  " ,": 2688,
  "onal": 2689,
  " today": 2690,
  " extra": 2691,
  " linear": 2692,
  " theorem": 2693,
  "lling": 2694,
  " Not": 2695,
  "aster": 2696,
  " symmetry": 2697,
  "90": 2698,
  "aught": 2699,
  "ﬁed": 2700,
  "such": 2701,
  "ram": 2702,
  "arily": 2703,
  "izon": 2704,
  "irt": 2705,
  " different": 2706,
  " ty": 2707,
  " De": 2708,
  " wasn": 2709,
  " derivative": 2710,
  "amil": 2711,
  " loc": 2712,
  " deep": 2713,
  " hair": 2714,
  "umer": 2715,
  " hour": 2716,
  " Because": 2717,
  "could": 2718,
  "called": 2719,
  " pretty": 2720,
  " revers": 2721,
  "ha": 2722,
  " ins": 2723,
  "number": 2724,
  " supp": 2725,
  "47": 2726,
  " ball": 2727,
  " mechanical": 2728,
  "/integraldisplay": 2729,
  "pendicular": 2730,
  "omething": 2731,
  " third": 2732,
  " possib": 2733,
  "cular": 2734,
  "ster": 2735,
  "Not": 2736,
  "··": 2737,
  " iron": 2738,
  " θ": 2739,
  " His": 2740,
  " draw": 2741,
  "over": 2742,
  " according": 2743,
  " wind": 2744,
  " conven": 2745,
  " house": 2746,
  "Since": 2747,
  "entle": 2748,
  "attice": 2749,
  "ork": 2750,
  "uture": 2751,
  " transformation": 2752,
  " kinds": 2753,
  " experience": 2754,
  " further": 2755,
  " needed": 2756,
  " sug": 2757,
  " systems": 2758,
  "attering": 2759,
  " charged": 2760,
  "should": 2761,
  "rol": 2762,
  " war": 2763,
  " external": 2764,
  " feeling": 2765,
  " med": 2766,
  "ital": 2767,
  " check": 2768,
  "ceed": 2769,
  "arent": 2770,
  "49": 2771,
  "iar": 2772,
  " smaller": 2773,
  " circle": 2774,
  " kiss": 2775,
  "amental": 2776,
  " moder": 2777,
  "happ": 2778,
  " non": 2779,
  " clear": 2780,
  "—which": 2781,
  " fun": 2782,
  " natural": 2783,
  " pull": 2784,
  " paper": 2785,
  "rum": 2786,
  " ﬂuid": 2787,
  "fer": 2788,
  " information": 2789,
  " twenty": 2790,
  " bi": 2791,
  " list": 2792,
  "ered": 2793,
  "fra": 2794,
  " determine": 2795,
  "ina": 2796,
  " stu": 2797,
  "ope": 2798,
  " solid": 2799,
  " Is": 2800,
  " others": 2801,
  " ratio": 2802,
  " es": 2803,
  " objects": 2804,
  "igg": 2805,
  " scale": 2806,
  " Mother": 2807,
  " trouble": 2808,
  " q": 2809,
  " fa": 2810,
  " live": 2811,
  "atics": 2812,
  " allow": 2813,
  " hope": 2814,
  " distances": 2815,
  " solutions": 2816,
  " front": 2817,
  " useful": 2818,
  " assume": 2819,
  " choose": 2820,
  "ube": 2821,
  "lsen": 2822,
  " closed": 2823,
  " science": 2824,
  "sm": 2825,
  "itor": 2826,
  "-vector": 2827,
  " ion": 2828,
  " sort": 2829,
  "ying": 2830,
  " phenomena": 2831,
  "kind": 2832,
  "wave": 2833,
  "alar": 2834,
  " equivalent": 2835,
  "momentum": 2836,
  "/radicalbig": 2837,
  "alked": 2838,
  "edu": 2839,
  " reaction": 2840,
  " motions": 2841,
  " inert": 2842,
  " radiation": 2843,
  "reen": 2844,
  "ented": 2845,
  "Why": 2846,
  "ighb": 2847,
  "empt": 2848,
  "wise": 2849,
  "bitr": 2850,
  " foc": 2851,
  "amplitu": 2852,
  " weak": 2853,
  " modern": 2854,
  "ending": 2855,
  " hear": 2856,
  " geomet": 2857,
  " init": 2858,
  "iments": 2859,
  "ants": 2860,
  "mediately": 2861,
  "cients": 2862,
  "inally": 2863,
  "ushed": 2864,
  " pure": 2865,
  "paren": 2866,
  " varies": 2867,
  " pri": 2868,
  "46": 2869,
  "bs": 2870,
  "mic": 2871,
  "51": 2872,
  " et": 2873,
  " From": 2874,
  "mon": 2875,
  " larger": 2876,
  " section": 2877,
  "dy": 2878,
  " lattice": 2879,
  " glass": 2880,
  " century": 2881,
  "rot": 2882,
  "uro": 2883,
  "bol": 2884,
  " getting": 2885,
  "rength": 2886,
  "iful": 2887,
  " girl": 2888,
  "=q": 2889,
  "olden": 2890,
  "prime": 2891,
  " perm": 2892,
  " prom": 2893,
  "By": 2894,
  " argument": 2895,
  "cording": 2896,
  "ole": 2897,
  "ee": 2898,
  " held": 2899,
  " nucleus": 2900,
  "\u0000\n": 2901,
  "ological": 2902,
  "plied": 2903,
  " sor": 2904,
  ".”\n": 2905,
  " levels": 2906,
  "idered": 2907,
  "utes": 2908,
  " money": 2909,
  " matrix": 2910,
  " shar": 2911,
  " likely": 2912,
  " worked": 2913,
  " ident": 2914,
  " functions": 2915,
  " series": 2916,
  " considered": 2917,
  " watch": 2918,
  " gone": 2919,
  " plates": 2920,
  " smile": 2921,
  "ux": 2922,
  "every": 2923,
  " Yet": 2924,
  " diﬀerential": 2925,
  " impossible": 2926,
  " rapid": 2927,
  " interference": 2928,
  " ordinary": 2929,
  " sent": 2930,
  " although": 2931,
  "also": 2932,
  " action": 2933,
  "system": 2934,
  " property": 2935,
  " surpr": 2936,
  " someone": 2937,
  " sis": 2938,
  "iply": 2939,
  " polit": 2940,
  "∂\n": 2942,
  "',": 2943,
  " understanding": 2944,
  " quick": 2945,
  " appears": 2946,
  "iny": 2947,
  " notation": 2948,
  "ites": 2949,
  " protons": 2950,
  " spir": 2951,
  "amilton": 2952,
  " tensor": 2953,
  "bel": 2954,
  "ysics": 2955,
  "ned": 2956,
  "’ll": 2957,
  " chance": 2958,
  " writing": 2959,
  "gebra": 2960,
  "osp": 2961,
  " break": 2962,
  " shape": 2963,
  "bal": 2964,
  " pres": 2965,
  " days": 2966,
  "ext": 2967,
  " dro": 2968,
  "current": 2969,
  " obtained": 2970,
  " concl": 2971,
  " conduct": 2972,
  "chool": 2973,
  " period": 2974,
  " mi": 2975,
  " cases": 2976,
  "kes": 2977,
  "force": 2978,
  " spect": 2979,
  "pping": 2980,
  "ilarly": 2981,
  "ynamics": 2982,
  "ably": 2983,
  "rew": 2984,
  "At": 2985,
  " combination": 2986,
  "requency": 2987,
  ")/": 2988,
  "had": 2989,
  "meric": 2990,
  "ym": 2991,
  " step": 2992,
  " struct": 2993,
  "atever": 2994,
  "-p": 2995,
  "does": 2996,
  " horizon": 2997,
  "atives": 2998,
  "xx": 2999,
  " max": 3000,
  " wonder": 3001,
  "xed": 3002,
  "”\n": 3003,
  " within": 3004,
  "lied": 3005,
  "angle": 3006,
  " pieces": 3007,
  "iving": 3008,
  " lead": 3009,
  " µ": 3010,
  " deﬁne": 3011,
  "electron": 3012,
  "→": 3013,
  "dient": 3014,
  " algorithms": 3015,
  "sequ": 3016,
  " history": 3017,
  " lectures": 3018,
  "AR": 3019,
  " stop": 3020,
  "ends": 3021,
  "bl": 3022,
  "One": 3023,
  " ago": 3024,
  " quiet": 3025,
  "charge": 3026,
  " build": 3027,
  " circul": 3028,
  " arbitr": 3029,
  " sin": 3030,
  " generator": 3031,
  ",−": 3032,
  " cried": 3033,
  "CT": 3034,
  "EN": 3035,
  " rece": 3036,
  "onstr": 3037,
  " indeed": 3038,
  " Ind": 3039,
  " rules": 3040,
  "∗": 3041,
  "owers": 3042,
  "ford": 3043,
  " gentle": 3044,
  "kay": 3045,
  "rodu": 3046,
  " started": 3047,
  " project": 3048,
  " thinking": 3049,
  "spe": 3050,
  " apply": 3051,
  " blue": 3052,
  "equal": 3053,
  " inﬁnite": 3054,
  " heav": 3055,
  "ife": 3056,
  "—we": 3057,
  " perpendicular": 3058,
  " electrostatic": 3059,
  " students": 3060,
  "New": 3061,
  "ustr": 3062,
  " discover": 3063,
  "otion": 3064,
  "attered": 3065,
  " bring": 3066,
  " measured": 3067,
  " level": 3068,
  " story": 3069,
  " forg": 3070,
  " mor": 3071,
  "-half": 3072,
  " displacement": 3073,
  " pain": 3074,
  " [": 3075,
  " plus": 3076,
  " relativity": 3077,
  " induct": 3078,
  " conditions": 3079,
  " relation": 3080,
  " decre": 3081,
  "py": 3082,
  " neighb": 3083,
  " suddenly": 3084,
  " strength": 3085,
  "Well": 3086,
  " height": 3087,
  "ari": 3088,
  "berg": 3089,
  "iding": 3090,
  "/r": 3091,
  "cosθ": 3092,
  "\"You": 3093,
  "ger": 3094,
  " multi": 3095,
  " black": 3096,
  "St": 3097,
  " ﬁnding": 3098,
  " observed": 3099,
  " coeﬃcient": 3100,
  " integr": 3101,
  "/bracket": 3102,
  "dV": 3103,
  "“You": 3104,
  " phenomenon": 3105,
  " discussed": 3106,
  "ames": 3107,
  " places": 3108,
  " ready": 3109,
  " walk": 3110,
  "herical": 3111,
  " bill": 3112,
  " ions": 3113,
  " nuclear": 3114,
  "placed": 3115,
  " stress": 3116,
  " spread": 3117,
  "angular": 3118,
  "amiltonian": 3119,
  "itut": 3120,
  " model": 3121,
  "came": 3122,
  "reed": 3123,
  "uthor": 3124,
  " giving": 3125,
  " transform": 3126,
  "locities": 3127,
  " expon": 3128,
  " speak": 3129,
  " cou": 3130,
  " fair": 3131,
  " convenient": 3132,
  " station": 3133,
  "β": 3134,
  "ived": 3135,
  " collision": 3136,
  " basic": 3137,
  "iﬁc": 3138,
  " increase": 3139,
  " rese": 3140,
  "ein": 3141,
  " immediately": 3142,
  " deﬁnition": 3143,
  "urb": 3144,
  "annah": 3145,
  " av": 3146,
  " future": 3147,
  " resonance": 3148,
  " Our": 3149,
  " hot": 3150,
  " elements": 3151,
  "uls": 3152,
  " dielectric": 3153,
  " ": 3154,
  " Malcolm": 3155,
  "ike": 3156,
  " somewhat": 3157,
  "ciﬁc": 3158,
  "bon": 3159,
  " ﬁl": 3160,
  "apor": 3161,
  "Of": 3162,
  " account": 3163,
  " talking": 3164,
  " deﬁned": 3165,
  " moments": 3166,
  "verg": 3167,
  " fra": 3168,
  "iens": 3169,
  " fundamental": 3170,
  " develop": 3171,
  " gen": 3172,
  " heard": 3173,
  " forth": 3174,
  " wouldn": 3175,
  " necessary": 3176,
  " Do": 3177,
  " maybe": 3178,
  "going": 3179,
  ");": 3180,
  " kept": 3181,
  " Such": 3182,
  " follows": 3183,
  " cut": 3184,
  ",t": 3185,
  " polarized": 3186,
  " door": 3187,
  " ψ": 3188,
  ".’": 3189,
  " children": 3190,
  " social": 3191,
  " required": 3192,
  "ises": 3193,
  "iven": 3194,
  " Re": 3195,
  "fessor": 3196,
  " opt": 3197,
  " friends": 3198,
  " inertia": 3199,
  "soci": 3200,
  " minus": 3201,
  "around": 3202,
  " lady": 3203,
  " lost": 3204,
  "fl": 3205,
  "gest": 3206,
  "—in": 3207,
  "zero": 3208,
  " analyze": 3209,
  " ca": 3210,
  "iddle": 3211,
  " shows": 3212,
  " conv": 3213,
  " sides": 3214,
  "(ω": 3215,
  " family": 3216,
  ",+": 3217,
  " pub": 3218,
  "exper": 3219,
  "rosc": 3220,
  " lens": 3221,
  " propag": 3222,
  "irr": 3223,
  " accept": 3224,
  " seems": 3225,
  " imaginary": 3226,
  " tone": 3227,
  "avity": 3228,
  "apiens": 3229,
  " fine": 3230,
  "://": 3231,
  " Carlsen": 3232,
  "even": 3233,
  " involved": 3234,
  " Also": 3235,
  " size": 3236,
  " knowledge": 3237,
  " apart": 3238,
  " Table": 3239,
  " warm": 3240,
  " orbit": 3241,
  " scalar": 3242,
  " emf": 3243,
  "LE": 3244,
  "gu": 3245,
  "OR": 3246,
  " indic": 3247,
  "back": 3248,
  "—\n": 3249,
  " chemical": 3250,
  " ring": 3251,
  "idence": 3252,
  " animals": 3253,
  "again": 3254,
  " glo": 3255,
  "els": 3256,
  "rist": 3257,
  " white": 3258,
  "oup": 3259,
  " manner": 3260,
  " After": 3261,
  " ant": 3262,
  "comple": 3263,
  "antum": 3264,
  " coeﬃcients": 3265,
  " circumstances": 3266,
  ".e": 3267,
  " dom": 3268,
  "parenleftbigg": 3269,
  " detector": 3270,
  " numer": 3271,
  " spring": 3272,
  " includ": 3273,
  " school": 3274,
  " guess": 3275,
  " forget": 3276,
  "constant": 3277,
  "fact": 3278,
  "king": 3279,
  " nor": 3280,
  "=|": 3281,
  " breat": 3282,
  "gle": 3283,
  " mention": 3284,
  "something": 3285,
  " ten": 3286,
  " resistance": 3287,
  " disapp": 3288,
  "60": 3289,
  " del": 3290,
  "sec": 3291,
  " experiences": 3292,
  "ety": 3293,
  "andB": 3294,
  " ∼,": 3295,
  " liberal": 3296,
  " dress": 3297,
  "undred": 3298,
  " meant": 3299,
  "ience": 3300,
  " reﬂection": 3301,
  " bott": 3302,
  "ught": 3303,
  "arr": 3304,
  " oscillation": 3305,
  " multiply": 3306,
  "sinθ": 3307,
  "leep": 3308,
  " York": 3309,
  "andom": 3310,
  " solved": 3311,
  "sub": 3312,
  " vibr": 3313,
  " velocities": 3314,
  "reci": 3315,
  " slightly": 3316,
  " bal": 3317,
  "cles": 3318,
  "imal": 3319,
  "velocity": 3320,
  " Hamiltonian": 3321,
  " smiled": 3322,
  " person": 3323,
  " merely": 3324,
  " experiments": 3325,
  "trans": 3326,
  "instein": 3327,
  "together": 3328,
  " cylinder": 3329,
  "car": 3330,
  " arrive": 3331,
  " beautiful": 3332,
  " thin": 3333,
  " arm": 3334,
  " Americ": 3335,
  "ended": 3336,
  "ips": 3337,
  " inductance": 3338,
  " electricity": 3339,
  " usual": 3340,
  " thus": 3341,
  " inverse": 3342,
  " repe": 3343,
  "ey": 3344,
  "much": 3345,
  "iter": 3346,
  " bar": 3347,
  "cir": 3348,
  "depend": 3349,
  " tou": 3350,
  " Her": 3351,
  "eks": 3352,
  ".\"": 3353,
  " organ": 3354,
  " beginning": 3355,
  "ality": 3356,
  " demonstr": 3357,
  " log": 3358,
  "stood": 3359,
  "che": 3360,
  " ideal": 3361,
  " gravity": 3362,
  " Con": 3363,
  "turn": 3364,
  "imate": 3365,
  " actual": 3366,
  "ounter": 3367,
  "∞": 3368,
  "ians": 3369,
  " altern": 3370,
  " sheet": 3371,
  "vergence": 3372,
  "lectric": 3373,
  " gradient": 3374,
  "+∂": 3375,
  " mouth": 3376,
  " nodd": 3377,
  " Com": 3378,
  "pes": 3379,
  "ript": 3380,
  " ...": 3381,
  " arguments": 3382,
  " ﬁxed": 3383,
  " accur": 3384,
  "On": 3385,
  "CH": 3386,
  "ER": 3387,
  "ively": 3388,
  " Even": 3389,
  " Ac": 3390,
  " wires": 3391,
  " transm": 3392,
  ")(": 3393,
  " everyone": 3394,
  " scattering": 3395,
  " myself": 3396,
  "ny": 3397,
  "changed": 3398,
  " mut": 3399,
  "ere": 3400,
  "/angbracketrightand": 3401,
  "...\n\n\n\n": 3402,
  " Dr": 3403,
  " sharp": 3404,
  "son": 3405,
  "law": 3406,
  " certainly": 3407,
  " limit": 3408,
  "Ind": 3409,
  " minutes": 3410,
  " description": 3411,
  "gener": 3412,
  " structure": 3413,
  " thous": 3414,
  "TER": 3415,
  " design": 3416,
  "++": 3417,
  " meet": 3418,
  "unit": 3419,
  " moved": 3420,
  "=m": 3421,
  "\"D": 3422,
  "imilarly": 3423,
  " sho": 3424,
  " strain": 3425,
  " laugh": 3426,
  " anyone": 3427,
  " bon": 3428,
  "∂y": 3429,
  "tp": 3430,
  " comfort": 3431,
  " glad": 3432,
  "IT": 3433,
  "ability": 3434,
  " death": 3435,
  "mber": 3436,
  "na": 3437,
  "ern": 3438,
  " interested": 3439,
  " uncertain": 3440,
  "mole": 3441,
  " minimum": 3442,
  " tells": 3443,
  " yourself": 3444,
  " Eqs": 3445,
  "oulomb": 3446,
  "istry": 3447,
  " continu": 3448,
  "mar": 3449,
  " friction": 3450,
  " diag": 3451,
  " Bro": 3452,
  "faces": 3453,
  " collect": 3454,
  "particles": 3455,
  " directly": 3456,
  "integr": 3457,
  "may": 3458,
  "enberg": 3459,
  " mis": 3460,
  "−ω": 3461,
  "˙": 3462,
  "erved": 3463,
  " during": 3464,
  " books": 3465,
  " details": 3466,
  "—a": 3467,
  "their": 3468,
  " brought": 3469,
  " rough": 3470,
  " algebra": 3471,
  "ulation": 3472,
  " Wh": 3473,
  "oring": 3474,
  " mic": 3475,
  " determined": 3476,
  " metal": 3477,
  " ought": 3478,
  "rons": 3479,
  ">>": 3480,
  "They": 3481,
  " arbitrary": 3482,
  " woman": 3483,
  " carri": 3484,
  "dynamics": 3485,
  "cially": 3486,
  " knows": 3487,
  " contribut": 3488,
  " author": 3489,
  "airs": 3490,
  " week": 3491,
  "mat": 3492,
  " happened": 3493,
  "resents": 3494,
  " Some": 3495,
  "charg": 3496,
  " rad": 3497,
  " travel": 3498,
  "oub": 3499,
  "=A": 3500,
  " Any": 3501,
  " corresponds": 3502,
  "-state": 3503,
  " cavity": 3504,
  " magnetization": 3505,
  "|−": 3506,
  "196": 3507,
  "book": 3508,
  " among": 3509,
  " treat": 3510,
  " und": 3511,
  "aim": 3512,
  "lan": 3513,
  " sources": 3514,
  "ken": 3515,
  "=a": 3516,
  "arded": 3517,
  " pleasant": 3518,
  " conscious": 3519,
  "Laurie": 3520,
  "bo": 3521,
  " previous": 3522,
  "†": 3523,
  "been": 3524,
  " twice": 3525,
  "llig": 3526,
  " ﬁnal": 3527,
  " truth": 3528,
  "ges": 3529,
  " diam": 3530,
  "eared": 3531,
  "η": 3532,
  " note": 3533,
  "Ey": 3534,
  " frame": 3535,
  "aged": 3536,
  "known": 3537,
  " cold": 3538,
  "istor": 3539,
  " early": 3540,
  "chem": 3541,
  "orent": 3542,
  "orentz": 3543,
  " strange": 3544,
  " agree": 3545,
  "probab": 3546,
  " photons": 3547,
  "plane": 3548,
  " decided": 3549,
  "rees": 3550,
  "quation": 3551,
  " +/": 3552,
  " stationary": 3553,
  "−r": 3554,
  "spin": 3555,
  " lad": 3556,
  " bed": 3557,
  " nodded": 3558,
  " Inst": 3559,
  " Per": 3560,
  "ef": 3561,
  "died": 3562,
  " ess": 3563,
  " leg": 3564,
  " drawn": 3565,
  " wait": 3566,
  "second": 3567,
  "ctors": 3568,
  " Fr": 3569,
  " test": 3570,
  "xygen": 3571,
  " Just": 3572,
  " dark": 3573,
  " bright": 3574,
  " pay": 3575,
  "along": 3576,
  ")−": 3577,
  " access": 3578,
  "uc": 3579,
  "each": 3580,
  "fo": 3581,
  "coming": 3582,
  " fail": 3583,
  "small": 3584,
  "une": 3585,
  "ators": 3586,
  " mod": 3587,
  " holes": 3588,
  " discussion": 3589,
  " closer": 3590,
  " Every": 3591,
  "represent": 3592,
  "/kT": 3593,
  " Cal": 3594,
  " suppos": 3595,
  " relatively": 3596,
  "lt": 3597,
  " redu": 3598,
  " sal": 3599,
  " common": 3600,
  "lor": 3601,
  "zz": 3602,
  " induced": 3603,
  " bab": 3604,
  " laughed": 3605,
  " horizontal": 3606,
  " round": 3607,
  "wered": 3608,
  "eople": 3609,
  " maximum": 3610,
  " signal": 3611,
  "him": 3612,
  "×B": 3613,
  "condu": 3614,
  " feelings": 3615,
  "—as": 3616,
  "room": 3617,
  " Mar": 3618,
  " aff": 3619,
  "por": 3620,
  "IS": 3621,
  " grand": 3622,
  " etc": 3623,
  "text": 3624,
  "atoms": 3625,
  " standing": 3626,
  "With": 3627,
  "ached": 3628,
  " ori": 3629,
  "yond": 3630,
  "ruct": 3631,
  " working": 3632,
  " carefully": 3633,
  "AL": 3634,
  " rotating": 3635,
  " equally": 3636,
  " Well": 3637,
  " easier": 3638,
  " illustr": 3639,
  "type": 3640,
  " event": 3641,
  "~/": 3642,
  "mechanical": 3643,
  " masses": 3644,
  " prove": 3645,
  "potential": 3646,
  " curl": 3647,
  "umans": 3648,
  "icult": 3649,
  " stood": 3650,
  " bul": 3651,
  " mathematics": 3652,
  " hundred": 3653,
  "sat": 3654,
  " statement": 3655,
  " oscillating": 3656,
  "asuring": 3657,
  " Cl": 3658,
  "irror": 3659,
  " million": 3660,
  " attract": 3661,
  "make": 3662,
  " somewhere": 3663,
  "det": 3664,
  "(c": 3665,
  " worry": 3666,
  "·ds": 3667,
  "amplitude": 3668,
  "urope": 3669,
  "states": 3670,
  "∂z": 3671,
  " sorry": 3672,
  "ified": 3673,
  "aurence": 3674,
  "\n\n\n": 3675,
  " putting": 3676,
  "desc": 3677,
  "dition": 3678,
  " millions": 3679,
  "inside": 3680,
  "—or": 3681,
  " imped": 3682,
  "another": 3683,
  " faster": 3684,
  "osen": 3685,
  " machine": 3686,
  "ching": 3687,
  " neglect": 3688,
  "inal": 3689,
  ")|": 3690,
  " research": 3691,
  "fraid": 3692,
  "\"M": 3693,
  " Aunt": 3694,
  " .\n": 3695,
  "ﬂu": 3696,
  "-s": 3697,
  "raph": 3698,
  " excited": 3699,
  " suggest": 3700,
  "itative": 3701,
  "oph": 3702,
  "low": 3703,
  "rans": 3704,
  " Ex": 3705,
  " appreci": 3706,
  " starting": 3707,
  "From": 3708,
  "=N": 3709,
  "Fx": 3710,
  " lips": 3711,
  "|φ": 3712,
  " fear": 3713,
  " fing": 3714,
  " Hannah": 3715,
  "ored": 3716,
  "These": 3717,
  "posed": 3718,
  "ivers": 3719,
  " continue": 3720,
  "sych": 3721,
  " speciﬁc": 3722,
  "econd": 3723,
  "First": 3724,
  " clearly": 3725,
  " associ": 3726,
  " colors": 3727,
  "cap": 3728,
  " jo": 3729,
  "elect": 3730,
  " sig": 3731,
  " obvious": 3732,
  "-and": 3733,
  " guide": 3734,
  "oogle": 3735,
  "view": 3736,
  " below": 3737,
  "www": 3738,
  " gradu": 3739,
  "these": 3740,
  "180": 3741,
  " learned": 3742,
  " assumed": 3743,
  "don": 3744,
  " apparent": 3745,
  " uncertainty": 3746,
  "mag": 3747,
  " whatever": 3748,
  "little": 3749,
  " applied": 3750,
  " arrangement": 3751,
  "molecu": 3752,
  "acing": 3753,
  " tiny": 3754,
  " rub": 3755,
  " nuclei": 3756,
  " connect": 3757,
  " green": 3758,
  "Our": 3759,
  "goes": 3760,
  "iver": 3761,
  "human": 3762,
  "�\n": 3763,
  "\"Yes": 3764,
  " forward": 3765,
  "ured": 3766,
  " dedu": 3767,
  " carried": 3768,
  "ilos": 3769,
  " rapidly": 3770,
  "mean": 3771,
  " increasing": 3772,
  " collisions": 3773,
  " situations": 3774,
  " neutron": 3775,
  " mark": 3776,
  "dist": 3777,
  " elastic": 3778,
  "lls": 3779,
  "∆t": 3780,
  "=x": 3781,
  " replace": 3782,
  "dr": 3783,
  "qe": 3784,
  " soft": 3785,
  " economic": 3786,
  " Holden": 3787,
  "HE": 3788,
  " applic": 3789,
  " gravitation": 3790,
  " circular": 3791,
  " spherical": 3792,
  " scattered": 3793,
  " carry": 3794,
  "osc": 3795,
  " connected": 3796,
  " imm": 3797,
  "oper": 3798,
  "−x": 3799,
  "ky": 3800,
  "ö": 3801,
  " fell": 3802,
  ")—": 3803,
  " father": 3804,
  "eremy": 3805,
  " Brooke": 3806,
  "comm": 3807,
  "pet": 3808,
  "world": 3809,
  "lish": 3810,
  " En": 3811,
  "pan": 3812,
  " compared": 3813,
  " magnetism": 3814,
  "ging": 3815,
  " smo": 3816,
  "mosp": 3817,
  " worth": 3818,
  " ourselves": 3819,
  " happiness": 3820,
  "erve": 3822,
  " bottom": 3823,
  " cycle": 3824,
  "enz": 3825,
  " adding": 3826,
  "umb": 3827,
  " soul": 3828,
  "Or": 3829,
  ",m": 3830,
  "Com": 3831,
  " junction": 3832,
  "rs": 3833,
  "iling": 3834,
  " bur": 3835,
  "!\"\n\n\n\n": 3836,
  "191": 3837,
  "tech": 3838,
  " talked": 3839,
  " adm": 3840,
  "uge": 3841,
  "adem": 3842,
  " distribut": 3843,
  " operation": 3844,
  " refraction": 3845,
  "sim": 3846,
  " drop": 3847,
  " represented": 3848,
  " instant": 3849,
  " soci": 3850,
  " men": 3851,
  " forgot": 3852,
  "ths": 3853,
  " variable": 3854,
  " variation": 3855,
  " image": 3856,
  " simpl": 3857,
  "mp": 3858,
  " sweet": 3859,
  "illed": 3860,
  " aw": 3861,
  " respon": 3862,
  " Maybe": 3863,
  " est": 3864,
  " harmonic": 3865,
  "lets": 3866,
  "ropy": 3867,
  " spite": 3868,
  " pul": 3869,
  "ubble": 3870,
  "conds": 3871,
  " precisely": 3872,
  "-type": 3873,
  " capacitor": 3874,
  "olved": 3875,
  "write": 3876,
  " thermal": 3877,
  " polar": 3878,
  "Bz": 3879,
  " inner": 3880,
  "+i": 3881,
  "(θ": 3882,
  " music": 3883,
  "’ve": 3884,
  "|i": 3885,
  "itute": 3886,
  "chie": 3887,
  "ley": 3888,
  "Pro": 3889,
  " Although": 3890,
  " job": 3891,
  "ening": 3892,
  " oxygen": 3893,
  "ele": 3894,
  "whe": 3895,
  " obs": 3896,
  " σ": 3897,
  " turning": 3898,
  " def": 3899,
  " Europe": 3900,
  "oh": 3901,
  " Christ": 3902,
  " health": 3903,
  " Physics": 3904,
  "ishing": 3905,
  " understood": 3906,
  "RO": 3907,
  " Sh": 3908,
  "cked": 3909,
  " double": 3910,
  " Can": 3911,
  "appro": 3912,
  " everywhere": 3913,
  "conscious": 3914,
  " formulas": 3915,
  " morning": 3916,
  " andz": 3917,
  " reality": 3918,
  " delight": 3919,
  " Don": 3920,
  " afraid": 3921,
  "ˆH": 3922,
  " breath": 3923,
  "\"It": 3924,
  "after": 3925,
  "ulum": 3926,
  " became": 3927,
  "ﬃcient": 3928,
  " hadn": 3929,
  " feature": 3930,
  " perfectly": 3931,
  "reme": 3932,
  "roscope": 3933,
  "iation": 3934,
  " crystals": 3935,
  "moving": 3936,
  "while": 3937,
  " gods": 3938,
  "many": 3939,
  " delay": 3940,
  "iﬁ": 3941,
  "ingu": 3942,
  "orrow": 3943,
  " gravitational": 3944,
  " additional": 3945,
  " interval": 3946,
  "racy": 3947,
  " derivatives": 3948,
  " chair": 3949,
  " growth": 3950,
  "polariz": 3951,
  " bra": 3952,
  "dered": 3953,
  " divergence": 3954,
  "|+/": 3955,
  " rich": 3956,
  " lecture": 3957,
  " Ar": 3958,
  " commun": 3959,
  " serious": 3960,
  "tot": 3961,
  "ogn": 3962,
  " measurements": 3963,
  " Rev": 3964,
  "surface": 3965,
  "always": 3966,
  "did": 3967,
  " chosen": 3968,
  " pairs": 3969,
  " mist": 3970,
  " practical": 3971,
  " famil": 3972,
  "+A": 3973,
  "gain": 3974,
  "kx": 3975,
  "|x": 3976,
  "shown": 3977,
  "oint": 3978,
  "aned": 3979,
  " liked": 3980,
  " Wor": 3981,
  " introdu": 3982,
  "chr": 3983,
  "inery": 3984,
  " steady": 3985,
  " suit": 3986,
  " random": 3987,
  " neutrons": 3988,
  "pa": 3989,
  "oscill": 3990,
  "ains": 3991,
  "vis": 3992,
  "±": 3993,
  " produces": 3994,
  " superposition": 3995,
  " lowest": 3996,
  "erl": 3997,
  " Γ": 3998,
  " busy": 3999,
  " scientific": 4000,
  " Laurence": 4001,
  " text": 4002,
  " mem": 4003,
  "icks": 4004,
  "pons": 4005,
  " coo": 4006,
  "complete": 4007,
  "Because": 4008,
  " reﬂected": 4009,
  " ign": 4010,
  " attraction": 4011,
  " mirror": 4012,
  " divided": 4013,
  " Each": 4014,
  "ilt": 4015,
  " middle": 4016,
  " depart": 4017,
  "+b": 4018,
  " hon": 4019,
  " string": 4020,
  " quantities": 4021,
  "given": 4022,
  " =−": 4023,
  "off": 4024,
  " prot": 4025,
  "ﬁrst": 4026,
  " ma": 4027,
  "(d": 4028,
  "spect": 4029,
  "ashion": 4030,
  " precess": 4031,
  "gy": 4032,
  " atmosp": 4033,
  "might": 4034,
  " substance": 4035,
  " fan": 4036,
  "Here": 4037,
  " cool": 4038,
  " aut": 4039,
  " control": 4040,
  " eat": 4041,
  " pig": 4042,
  " gover": 4043,
  " graph": 4044,
  " focus": 4045,
  "∆x": 4046,
  "function": 4047,
  "vx": 4048,
  " rect": 4049,
  " surfaces": 4050,
  "aries": 4051,
  "vent": 4052,
  " stri": 4053,
  " fav": 4054,
  "−A": 4055,
  " fin": 4056,
  "utenberg": 4057,
  "hers": 4058,
  "quences": 4059,
  "who": 4060,
  "“It": 4061,
  " tas": 4062,
  "ox": 4063,
  " group": 4064,
  " expected": 4065,
  " consist": 4066,
  "tz": 4067,
  "othes": 4068,
  " feet": 4069,
  " push": 4070,
  "osed": 4071,
  " incident": 4072,
  "abs": 4073,
  " stret": 4074,
  " sister": 4075,
  " reversible": 4076,
  " dream": 4077,
  " wid": 4078,
  " answered": 4079,
  "=j": 4080,
  " boundary": 4081,
  " spoke": 4082,
  " whis": 4083,
  " shook": 4084,
  " gentleman": 4085,
  "tw": 4086,
  "ailed": 4087,
  "set": 4088,
  "people": 4089,
  " Professor": 4090,
  " modes": 4091,
  "eson": 4092,
  "ones": 4093,
  " conserved": 4094,
  " needs": 4095,
  " leaving": 4096,
  "ﬁnd": 4097,
  "Thus": 4098,
  "phas": 4099,
  " stars": 4100,
  " upper": 4101,
  "aved": 4102,
  " arms": 4103,
  " identical": 4104,
  "=ω": 4105,
  "HC": 4106,
  "aint": 4107,
  " band": 4108,
  " tender": 4109,
  " Project": 4110,
  " const": 4111,
  "neg": 4112,
  " miss": 4113,
  " Ne": 4114,
  " Germ": 4115,
  "CE": 4116,
  "atory": 4117,
  "den": 4118,
  "romagnetism": 4119,
  "ffect": 4120,
  " sn": 4121,
  " increases": 4122,
  "zed": 4123,
  " ﬁnite": 4124,
  "cell": 4125,
  " bubble": 4126,
  " living": 4127,
  " analogous": 4128,
  "quantum": 4129,
  "order": 4130,
  "arther": 4131,
  "emember": 4132,
  "Me": 4133,
  " loss": 4134,
  "radi": 4135,
  " plot": 4136,
  " absorbed": 4137,
  " send": 4138,
  "imet": 4139,
  "equation": 4140,
  "“What": 4141,
  " potentials": 4142,
  " condens": 4143,
  "κ": 4144,
  "=∂": 4145,
  " Miss": 4146,
  "Meg": 4147,
  "101": 4148,
  ".com": 4149,
  " wrote": 4150,
  "things": 4151,
  "ping": 4152,
  " My": 4153,
  " rod": 4154,
  " exponential": 4155,
  " enorm": 4156,
  "ushing": 4157,
  "umps": 4158,
  "space": 4159,
  " stopped": 4160,
  " disintegr": 4161,
  " circulation": 4162,
  "iol": 4163,
  ")]": 4164,
  " coordinates": 4165,
  "−u": 4166,
  "Elect": 4167,
  "‘": 4168,
  " studied": 4169,
  " quickly": 4170,
  " remarkable": 4171,
  " supposed": 4172,
  " allowed": 4173,
  " concer": 4174,
  " molecular": 4175,
  " game": 4176,
  "iston": 4177,
  "exact": 4178,
  " questions": 4179,
  " universe": 4180,
  "monia": 4181,
  " thick": 4182,
  "proportional": 4183,
  " doub": 4184,
  "Do": 4185,
  "want": 4186,
  "190": 4187,
  "Sh": 4188,
  "···": 4189,
  " =/": 4190,
  " cause": 4191,
  "pat": 4192,
  " conductors": 4193,
  "“A": 4194,
  " haven": 4195,
  "/angbracketrightav": 4196,
  "cember": 4197,
  " priv": 4198,
  " hur": 4199,
  " please": 4200,
  "pecially": 4201,
  "pers": 4202,
  " contr": 4203,
  "199": 4204,
  " Cons": 4205,
  "hood": 4206,
  " anten": 4207,
  " Di": 4208,
  "Figure": 4209,
  "”—": 4210,
  " associated": 4211,
  "near": 4212,
  " measuring": 4213,
  " disturb": 4214,
  " ann": 4215,
  " attempt": 4216,
  " secre": 4217,
  " pleasure": 4218,
  "aded": 4219,
  "take": 4220,
  " odd": 4222,
  "offe": 4223,
  " accessed": 4224,
  "haer": 4225,
  "All": 4226,
  " War": 4227,
  " created": 4228,
  " physic": 4229,
  "angu": 4230,
  " emot": 4231,
  " Le": 4232,
  " Gauss": 4233,
  "entially": 4234,
  "problem": 4235,
  " sitting": 4236,
  "interest": 4237,
  " extreme": 4238,
  "motion": 4239,
  " screen": 4240,
  " dest": 4241,
  " compress": 4242,
  " acting": 4243,
  "iles": 4244,
  "round": 4245,
  "Table": 4246,
  " equip": 4247,
  "Ph": 4248,
  "ural": 4249,
  " age": 4250,
  "three": 4251,
  "long": 4252,
  "Is": 4253,
  "ison": 4254,
  " counter": 4255,
  " planet": 4256,
  " positions": 4257,
  "beh": 4258,
  "correspon": 4259,
  " param": 4260,
  " ment": 4261,
  "your": 4262,
  " symmetric": 4263,
  " fer": 4264,
  "resh": 4265,
  "course": 4266,
  "cou": 4267,
  " intellig": 4268,
  "made": 4269,
  "—for": 4270,
  " philos": 4271,
  " diagram": 4272,
  " Einstein": 4273,
  "endulum": 4274,
  " hit": 4275,
  "temperature": 4276,
  "UR": 4277,
  " rele": 4278,
  " stronger": 4279,
  " symbol": 4280,
  "mass": 4281,
  " emphas": 4282,
  "velling": 4283,
  "iced": 4284,
  " curves": 4285,
  " radial": 4286,
  "=c": 4287,
  "+y": 4288,
  " prefer": 4289,
  " resonant": 4290,
  "/angbracketleftx": 4291,
  " cra": 4292,
  "brace": 4293,
  "−\n": 4294,
  " Section": 4295,
  "’.": 4296,
  "\"No": 4297,
  "Amy": 4298,
  " World": 4299,
  "sequences": 4300,
  "ograph": 4301,
  " support": 4302,
  " central": 4303,
  "mechanics": 4304,
  "inations": 4305,
  " sett": 4306,
  " According": 4307,
  "expect": 4308,
  " placed": 4309,
  "192": 4310,
  "odyn": 4311,
  "found": 4312,
  "pression": 4313,
  " mess": 4314,
  " range": 4315,
  " myster": 4316,
  " couple": 4317,
  " orient": 4318,
  " observe": 4319,
  " ell": 4320,
  " remind": 4321,
  " compl": 4322,
  "En": 4323,
  " γ": 4324,
  "ara": 4325,
  "rices": 4326,
  "inner": 4327,
  "/angbracketlefti": 4328,
  " Jeremy": 4329,
  " Father": 4330,
  "“Oh": 4331,
  "“No": 4332,
  "except": 4333,
  " Law": 4334,
  " unique": 4335,
  " maintain": 4336,
  " pointed": 4337,
  " accurate": 4338,
  "itation": 4339,
  " hours": 4340,
  " geometry": 4341,
  " Two": 4342,
  "artic": 4343,
  "Index": 4344,
  "gives": 4345,
  " behave": 4346,
  " farther": 4347,
  " radio": 4348,
  "frequency": 4349,
  "": 4350,
  "\n": 4351,
  "": 4352,
  "\n": 4353,
  "": 4354,
  "=\n": 4355,
  "uses": 4356,
  "means": 4357,
  "since": 4358,
  " abst": 4359,
  "": 4360,
  " correspond": 4361,
  " local": 4362,
  " beyond": 4363,
  "vature": 4364,
  "components": 4365,
  " cosine": 4366,
  " ∇": 4367,
  " empt": 4368,
  "chrö": 4369,
  "chröding": 4370,
  "chrödinger": 4371,
  " anx": 4372,
  "omo": 4373,
  " fig": 4374,
  " processes": 4375,
  " rev": 4376,
  " Univers": 4377,
  " electrostatics": 4378,
  "particular": 4379,
  "modyn": 4380,
  " entropy": 4381,
  "away": 4382,
  "Another": 4383,
  " neutral": 4384,
  " Instead": 4385,
  " rays": 4386,
  " separate": 4387,
  " π": 4388,
  "dom": 4389,
  " evolution": 4390,
  "imag": 4391,
  "before": 4392,
  "195": 4393,
  "+v": 4394,
  "/summationdisplay": 4395,
  "andb": 4396,
  " shell": 4397,
  " shift": 4398,
  "Ω": 4399,
  " absorption": 4400,
  "/angbracketrightis": 4401,
  "\"What": 4402,
  "version": 4403,
  " knowing": 4404,
  "-time": 4405,
  " desp": 4406,
  " spot": 4407,
  "aching": 4408,
  " ut": 4409,
  "ency": 4410,
  "rier": 4411,
  " reasons": 4412,
  " increased": 4413,
  " piston": 4414,
  "theless": 4415,
  "izing": 4416,
  " corner": 4417,
  "electrons": 4418,
  "pret": 4419,
  " explained": 4420,
  "umn": 4421,
  " believed": 4422,
  "looking": 4423,
  " initial": 4424,
  "Un": 4425,
  " conclude": 4426,
  "“T": 4427,
  "=d": 4428,
  "Fy": 4429,
  " ancient": 4430,
  " Data": 4431,
  "lly": 4432,
  " electrodynamics": 4433,
  "rences": 4434,
  " loved": 4435,
  "ades": 4436,
  "friend": 4437,
  " response": 4438,
  " seeing": 4439,
  " fellow": 4440,
  "understand": 4441,
  "—is": 4442,
  " Lorentz": 4443,
  " Br": 4444,
  " Second": 4445,
  " ends": 4446,
  " mix": 4447,
  " sit": 4448,
  " neither": 4449,
  " namely": 4450,
  " measurement": 4451,
  " separation": 4452,
  " calculation": 4453,
  " ship": 4454,
  "mv": 4455,
  "inde": 4456,
  "equations": 4457,
  "good": 4458,
  "Sp": 4459,
  " spo": 4460,
  " Press": 4461,
  " Coulomb": 4462,
  "ague": 4463,
  "ellow": 4464,
  "+|": 4465,
  " excl": 4466,
  " fake": 4467,
  "Jz": 4468,
  "offee": 4469,
  " suff": 4470,
  " Bhaer": 4471,
  "inc": 4472,
  "ibility": 4473,
  "enn": 4474,
  "ius": 4475,
  "thought": 4476,
  "    ": 4477,
  "pass": 4478,
  " grating": 4479,
  "ming": 4480,
  " passing": 4481,
  " sight": 4482,
  "object": 4483,
  "-b": 4484,
  "charges": 4485,
  "-G": 4486,
  "ids": 4487,
  " running": 4488,
  " invari": 4489,
  "enth": 4490,
  " choice": 4491,
  "ais": 4492,
  " magnets": 4493,
  " People": 4494,
  " political": 4495,
  " sket": 4496,
  "ν": 4497,
  " impedance": 4498,
  "said": 4499,
  " train": 4500,
  "assical": 4501,
  "~\n": 4502,
  "-first": 4503,
  " sac": 4504,
  " women": 4505,
  " American": 4506,
  "great": 4507,
  "80": 4508,
  " possess": 4509,
  "bled": 4510,
  "volume": 4511,
  "unately": 4512,
  "acy": 4513,
  "ativistic": 4514,
  " oscillations": 4515,
  "Cl": 4516,
  "centr": 4517,
  " approximately": 4518,
  " proport": 4519,
  "deﬁn": 4520,
  "cannot": 4521,
  " examples": 4522,
  " inversely": 4523,
  " replaced": 4524,
  "anation": 4525,
  "-mechanical": 4526,
  " steps": 4527,
  "iant": 4528,
  " scientists": 4529,
  " ~": 4530,
  " whereas": 4531,
  " familiar": 4532,
  " Using": 4533,
  "material": 4534,
  " ∂": 4535,
  " τ": 4536,
  " edge": 4537,
  "−∂": 4538,
  " humankind": 4539,
  " capital": 4540,
  " boys": 4541,
  "Anh": 4542,
  "ION": 4543,
  "olving": 4544,
  "cr": 4545,
  "ﬁg": 4546,
  " University": 4547,
  " developed": 4548,
  " machinery": 4549,
  " principles": 4550,
  "pol": 4551,
  " trem": 4552,
  "gram": 4553,
  " pendulum": 4554,
  "odies": 4555,
  " jigg": 4556,
  "example": 4557,
  "call": 4558,
  " carbon": 4559,
  " spectrum": 4560,
  "eness": 4561,
  "Just": 4562,
  " Po": 4563,
  "real": 4564,
  " lose": 4565,
  "oday": 4566,
  "beam": 4567,
  "πr": 4568,
  " showed": 4569,
  " tang": 4570,
  "follow": 4571,
  " constants": 4572,
  " yes": 4573,
  " empty": 4574,
  "eiωt": 4575,
  "reedom": 4576,
  "rost": 4577,
  " ef": 4578,
  " fire": 4579,
  " peace": 4580,
  " authority": 4581,
  "AN": 4582,
  " Perhaps": 4583,
  " consequ": 4584,
  " respons": 4585,
  " include": 4586,
  " bear": 4587,
  "feel": 4588,
  " closely": 4589,
  " dead": 4590,
  " hung": 4591,
  " Here": 4592,
  "lies": 4593,
  " sad": 4594,
  "itch": 4595,
  " provided": 4596,
  " virt": 4597,
  "iate": 4598,
  " pen": 4599,
  "land": 4600,
  "−z": 4601,
  " beams": 4602,
  "inct": 4603,
  " regions": 4604,
  "free": 4605,
  " faces": 4606,
  "Re": 4607,
  " chest": 4608,
  " matrices": 4609,
  " December": 4610,
  "uff": 4611,
  " sighed": 4612,
  "ques": 4613,
  " errata": 4614,
  " exer": 4615,
  " late": 4616,
  " thank": 4617,
  " prim": 4618,
  " particularly": 4619,
  "without": 4620,
  " smooth": 4621,
  "inding": 4622,
  " Mo": 4623,
  " Where": 4624,
  " pulled": 4625,
  " broken": 4626,
  " shr": 4627,
  " pushed": 4628,
  "However": 4629,
  " balance": 4630,
  "102": 4631,
  "pose": 4632,
  " window": 4633,
  " units": 4634,
  " calculated": 4635,
  " nearby": 4636,
  "xis": 4637,
  " curved": 4638,
  " opened": 4639,
  "vy": 4640,
  "99": 4641,
  "andy": 4642,
  " copper": 4643,
  "+z": 4644,
  " business": 4645,
  " considering": 4646,
  "Using": 4647,
  "upid": 4648,
  " stories": 4649,
  "ﬁelds": 4650,
  "cas": 4651,
  "ustom": 4652,
  " lives": 4653,
  " shear": 4654,
  " religion": 4655,
  "night": 4656,
  "“Y": 4657,
  " especially": 4658,
  "cks": 4659,
  " Caltech": 4660,
  " rise": 4661,
  " shap": 4662,
  " student": 4663,
  " exam": 4664,
  "belie": 4665,
  " suﬃcient": 4666,
  " cells": 4667,
  "atist": 4668,
  " propagation": 4669,
  " Only": 4670,
  " vapor": 4671,
  "conn": 4672,
  " unless": 4673,
  "distance": 4674,
  " ult": 4675,
  "tic": 4676,
  " evident": 4677,
  "Although": 4678,
  "mas": 4679,
  " describing": 4680,
  " characteristic": 4681,
  " located": 4682,
  " star": 4683,
  " spirit": 4684,
  " passes": 4685,
  "": 4686,
  "\n": 4687,
  "\n": 4688,
  "": 4689,
  "arrow": 4690,
  " attention": 4691,
  " cube": 4692,
  " avoid": 4693,
  "amed": 4694,
  " layer": 4695,
  "|a": 4696,
  " eth": 4697,
  "eddy": 4698,
  "~d": 4699,
  " tea": 4700,
  " party": 4701,
  "eah": 4702,
  "Per": 4703,
  "194": 4704,
  "range": 4705,
  "men": 4706,
  " †": 4707,
  "ground": 4708,
  "ections": 4709,
  " followed": 4710,
  "ﬂow": 4711,
  "exactly": 4712,
  " mysterious": 4713,
  " perform": 4714,
  " appeared": 4715,
  " letter": 4716,
  " Yes": 4717,
  "ails": 4718,
  " careful": 4719,
  "alu": 4720,
  " rid": 4721,
  "anger": 4722,
  "sym": 4723,
  " starts": 4724,
  " exchange": 4725,
  " tube": 4726,
  "Bx": 4727,
  "=ρ": 4728,
  " food": 4729,
  " satisfy": 4730,
  " tre": 4731,
  " wheel": 4732,
  " Oh": 4733,
  "vext": 4734,
  "-particle": 4735,
  "ondon": 4736,
  "icked": 4737,
  " inf": 4738,
  " buy": 4739,
  "erlach": 4740,
  " hate": 4741,
  " ran": 4742,
  " humanism": 4743,
  "\"Oh": 4744,
  "197": 4745,
  " impro": 4746,
  "requ": 4747,
  "tical": 4748,
  " \n \n": 4749,
  " planes": 4750,
  " falling": 4751,
  " atmosphere": 4752,
  "oltz": 4753,
  "abor": 4754,
  " temperatures": 4755,
  "hand": 4756,
  "CO": 4757,
  "regular": 4758,
  " perman": 4759,
  "rather": 4760,
  "ays": 4761,
  " relativistic": 4762,
  " evalu": 4763,
  " compute": 4764,
  "IV": 4765,
  "probability": 4766,
  "=n": 4767,
  " rotate": 4768,
  "pie": 4769,
  " die": 4770,
  "/bracketleftbigg": 4771,
  " λ": 4772,
  "vextends": 4773,
  "vextendsingle": 4774,
  "∼s": 4775,
  "ondu": 4776,
  " sleep": 4777,
  " Gutenberg": 4778,
  "lished": 4779,
  "itical": 4780,
  "process": 4781,
  " recent": 4782,
  " consequences": 4783,
  " chemistry": 4784,
  " discovery": 4785,
  " modi": 4786,
  " diﬀusion": 4787,
  "iety": 4788,
  "lim": 4789,
  " Rel": 4790,
  " Me": 4791,
  "culiar": 4792,
  " billion": 4793,
  " separated": 4794,
  " walls": 4795,
  "ethe": 4796,
  " reduced": 4797,
  "ners": 4798,
  "irty": 4799,
  " computer": 4800,
  " built": 4801,
  "anal": 4802,
  " ammonia": 4803,
  "Cons": 4804,
  " abstract": 4805,
  " wis": 4806,
  " pan": 4807,
  "ingly": 4808,
  "owed": 4809,
  " directed": 4810,
  "“M": 4811,
  " Equation": 4812,
  "apparatus": 4813,
  " linearly": 4814,
  "=µ": 4815,
  " tired": 4816,
  " belief": 4817,
  "enzene": 4818,
  " ht": 4819,
  "  ": 4820,
  "chnology": 4821,
  "ofthe": 4822,
  "start": 4823,
  " Will": 4824,
  "—but": 4825,
  "gress": 4826,
  "stra": 4827,
  " oscillators": 4828,
  "four": 4829,
  "iochem": 4830,
  "teen": 4831,
  "Therefore": 4832,
  " stick": 4833,
  " excess": 4834,
  " falls": 4835,
  "PO": 4836,
  " mixt": 4837,
  " possibility": 4838,
  " govern": 4839,
  " proved": 4840,
  " travelling": 4841,
  " cloud": 4842,
  " deg": 4843,
  "...”": 4844,
  " varying": 4845,
  " ellip": 4846,
  " curvature": 4847,
  " tight": 4848,
  "Di": 4849,
  " ei": 4850,
  "band": 4851,
  " inc": 4852,
  "/vextendsingle": 4853,
  " bir": 4854,
  " .”": 4855,
  " secret": 4856,
  "ˆP": 4857,
  " coffee": 4858,
  " serv": 4859,
  ",\"\n": 4860,
  " lovely": 4861,
  "IC": 4862,
  "theory": 4863,
  "calcul": 4864,
  "anguage": 4865,
  " electronic": 4866,
  "never": 4867,
  " static": 4868,
  " experimental": 4869,
  "think": 4870,
  "rig": 4871,
  " bubbles": 4872,
  "arest": 4873,
  " burn": 4874,
  " generated": 4875,
  " nose": 4876,
  " interact": 4877,
  "—there": 4878,
  "inguish": 4879,
  " date": 4880,
  " requires": 4881,
  "NA": 4882,
  "AB": 4883,
  " dog": 4884,
  " Like": 4885,
  "need": 4886,
  " reach": 4887,
  " regular": 4888,
  " fraction": 4889,
  "value": 4890,
  "Wh": 4891,
  " Z": 4892,
  " multiplied": 4893,
  "(E": 4894,
  " thousands": 4895,
  "arad": 4896,
  "Ax": 4897,
  "-cent": 4898,
  "|j": 4899,
  " phone": 4900,
  " advanced": 4901,
  " expressed": 4902,
  " contrast": 4903,
  " dut": 4904,
  "care": 4905,
  " post": 4906,
  " signs": 4907,
  " om": 4908,
  " proof": 4909,
  "ST": 4910,
  "vant": 4911,
  "satis": 4912,
  "being": 4913,
  " rig": 4914,
  "amic": 4915,
  " jud": 4916,
  " peculiar": 4917,
  " roughly": 4918,
  " bodies": 4919,
  " slo": 4920,
  "aches": 4921,
  "cryst": 4922,
  " occurs": 4923,
  " stream": 4924,
  "forces": 4925,
  " valid": 4926,
  "ashed": 4927,
  "ino": 4928,
  " studying": 4929,
  " dam": 4930,
  " nobody": 4931,
  "ula": 4932,
  " absolutely": 4933,
  " Har": 4934,
  " gal": 4935,
  "−k": 4936,
  "oices": 4937,
  "olid": 4938,
  "−y": 4939,
  ")to": 4940,
  "(−": 4941,
  " favor": 4942,
  " transverse": 4943,
  "Rel": 4944,
  ",x": 4945,
  " mental": 4946,
  " parity": 4947,
  "enoid": 4948,
  "-n": 4949,
  " returned": 4950,
  " Google": 4951,
  " okay": 4952,
  "Beth": 4953,
  "CC": 4954,
  "-M": 4955,
  "wards": 4956,
  " wide": 4957,
  " biology": 4958,
  "ulated": 4959,
  "70": 4960,
  " aim": 4961,
  "ason": 4962,
  "hel": 4963,
  "isted": 4964,
  " qual": 4965,
  " fashion": 4966,
  " recogn": 4967,
  "dec": 4968,
  " aspect": 4969,
  " dep": 4970,
  "iff": 4971,
  "atomic": 4972,
  "coll": 4973,
  " select": 4974,
  "ctually": 4975,
  "itesimal": 4976,
  "-t": 4977,
  " drive": 4978,
  " dot": 4979,
  "ours": 4980,
  " powers": 4981,
  "—say": 4982,
  "coordin": 4983,
  " noticed": 4984,
  "=F": 4985,
  "/pr": 4986,
  "eed": 4987,
  " shif": 4988,
  " led": 4989,
  " yellow": 4990,
  " ﬁlter": 4991,
  "atched": 4992,
  " tall": 4993,
  "/~)": 4994,
  " Homo": 4995,
  " rom": 4996,
  " disc": 4997,
  "ysical": 4998,
  "uly": 4999,
  "—with": 5000,
  "DE": 5001,
  "subject": 5002,
  " mechanism": 5003,
  " Qu": 5004,
  " Other": 5005,
  "uclear": 5006,
  " parad": 5007,
  " diﬀraction": 5008,
  " conductivity": 5009,
  " enormous": 5010,
  "shows": 5011,
  "cidentally": 5012,
  " repeated": 5013,
  " inﬂu": 5014,
  " existence": 5015,
  " circuits": 5016,
  " calculations": 5017,
  "aneously": 5018,
  "illion": 5019,
  " fro": 5020,
  " throw": 5021,
  "meter": 5022,
  " heads": 5023,
  "Ac": 5024,
  ")for": 5025,
  "≈": 5026,
  " theories": 5027,
  " generally": 5028,
  " van": 5029,
  "=v": 5030,
  "Can": 5031,
  " paths": 5032,
  "/bracketrightbigg": 5033,
  " pop": 5034,
  " Dem": 5035,
  " narr": 5036,
  "conduct": 5037,
  " Schrödinger": 5038,
  " consciousness": 5039,
  " sa": 5040,
  " hat": 5041,
  " sold": 5042,
  " five": 5043,
  " field": 5044,
  " dread": 5045,
  " tears": 5046,
  " dinner": 5047,
  "ugged": 5048,
  " splend": 5049,
  " smiling": 5050,
  "reet": 5051,
  "ailable": 5052,
  "jor": 5053,
  " hardly": 5054,
  " Dav": 5055,
  " cooper": 5056,
  " ..": 5057,
  " cover": 5058,
  " provide": 5059,
  "Ne": 5060,
  " thermodyn": 5061,
  " necessarily": 5062,
  " spinning": 5063,
  "Finally": 5064,
  " Most": 5065,
  " substances": 5066,
  "case": 5067,
  "imately": 5068,
  "proper": 5069,
  " none": 5070,
  "bered": 5071,
  "ET": 5072,
  "zy": 5073,
  "ometimes": 5074,
  " beauty": 5075,
  "!”": 5076,
  " drops": 5077,
  " invest": 5078,
  "regard": 5079,
  "idge": 5080,
  " clocks": 5081,
  ")t": 5082,
  "total": 5083,
  "result": 5084,
  " report": 5085,
  " width": 5086,
  " integrals": 5087,
  "axes": 5088,
  "bing": 5089,
  " thez": 5090,
  "ained": 5091,
  "ste": 5092,
  "Fl": 5093,
  "Po": 5094,
  ")x": 5095,
  " proportionality": 5096,
  " sex": 5097,
  "iot": 5098,
  " Af": 5099,
  " charm": 5100,
  " managed": 5101,
  " fight": 5102,
  "\"That": 5103,
  "lie": 5104,
  " interactions": 5105,
  " originally": 5106,
  "stud": 5107,
  " ice": 5108,
  " create": 5109,
  " diﬃculty": 5110,
  " mas": 5111,
  " proposed": 5112,
  "correct": 5113,
  " Eng": 5114,
  "rag": 5115,
  "—so": 5116,
  "quite": 5117,
  " vision": 5118,
  "arning": 5119,
  " cub": 5120,
  "ansion": 5121,
  "squ": 5122,
  " symmetrical": 5123,
  "rays": 5124,
  " bigger": 5125,
  " represents": 5126,
  "uss": 5127,
  " heavy": 5128,
  "rible": 5129,
  "-called": 5130,
  " animal": 5131,
  " sugar": 5132,
  " carrying": 5133,
  " la": 5134,
  " department": 5135,
  " jump": 5136,
  "father": 5137,
  " lie": 5138,
  "poses": 5139,
  " (+": 5140,
  " Similarly": 5141,
  "mis": 5142,
  " mer": 5143,
  " root": 5144,
  " signals": 5145,
  " den": 5146,
  "term": 5147,
  "inθ": 5148,
  "acu": 5149,
  "elled": 5150,
  " shut": 5151,
  "=I": 5152,
  "hole": 5153,
  "+P": 5154,
  " condenser": 5155,
  "His": 5156,
  "|−/": 5157,
  " Sapiens": 5158,
  "fered": 5159,
  "attle": 5160,
  " http": 5161,
  "\"A": 5162,
  "lium": 5163,
  " key": 5164,
  "compl": 5165,
  " passed": 5166,
  " phot": 5167,
  "written": 5168,
  " including": 5169,
  "odern": 5170,
  " approach": 5171,
  "opt": 5172,
  "mann": 5173,
  "nothing": 5174,
  "clo": 5175,
  " keeps": 5176,
  "magine": 5177,
  " holding": 5178,
  " type": 5179,
  "-one": 5180,
  " histor": 5181,
  "usually": 5182,
  " explanation": 5183,
  " cancel": 5184,
  "enough": 5185,
  " blood": 5186,
  "plate": 5187,
  "Next": 5188,
  "determ": 5189,
  "give": 5190,
  " caused": 5191,
  " simplest": 5192,
  " numerical": 5193,
  " lift": 5194,
  "net": 5195,
  "measure": 5196,
  "anium": 5197,
  " compar": 5198,
  " fort": 5199,
  " decide": 5200,
  "mm": 5201,
  "bits": 5202,
  " rotated": 5203,
  "-of": 5204,
  "RON": 5205,
  "aul": 5206,
  " sine": 5207,
  " rotations": 5208,
  " termin": 5209,
  "angbracketleftx": 5210,
  " decisions": 5211,
  "amm": 5212,
  "ech": 5213,
  " carriers": 5214,
  "Az": 5215,
  "gypt": 5216,
  " algorithm": 5217,
  " eﬀective": 5218,
  "198": 5219,
  "zen": 5220,
  " Volume": 5221,
  " error": 5222,
  " Ste": 5223,
  " save": 5224,
  "pport": 5225,
  "lying": 5226,
  " reactions": 5227,
  "ciences": 5228,
  " Sp": 5229,
  "revers": 5230,
  " summar": 5231,
  "tract": 5232,
  " patient": 5233,
  " occu": 5234,
  "dium": 5235,
  " speaking": 5236,
  " neighbor": 5237,
  "quest": 5238,
  " cast": 5239,
  " feels": 5240,
  "Magnetic": 5241,
  "assum": 5242,
  " experimentally": 5243,
  "move": 5244,
  "still": 5245,
  "reement": 5246,
  "!)": 5247,
  " funny": 5248,
  "∆z": 5249,
  " adjust": 5250,
  "=r": 5251,
  "super": 5252,
  " harmon": 5253,
  "iω": 5254,
  "phase": 5255,
  " phases": 5256,
  "tex": 5257,
  "unch": 5258,
  "\u0000\u0000": 5259,
  " wild": 5260,
  "σp": 5261,
  ")state": 5262,
  "-by": 5263,
  " religious": 5264,
  "humans": 5265,
  "aze": 5266,
  " cheer": 5267,
  "Okay": 5268,
  "fa": 5269,
  " Teddy": 5270,
  "500": 5271,
  " concept": 5272,
  " technical": 5273,
  "oir": 5274,
  " Ro": 5275,
  "De": 5276,
  " surv": 5277,
  " cost": 5278,
  "ik": 5279,
  " methods": 5280,
  "incre": 5281,
  "rav": 5282,
  " Sym": 5283,
  " involves": 5284,
  " foot": 5285,
  "cm": 5286,
  " strongly": 5287,
  " assumption": 5288,
  " minds": 5289,
  " carries": 5290,
  " X": 5291,
  " emit": 5292,
  " assuming": 5293,
  " psych": 5294,
  "eﬀect": 5295,
  " analyzed": 5296,
  "depends": 5297,
  " permanent": 5298,
  "lled": 5299,
  "ratic": 5300,
  " freely": 5301,
  "-,": 5302,
  " da": 5303,
  " cosθ": 5304,
  " obe": 5305,
  "acuum": 5306,
  "-g": 5307,
  " anywhere": 5308,
  "illy": 5309,
  " reached": 5310,
  " δ": 5311,
  "ieth": 5312,
  "Where": 5313,
  "iers": 5314,
  "ournal": 5315,
  " stupid": 5316,
  "rench": 5317,
  "(∇×": 5318,
  "+": 5319,
  " dating": 5320,
  " contact": 5321,
  " development": 5322,
  " eleg": 5323,
  " connection": 5324,
  "istory": 5325,
  " typ": 5326,
  " whom": 5327,
  "Some": 5328,
  "iﬁed": 5329,
  "ﬂection": 5330,
  " Sc": 5331,
  " Which": 5332,
  "olve": 5333,
  " Another": 5334,
  " contains": 5335,
  "AP": 5336,
  " cru": 5337,
  "approxim": 5338,
  " sky": 5339,
  " repuls": 5340,
  " surround": 5341,
  "iron": 5342,
  " bes": 5343,
  "proton": 5344,
  " society": 5345,
  " nerve": 5346,
  " Pl": 5347,
  " baby": 5348,
  " split": 5349,
  "andC": 5350,
  " sees": 5351,
  " anyway": 5352,
  " wavelengths": 5353,
  "]\n": 5354,
  "antly": 5355,
  "(Fig": 5356,
  "=k": 5357,
  " amaz": 5358,
  " factors": 5359,
  " terr": 5360,
  "ship": 5361,
  " thoughts": 5362,
  "′": 5363,
  " fault": 5364,
  "−E": 5365,
  "−|": 5366,
  "rial": 5367,
  "rupt": 5368,
  " coils": 5369,
  " solenoid": 5370,
  " Stern": 5371,
  "ests": 5372,
  "σe": 5373,
  " leaned": 5374,
  "http": 5375,
  "\"Don": 5376,
  " Spe": 5377,
  "Feynman": 5378,
  "bi": 5379,
  " public": 5380,
  " powerful": 5381,
  " expand": 5382,
  " regard": 5383,
  " based": 5384,
  " hall": 5385,
  "both": 5386,
  " academ": 5387,
  " fourth": 5388,
  "sign": 5389,
  " conducting": 5390,
  " Co": 5391,
  " mentioned": 5392,
  " intelligence": 5393,
  "fortunately": 5394,
  " extremely": 5395,
  "ler": 5396,
  "oidal": 5397,
  " proceed": 5398,
  " concentr": 5399,
  "molecules": 5400,
  " location": 5401,
  " happening": 5402,
  "ements": 5403,
  " analogy": 5404,
  "Electr": 5405,
  " whenever": 5406,
  " track": 5407,
  "whose": 5408,
  " mixture": 5409,
  " lifted": 5410,
  "comp": 5411,
  "tally": 5412,
  " Are": 5413,
  " thr": 5414,
  "gets": 5415,
  " argue": 5416,
  " ofthe": 5417,
  " initially": 5418,
  "yy": 5419,
  "/primeis": 5420,
  "See": 5421,
  " sensations": 5422,
  "kin": 5423,
  " Human": 5424,
  " bonds": 5425,
  " pet": 5426,
  " transition": 5427,
  "pered": 5428,
  "heart": 5429,
  "−µ": 5430,
  "+\n": 5431,
  " Revolution": 5432,
  " threat": 5433,
  " satisfied": 5434,
  " wear": 5435,
  " desires": 5436,
  "arden": 5437,
  " mine": 5438,
  " fingers": 5439,
  "©": 5440,
  "ooks": 5441,
  " States": 5442,
  "ichard": 5443,
  " proud": 5444,
  " died": 5445,
  "-w": 5446,
  " Col": 5447,
  " *": 5448,
  " ver": 5449,
  "Con": 5450,
  " unf": 5451,
  " approximate": 5452,
  "density": 5453,
  "add": 5454,
  "arrang": 5455,
  " letters": 5456,
  "uzz": 5457,
  " Once": 5458,
  " representation": 5459,
  "expl": 5460,
  " inﬁnitesimal": 5461,
  "ima": 5462,
  "angeness": 5463,
  " surprising": 5464,
  "tle": 5465,
  "life": 5466,
  "ipe": 5467,
  "iously": 5468,
  "fall": 5469,
  " forever": 5470,
  " doubt": 5471,
  " compare": 5472,
  " probabilities": 5473,
  "perfect": 5474,
  "/a": 5475,
  " simpler": 5476,
  " mutual": 5477,
  " touch": 5478,
  " reversed": 5479,
  "lig": 5480,
  " invariant": 5481,
  "lease": 5482,
  "Electric": 5483,
  "entieth": 5484,
  " network": 5485,
  "roat": 5486,
  "diab": 5487,
  "Br": 5488,
  " laughing": 5489,
  "-Gerlach": 5490,
  " grad": 5491,
  "anford": 5492,
  "\"How": 5493,
  " splendid": 5494,
  "\"Not": 5495,
  " staring": 5496,
  "LECT": 5497,
  "cip": 5498,
  " language": 5499,
  " drawing": 5500,
  " correction": 5501,
  " engineering": 5502,
  "wers": 5503,
  " lack": 5504,
  " ahead": 5505,
  "ptions": 5506,
  "script": 5507,
  "ses": 5508,
  " arranged": 5509,
  " require": 5510,
  " realize": 5511,
  " contribution": 5512,
  " gases": 5513,
  " sorts": 5514,
  " invented": 5515,
  "name": 5516,
  " cubic": 5517,
  " decrease": 5518,
  " combinations": 5519,
  "ander": 5520,
  " irregular": 5521,
  "waves": 5522,
  ">>>>": 5523,
  "important": 5524,
  "ulse": 5525,
  " chain": 5526,
  "changes": 5527,
  " sli": 5528,
  " delic": 5529,
  "sl": 5530,
  " acts": 5531,
  "curacy": 5532,
  " meter": 5533,
  "-to": 5534,
  " trick": 5535,
  " reading": 5536,
  "Similarly": 5537,
  "):\n": 5538,
  "98": 5539,
  "mi": 5540,
  "=−∂": 5541,
  " cancer": 5542,
  "=ˆ": 5543,
  " noise": 5544,
  " polaroid": 5545,
  "Don": 5546,
  " rubber": 5547,
  " operators": 5548,
  "/angbracketleftj": 5549,
  " fle": 5550,
  " economy": 5551,
  " democ": 5552,
  " pocket": 5553,
  " fit": 5554,
  " sisters": 5555,
  "\"G": 5556,
  "78": 5557,
  " received": 5558,
  ".D": 5559,
  "describ": 5560,
  "dem": 5561,
  " print": 5562,
  " rose": 5563,
  "After": 5564,
  "ulous": 5565,
  " chapters": 5566,
  "MA": 5567,
  " labor": 5568,
  "ifying": 5569,
  "rate": 5570,
  " substitute": 5571,
  "riate": 5572,
  " ﬁnally": 5573,
  "urthermore": 5574,
  "oltzmann": 5575,
  " thousand": 5576,
  " boun": 5577,
  "cellent": 5578,
  "itatively": 5579,
  " somehow": 5580,
  "positive": 5581,
  "56": 5582,
  " depending": 5583,
  " seconds": 5584,
  "Any": 5585,
  "esons": 5586,
  "already": 5587,
  "true": 5588,
  "sis": 5589,
  " naturally": 5590,
  "SE": 5591,
  " purpose": 5592,
  " sick": 5593,
  " marked": 5594,
  "oward": 5595,
  "org": 5596,
  " narrow": 5597,
  "iring": 5598,
  "imals": 5599,
  "terms": 5600,
  " Again": 5601,
  " presence": 5602,
  ")a": 5603,
  " integrate": 5604,
  " inﬁnity": 5605,
  "Ry": 5606,
  " terminals": 5607,
  "stop": 5608,
  " transmitted": 5609,
  "inese": 5610,
  " faith": 5611,
  " sounds": 5612,
  "185": 5613,
  "locations": 5614,
  " country": 5615,
  " stro": 5616,
  "ager": 5617,
  " global": 5618,
  "ortality": 5619,
  " diff": 5620,
  " effect": 5621,
  " cry": 5622,
  " tong": 5623,
  " wife": 5624,
  "IG": 5625,
  " rights": 5626,
  " reprodu": 5627,
  "tained": 5628,
  " fresh": 5629,
  " scr": 5630,
  " successive": 5631,
  "LA": 5632,
  " suﬃciently": 5633,
  " deduce": 5634,
  " basis": 5635,
  "works": 5636,
  " dependence": 5637,
  "metry": 5638,
  " syn": 5639,
  " bullets": 5640,
  "atistical": 5641,
  " bomb": 5642,
  " Figure": 5643,
  " harder": 5644,
  "ols": 5645,
  "complic": 5646,
  "oses": 5647,
  " possibilities": 5648,
  "-rays": 5649,
  " unknown": 5650,
  " detailed": 5651,
  " spec": 5652,
  "amma": 5653,
  " diameter": 5654,
  " biochem": 5655,
  " purely": 5656,
  " ﬁber": 5657,
  "experiment": 5658,
  " orientation": 5659,
  " land": 5660,
  "ales": 5661,
  "/m": 5662,
  " continued": 5663,
  "becomes": 5664,
  " waiting": 5665,
  "aneous": 5666,
  " practice": 5667,
  "instead": 5668,
  " \u0001": 5669,
  "ulate": 5670,
  " rectangular": 5671,
  " ris": 5672,
  "é": 5673,
  "omin": 5674,
  " worse": 5675,
  "uctance": 5676,
  " freedom": 5677,
  " η": 5678,
  "/brace": 5679,
  "amplitudes": 5680,
  " brown": 5681,
  "oted": 5682,
  " ce": 5683,
  " mil": 5684,
  " cult": 5685,
  " Egypt": 5686,
  " countries": 5687,
  " lap": 5688,
  " Fred": 5689,
  " replied": 5690,
  "'.": 5691,
  " flowers": 5692,
  " ladies": 5693,
  " grate": 5694,
  ".m": 5695,
  " record": 5696,
  " helium": 5697,
  "umes": 5698,
  " er": 5699,
  "udi": 5700,
  "negative": 5701,
  " ).": 5702,
  " personal": 5703,
  " ter": 5704,
  " aﬀect": 5705,
  "present": 5706,
  " feed": 5707,
  " share": 5708,
  " philosoph": 5709,
  " possibly": 5710,
  " tremend": 5711,
  " standard": 5712,
  " speeds": 5713,
  " signiﬁc": 5714,
  " proportion": 5715,
  " appreciate": 5716,
  " leaves": 5717,
  " gradually": 5718,
  "Every": 5719,
  "too": 5720,
  "Qu": 5721,
  "ﬁes": 5722,
  " indust": 5723,
  " Consider": 5724,
  " copy": 5725,
  "earth": 5726,
  "comput": 5727,
  "UN": 5728,
  " triangle": 5729,
  " eight": 5730,
  " asking": 5731,
  "curve": 5732,
  "andx": 5733,
  "although": 5734,
  "umin": 5735,
  " driven": 5736,
  "beg": 5737,
  " telling": 5738,
  "plus": 5739,
  " gold": 5740,
  "othe": 5741,
  "hold": 5742,
  "−a": 5743,
  "·v": 5744,
  " mira": 5745,
  " vacuum": 5746,
  "−T": 5747,
  "embered": 5748,
  " keeping": 5749,
  "(φ": 5750,
  "comfort": 5751,
  "says": 5752,
  "=p": 5753,
  "Am": 5754,
  "=H": 5755,
  "=α": 5756,
  "arith": 5757,
  " spacing": 5758,
  " silence": 5759,
  "rows": 5760,
  "polarized": 5761,
  "-v": 5762,
  "=~": 5763,
  " tele": 5764,
  "won": 5765,
  "Car": 5766,
  " responsible": 5767,
  "nda": 5768,
  " Afric": 5769,
  " laid": 5770,
  " benzene": 5771,
  " French": 5772,
  " bread": 5773,
  " US": 5774,
  " private": 5775,
  " finally": 5776,
  " sapiens": 5777,
  " humanist": 5778,
  " emotions": 5779,
  "irm": 5780,
  " offer": 5781,
  "'re": 5782,
  "Malcolm": 5783,
  " Gott": 5784,
  " available": 5785,
  " cat": 5786,
  "cover": 5787,
  " ﬁve": 5788,
  "const": 5789,
  " duty": 5790,
  " acqu": 5791,
  " deli": 5792,
  " precession": 5793,
  " forms": 5794,
  "omentum": 5795,
  " rigid": 5796,
  " forced": 5797,
  " unlike": 5798,
  " shake": 5799,
  "interesting": 5800,
  " indicated": 5801,
  " moon": 5802,
  " arrange": 5803,
  " derived": 5804,
  " broad": 5805,
  " building": 5806,
  "Newton": 5807,
  " periodic": 5808,
  " helped": 5809,
  "portance": 5810,
  " sensitive": 5811,
  " skin": 5812,
  "oes": 5813,
  " demonstrate": 5814,
  " rain": 5815,
  " impl": 5816,
  " consistent": 5817,
  " shad": 5818,
  "represents": 5819,
  " esc": 5820,
  "rie": 5821,
  " consequence": 5822,
  "ometer": 5823,
  " downward": 5824,
  " substitut": 5825,
  " upward": 5826,
  "Ez": 5827,
  " huge": 5828,
  "uy": 5829,
  " slit": 5830,
  "Holden": 5831,
  "Trans": 5832,
  " retarded": 5833,
  " surprised": 5834,
  " hom": 5835,
  "eping": 5836,
  "poss": 5837,
  "+µ": 5838,
  " pill": 5839,
  "micondu": 5840,
  "storm": 5841,
  "contintegraldisplay": 5842,
  "gricult": 5843,
  "?’": 5844,
  " stuff": 5845,
  "enton": 5846,
  "57": 5847,
  "ectures": 5848,
  " tries": 5849,
  "large": 5850,
  " ast": 5851,
  "bert": 5852,
  "Le": 5853,
  "aimed": 5854,
  "quence": 5855,
  " smart": 5856,
  "coura": 5857,
  "—if": 5858,
  " ur": 5859,
  "iﬁcation": 5860,
  "general": 5861,
  " patterns": 5862,
  "speed": 5863,
  " optical": 5864,
  " stuck": 5865,
  "contin": 5866,
  "anging": 5867,
  "average": 5868,
  " ﬂo": 5869,
  " sea": 5870,
  " bare": 5871,
  " eventually": 5872,
  " instrum": 5873,
  " univers": 5874,
  " fairly": 5875,
  " divide": 5876,
  "ountain": 5877,
  " tem": 5878,
  " holds": 5879,
  " onto": 5880,
  "urbed": 5881,
  " covered": 5882,
  "ENT": 5883,
  " reasonable": 5884,
  "power": 5885,
  "hor": 5886,
  "absor": 5887,
  " thex": 5888,
  "/R": 5889,
  ")in": 5890,
  " variations": 5891,
  "Cx": 5892,
  "suit": 5893,
  "∂/∂": 5894,
  "volt": 5895,
  "-plane": 5896,
  " match": 5897,
  "ditional": 5898,
  ".—": 5899,
  " handsome": 5900,
  " safe": 5901,
  "anks": 5902,
  "ffic": 5903,
  " difficult": 5904,
  " satisfaction": 5905,
  " shoulder": 5906,
  " married": 5907,
  " evening": 5908,
  "mee": 5909,
  " cheeks": 5910,
  "allie": 5911,
  "“He": 5912,
  "lieb": 5913,
  "rief": 5914,
  "hest": 5915,
  " played": 5916,
  " decay": 5917,
  " educ": 5918,
  "itte": 5919,
  " May": 5920,
  " decades": 5921,
  " joy": 5922,
  "paring": 5923,
  " succeed": 5924,
  "iﬀ": 5925,
  "ney": 5926,
  " advice": 5927,
  "UT": 5928,
  " geometrical": 5929,
  "ldom": 5930,
  "direct": 5931,
  "aning": 5932,
  "istics": 5933,
  " products": 5934,
  "olic": 5935,
  "article": 5936,
  " emission": 5937,
  "awl": 5938,
  "consider": 5939,
  "seem": 5940,
  " involve": 5941,
  " microscope": 5942,
  " jiggling": 5943,
  "really": 5944,
  " picked": 5945,
  " array": 5946,
  "yl": 5947,
  " ultimately": 5948,
  "situ": 5949,
  "principle": 5950,
  "-frequency": 5951,
  " circumstance": 5952,
  " fal": 5953,
  " column": 5954,
  "eas": 5955,
  " emphasize": 5956,
  " begins": 5957,
  " dise": 5958,
  " otherwise": 5959,
  " ﬂows": 5960,
  " Today": 5961,
  "ique": 5962,
  " lived": 5963,
  "uration": 5964,
  " travels": 5965,
  " accuracy": 5966,
  " toss": 5967,
  " purposes": 5968,
  "toward": 5969,
  "rif": 5970,
  " advant": 5971,
  " (−": 5972,
  "gh": 5973,
  " arrives": 5974,
  "+ω": 5975,
  "itance": 5976,
  "classical": 5977,
  " favorite": 5978,
  "asma": 5979,
  " sketched": 5980,
  "attery": 5981,
  " speech": 5982,
  "rostatic": 5983,
  "Ay": 5984,
  "magnet": 5985,
  " enjoyed": 5986,
  " id": 5987,
  " shouldn": 5988,
  "|II": 5989,
  "Mar": 5990,
  " Bible": 5991,
  " ethical": 5992,
  " kne": 5993,
  " colle": 5994,
  " major": 5995,
  "remember": 5996,
  "eal": 5997,
  " enter": 5998,
  " German": 5999,
  "usual": 6000,
  " included": 6001,
  " belong": 6002,
  "top": 6003,
  " estab": 6004,
  " Science": 6005,
  " antenna": 6006,
  " Ev": 6007,
  " showing": 6008,
  "IE": 6009,
  " accident": 6010,
  " expansion": 6011,
  "acked": 6012,
  " exists": 6013,
  " distort": 6014,
  "Remember": 6015,
  "400": 6016,
  "ﬂected": 6017,
  "Co": 6018,
  " DNA": 6019,
  " essential": 6020,
  "cope": 6021,
  " tom": 6022,
  ".E": 6023,
  "inked": 6024,
  " beat": 6025,
  "vard": 6026,
  "div": 6027,
  "ermi": 6028,
  " honest": 6029,
  " accelerating": 6030,
  " tangential": 6031,
  "deriv": 6032,
  " diﬀerentiate": 6033,
  "Fz": 6034,
  " nine": 6035,
  "diﬀerence": 6036,
  "/b": 6037,
  "Energy": 6038,
  " metals": 6039,
  " Eis": 6040,
  "livered": 6041,
  "ref": 6042,
  " focusing": 6043,
  " occas": 6044,
  " \u0000\n": 6045,
  "Ang": 6046,
  " growing": 6047,
  " distributed": 6048,
  "mn": 6049,
  " Chinese": 6050,
  " throat": 6051,
  "anda": 6052,
  " sounded": 6053,
  "~dC": 6054,
  "forts": 6055,
  "didn": 6056,
  " religions": 6057,
  " heaven": 6058,
  " parent": 6059,
  " market": 6060,
  " liberalism": 6061,
  " stared": 6062,
  " Demi": 6063,
  "ii": 6064,
  " transl": 6065,
  " page": 6066,
  "64": 6067,
  " answers": 6068,
  " tables": 6069,
  "AT": 6070,
  " OF": 6071,
  "—they": 6072,
  " applications": 6073,
  "everything": 6074,
  "pportun": 6075,
  "lines": 6076,
  " suitable": 6077,
  " member": 6078,
  " drift": 6079,
  " illustrate": 6080,
  "ball": 6081,
  "itro": 6082,
  "heat": 6083,
  "54": 6084,
  " excellent": 6085,
  " limited": 6086,
  " king": 6087,
  "/sec": 6088,
  "expected": 6089,
  " formed": 6090,
  " dimension": 6091,
  " ﬁne": 6092,
  " liter": 6093,
  "covered": 6094,
  "amount": 6095,
  " observation": 6096,
  "feet": 6097,
  "55": 6098,
  ")are": 6099,
  " observing": 6100,
  " grew": 6101,
  " refer": 6102,
  " typical": 6103,
  "ameter": 6104,
  ",n": 6105,
  "values": 6106,
  " seat": 6107,
  ",b": 6108,
  " hen": 6109,
  "answer": 6110,
  "mult": 6111,
  "+m": 6112,
  " gun": 6113,
  "px": 6114,
  "=z": 6115,
  "\u0012\n": 6116,
  "−m": 6117,
  " alternative": 6118,
  " drag": 6119,
  "stairs": 6120,
  "molecule": 6121,
  "yz": 6122,
  "188": 6123,
  "iest": 6124,
  "Rev": 6125,
  " gap": 6126,
  " custom": 6127,
  " bent": 6128,
  "-de": 6129,
  " scatter": 6130,
  "itely": 6131,
  " months": 6132,
  "Her": 6133,
  " listen": 6134,
  " neck": 6135,
  "diabatic": 6136,
  " cylindrical": 6137,
  " thunder": 6138,
  " wise": 6139,
  "EI": 6140,
  "estic": 6141,
  " medic": 6142,
  "flu": 6143,
  "econom": 6144,
  " figure": 6145,
  " pal": 6146,
  " kissed": 6147,
  " cred": 6148,
  " bless": 6149,
  " Dataism": 6150,
  "\"Well": 6151,
  "CHAP": 6152,
  "CHAPTER": 6153,
  " frown": 6154,
  "“P": 6155,
  "IL": 6156,
  " Gr": 6157,
  "allen": 6158,
  " elegant": 6159,
  "verted": 6160,
  "atures": 6161,
  "racted": 6162,
  "usi": 6163,
  " producing": 6164,
  "sure": 6165,
  "—by": 6166,
  " indicate": 6167,
  " dealing": 6168,
  " suggested": 6169,
  " failure": 6170,
  " ability": 6171,
  " adopt": 6172,
  " progress": 6173,
  " depth": 6174,
  "looked": 6175,
  "ket": 6176,
  " disappear": 6177,
  " decreases": 6178,
  " entirely": 6179,
  " salt": 6180,
  "tell": 6181,
  "dra": 6182,
  " interpret": 6183,
  " artiﬁ": 6184,
  "SS": 6185,
  "product": 6186,
  "186": 6187,
  "-in": 6188,
  "ibly": 6189,
  "outside": 6190,
  "eper": 6191,
  "however": 6192,
  "pressed": 6193,
  " watching": 6194,
  " blocks": 6195,
  "making": 6196,
  " Note": 6197,
  "orter": 6198,
  " river": 6199,
  " solving": 6200,
  "wel": 6201,
  " agreement": 6202,
  "numbers": 6203,
  " orbital": 6204,
  "uniform": 6205,
  " lies": 6206,
  " outward": 6207,
  "=t": 6208,
  "summationtext": 6209,
  "Big": 6210,
  "andj": 6211,
  "“But": 6212,
  " react": 6213,
  "+E": 6214,
  " calm": 6215,
  " thickness": 6216,
  " billions": 6217,
  "cuit": 6218,
  "inductance": 6219,
  "andA": 6220,
  " demand": 6221,
  " worst": 6222,
  " domin": 6223,
  "ugs": 6224,
  "cosity": 6225,
  " surprise": 6226,
  " trust": 6227,
  "othermal": 6228,
  "van": 6229,
  "ipped": 6230,
  "dS": 6231,
  "∆V": 6232,
  "σx": 6233,
  "-ﬁeld": 6234,
  "µB": 6235,
  " gro": 6236,
  " que": 6237,
  "kel": 6238,
  " grant": 6239,
  "angbracketlefti": 6240,
  " fif": 6241,
  " Though": 6242,
  " news": 6243,
  " cheek": 6244,
  " sober": 6245,
  "\"H": 6246,
  "\"Now": 6247,
  " Te": 6248,
  " artic": 6249,
  "inger": 6250,
  "Dr": 6251,
  " teac": 6252,
  "arious": 6253,
  " emp": 6254,
  "sof": 6255,
  " vers": 6256,
  " ﬁnished": 6257,
  "learly": 6258,
  "chapter": 6259,
  " features": 6260,
  " concerned": 6261,
  "—to": 6262,
  "igned": 6263,
  "organ": 6264,
  "ervative": 6265,
  "isms": 6266,
  " See": 6267,
  " Par": 6268,
  " sciences": 6269,
  " destro": 6270,
  "pothes": 6271,
  "petual": 6272,
  " slope": 6273,
  "imeter": 6274,
  "complicated": 6275,
  "atural": 6276,
  "laws": 6277,
  "pling": 6278,
  " capacity": 6279,
  " realized": 6280,
  " —": 6281,
  " virtual": 6282,
  " clim": 6283,
  "lanck": 6284,
  " events": 6285,
  "uries": 6286,
  " prep": 6287,
  " throughout": 6288,
  "Maxwell": 6289,
  " extend": 6290,
  "Incidentally": 6291,
  "piece": 6292,
  "+B": 6293,
  " mag": 6294,
  " quietly": 6295,
  " remembered": 6296,
  "∆y": 6297,
  " neglected": 6298,
  "pal": 6299,
  "log": 6300,
  "screen": 6301,
  " Im": 6302,
  " shadow": 6303,
  " twentieth": 6304,
  " Who": 6305,
  " ap": 6306,
  " wel": 6307,
  "indu": 6308,
  " watched": 6309,
  "ils": 6310,
  "ervoir": 6311,
  "Field": 6312,
  " semicondu": 6313,
  " regret": 6314,
  " paramagnetism": 6315,
  " kill": 6316,
  "cholar": 6317,
  " hurt": 6318,
  " flo": 6319,
  " tongue": 6320,
  " offered": 6321,
  " walked": 6322,
  " achie": 6323,
  "physics": 6324,
  " dozen": 6325,
  "percent": 6326,
  "years": 6327,
  "mitted": 6328,
  "discuss": 6329,
  " reverse": 6330,
  " matters": 6331,
  "oms": 6332,
  "itational": 6333,
  " App": 6334,
  "done": 6335,
  "ued": 6336,
  "changing": 6337,
  "break": 6338,
  "water": 6339,
  "magn": 6340,
  "jo": 6341,
  " detect": 6342,
  " fant": 6343,
  "square": 6344,
  " likes": 6345,
  " physically": 6346,
  " wished": 6347,
  " emitted": 6348,
  " invent": 6349,
  "-energy": 6350,
  " causes": 6351,
  " viol": 6352,
  " importance": 6353,
  " drink": 6354,
  "81": 6355,
  " highly": 6356,
  "Yet": 6357,
  " degree": 6358,
  " Was": 6359,
  "ultaneously": 6360,
  "arer": 6361,
  " Many": 6362,
  " Bis": 6363,
  " ray": 6364,
  "sour": 6365,
  ")B": 6366,
  "comb": 6367,
  " uniformly": 6368,
  " bond": 6369,
  " learning": 6370,
  "grad": 6371,
  " multiplying": 6372,
  "atically": 6373,
  " technology": 6374,
  "/λ": 6375,
  " Its": 6376,
  "nas": 6377,
  "last": 6378,
  "orth": 6379,
  "anc": 6380,
  " electrom": 6381,
  " alternating": 6382,
  " fancy": 6383,
  " stable": 6384,
  "apl": 6385,
  "eds": 6386,
  " pressed": 6387,
  "ensor": 6388,
  "araday": 6389,
  "Hy": 6390,
  "(∇": 6391,
  "nest": 6392,
  " daily": 6393,
  "noon": 6394,
  " hun": 6395,
  "ointed": 6396,
  "/angbracketleftχ": 6397,
  "ieval": 6398,
  " god": 6399,
  " shoulders": 6400,
  " $": 6401,
  " weeks": 6402,
  "!’": 6403,
  "arket": 6404,
  " pra": 6405,
  " crying": 6406,
  " gay": 6407,
  "usband": 6408,
  " Gottlieb": 6409,
  "sequently": 6410,
  "ios": 6411,
  " reference": 6412,
  " David": 6413,
  " sequence": 6414,
  "aughter": 6415,
  "surpr": 6416,
  " seldom": 6417,
  " tremendous": 6418,
  " Am": 6419,
  " Energy": 6420,
  " compound": 6421,
  "inet": 6422,
  "ourier": 6423,
  "linear": 6424,
  "appear": 6425,
  " steam": 6426,
  " Never": 6427,
  " wants": 6428,
  "iolet": 6429,
  "gers": 6430,
  " inﬂuence": 6431,
  " prediction": 6432,
  " equipment": 6433,
  " greatest": 6434,
  " posit": 6435,
  "uk": 6436,
  " mu": 6437,
  " pot": 6438,
  "neut": 6439,
  " thermodynamics": 6440,
  "ologists": 6441,
  "shall": 6442,
  "opposite": 6443,
  " calculating": 6444,
  " disregard": 6445,
  "ument": 6446,
  "grav": 6447,
  " tension": 6448,
  " observ": 6449,
  "alile": 6450,
  " Gree": 6451,
  " comparison": 6452,
  "ension": 6453,
  "“The": 6454,
  "path": 6455,
  "descri": 6456,
  " visual": 6457,
  " driving": 6458,
  "whole": 6459,
  "following": 6460,
  "seconds": 6461,
  " enable": 6462,
  " andy": 6463,
  "76": 6464,
  " xis": 6465,
  " famous": 6466,
  " momenta": 6467,
  "hard": 6468,
  " Moe": 6469,
  " unchanged": 6470,
  " obey": 6471,
  "apped": 6472,
  "seen": 6473,
  " failed": 6474,
  "andE": 6475,
  "parallel": 6476,
  " everybody": 6477,
  "(ωt": 6478,
  "eiω": 6479,
  " peak": 6480,
  "soid": 6481,
  "Φ": 6482,
  "Right": 6483,
  "gauss": 6484,
  "Did": 6485,
  " Em": 6486,
  " conduction": 6487,
  " harmonics": 6488,
  " polarizability": 6489,
  "aci": 6490,
  "|I": 6491,
  "ﬂux": 6492,
  " cook": 6493,
  " computers": 6494,
  " burst": 6495,
  " fright": 6496,
  "|+−/": 6497,
  " loving": 6498,
  " China": 6499,
  " government": 6500,
  " doctors": 6501,
  " doll": 6502,
  "ief": 6503,
  "algorith": 6504,
  " taste": 6505,
  " Sallie": 6506,
  " United": 6507,
  " taught": 6508,
  " volumes": 6509,
  "omy": 6510,
  "ighton": 6511,
  " errors": 6512,
  "high": 6513,
  " enth": 6514,
  "htm": 6515,
  "happy": 6516,
  "iculous": 6517,
  "RI": 6518,
  "THE": 6519,
  " broke": 6520,
  " essentially": 6521,
  " settled": 6522,
  "year": 6523,
  "mathemat": 6524,
  "ctu": 6525,
  "acceler": 6526,
  " program": 6527,
  " More": 6528,
  "adiation": 6529,
  "List": 6530,
  " wonderful": 6531,
  "-sh": 6532,
  " kno": 6533,
  "inction": 6534,
  " accepted": 6535,
  "phenomen": 6536,
  " repulsion": 6537,
  "Einstein": 6538,
  " false": 6539,
  " blind": 6540,
  " luck": 6541,
  " combined": 6542,
  " nevertheless": 6543,
  " organic": 6544,
  "suc": 6545,
  " isot": 6546,
  " mathematically": 6547,
  " mistake": 6548,
  " legs": 6549,
  "alling": 6550,
  " stretched": 6551,
  "turns": 6552,
  " Next": 6553,
  " danger": 6554,
  "doesn": 6555,
  " sample": 6556,
  "TO": 6557,
  "ensities": 6558,
  " worried": 6559,
  " remo": 6560,
  " deb": 6561,
  " sinθ": 6562,
  "ept": 6563,
  " variables": 6564,
  "owing": 6565,
  "coil": 6566,
  " Indeed": 6567,
  " aandb": 6568,
  " delivered": 6570,
  "ancing": 6571,
  "solution": 6572,
  "CTOR": 6573,
  "osing": 6574,
  "Ea": 6575,
  "Such": 6576,
  " spend": 6577,
  "−ct": 6578,
  "photon": 6579,
  "(n": 6580,
  "clud": 6581,
  " EandB": 6582,
  "antic": 6583,
  " pictures": 6584,
  " optic": 6585,
  " amuse": 6586,
  " binding": 6587,
  " κ": 6588,
  "ortex": 6589,
  "σy": 6590,
  "Λ": 6591,
  " wondering": 6592,
  " silver": 6593,
  "Rz": 6594,
  "udd": 6595,
  " birth": 6596,
  " famine": 6597,
  " decl": 6598,
  " bliss": 6599,
  "wood": 6600,
  " despair": 6601,
  " parents": 6602,
  " neur": 6603,
  "ificial": 6604,
  " lawn": 6605,
  "araoh": 6606,
  " sorrow": 6607,
  "chief": 6608,
  " whispered": 6609,
  "“G": 6610,
  " Pr": 6611,
  " corpor": 6612,
  " edition": 6613,
  " Lectures": 6614,
  "guide": 6615,
  " physicist": 6616,
  " History": 6617,
  " content": 6618,
  "standing": 6619,
  " hundreds": 6620,
  " English": 6621,
  "Also": 6622,
  "spir": 6623,
  " generate": 6624,
  "plan": 6625,
  " implic": 6626,
  " truly": 6627,
  " imagination": 6628,
  "simple": 6629,
  "pied": 6630,
  " describes": 6631,
  "itrogen": 6632,
  " composed": 6633,
  " autom": 6634,
  " norm": 6635,
  " attracted": 6636,
  "necess": 6637,
  " Go": 6638,
  "fast": 6639,
  "scale": 6640,
  "until": 6641,
  " stated": 6642,
  "viron": 6643,
  " antip": 6644,
  " relationships": 6645,
  " historical": 6646,
  " percent": 6647,
  " accurately": 6648,
  " deeply": 6649,
  "separ": 6650,
  " hill": 6651,
  " machines": 6652,
  " somebody": 6653,
  " lots": 6654,
  "run": 6655,
  " galax": 6656,
  "300": 6657,
  " squared": 6658,
  "pic": 6659,
  " resolved": 6660,
  "better": 6661,
  " distinguish": 6662,
  " algebraic": 6663,
  "(z": 6664,
  "appears": 6665,
  "idden": 6666,
  " bother": 6667,
  "cous": 6668,
  " pole": 6669,
  " spent": 6670,
  "andz": 6671,
  "cking": 6672,
  " treatment": 6673,
  "/ω": 6674,
  "corresponds": 6675,
  " logarith": 6676,
  "=e": 6677,
  " Ais": 6678,
  " resistor": 6679,
  "bridge": 6680,
  " terminal": 6681,
  " Remember": 6682,
  "htip": 6683,
  " London": 6684,
  " Rather": 6685,
  " battery": 6686,
  "Vector": 6687,
  "Cur": 6688,
  "Gauss": 6689,
  "electrics": 6690,
  "artes": 6691,
  " bene": 6692,
  "·B": 6693,
  " har": 6694,
  " camp": 6695,
  "ensive": 6696,
  " Did": 6697,
  " glance": 6698,
  "-century": 6699,
  " Bose": 6700,
  " ˆP": 6701,
  " plague": 6702,
  " vill": 6703,
  " genetic": 6704,
  " biochemical": 6705,
  " mur": 6706,
  "vely": 6707,
  " asleep": 6708,
  " fold": 6709,
  " sofa": 6710,
  "\"If": 6711,
  "herself": 6712,
  " Marmee": 6713,
  "\"Why": 6714,
  "\"T": 6715,
  " glanced": 6716,
  "IGH": 6717,
  "iforn": 6718,
  "ifornia": 6719,
  "olf": 6720,
  " published": 6721,
  " Richard": 6722,
  "count": 6723,
  " Scient": 6724,
  " accompl": 6725,
  "ennium": 6726,
  " thanks": 6727,
  " physicists": 6728,
  "imp": 6729,
  " audi": 6730,
  " soph": 6731,
  "96": 6732,
  " names": 6733,
  ".htm": 6734,
  "ards": 6735,
  " satisfact": 6736,
  " teach": 6737,
  " approp": 6738,
  " strict": 6739,
  "hib": 6740,
  " dyn": 6741,
  " Trans": 6742,
  "ativity": 6743,
  " Equ": 6744,
  "ystem": 6745,
  "olarization": 6746,
  "chrot": 6747,
  " theoretical": 6748,
  " twist": 6749,
  "gl": 6750,
  "respect": 6751,
  "why": 6752,
  "ING": 6753,
  " amounts": 6754,
  " evapor": 6755,
  " smell": 6756,
  "ouds": 6757,
  " resulting": 6758,
  "cast": 6759,
  "ih": 6760,
  "=\u0000": 6761,
  "reason": 6762,
  " beings": 6763,
  "lastic": 6764,
  " Nature": 6765,
  "/T": 6766,
  " movement": 6767,
  " hearts": 6768,
  "center": 6769,
  " subjective": 6770,
  "∞\n": 6771,
  "ELECT": 6772,
  " remains": 6773,
  "+···": 6774,
  ")we": 6775,
  "Equation": 6776,
  " revolution": 6777,
  "therefore": 6778,
  "CM": 6779,
  " elementary": 6780,
  "=b": 6781,
  " traject": 6782,
  " amazing": 6783,
  " ignore": 6784,
  "poles": 6785,
  ")can": 6786,
  " +\n": 6787,
  " Paul": 6788,
  "ads": 6789,
  " calling": 6790,
  "incipal": 6791,
  "jug": 6792,
  "ambridge": 6793,
  "wing": 6794,
  " classically": 6795,
  "aker": 6796,
  " kn": 6797,
  " opening": 6798,
  " splitting": 6799,
  "phone": 6800,
  "~ω": 6801,
  " reservoir": 6802,
  "asc": 6803,
  " angry": 6804,
  "aplaci": 6805,
  "aplacian": 6806,
  " dislocations": 6807,
  "σz": 6808,
  " meeting": 6809,
  ",’": 6810,
  " promise": 6811,
  "avi": 6812,
  " tempt": 6813,
  " weird": 6814,
  ",M": 6815,
  "yle": 6816,
  " individuals": 6817,
  "field": 6818,
  " finger": 6819,
  " bitter": 6820,
  "ana": 6821,
  " comfortable": 6822,
  "mother": 6823,
  " bag": 6824,
  " firm": 6825,
  " dare": 6826,
  " parlor": 6827,
  " Moff": 6828,
  " fond": 6829,
  " introduced": 6830,
  " Mill": 6831,
  "Cal": 6832,
  " aware": 6833,
  "sem": 6834,
  " fac": 6835,
  "words": 6836,
  " born": 6837,
  " correctly": 6838,
  "oﬀ": 6839,
  "ES": 6840,
  "almost": 6841,
  "due": 6842,
  " opportun": 6843,
  " plans": 6844,
  " Furthermore": 6845,
  "bability": 6846,
  "olecular": 6847,
  "-vectors": 6848,
  "usoidal": 6849,
  "chet": 6850,
  " pawl": 6851,
  " extent": 6852,
  "science": 6853,
  "pothesis": 6854,
  "strom": 6855,
  " snow": 6856,
  " consists": 6857,
  "ese": 6858,
  "happens": 6859,
  " explos": 6860,
  " desire": 6861,
  " wet": 6862,
  " runs": 6863,
  " bre": 6864,
  " sensible": 6865,
  " Before": 6866,
  " neat": 6867,
  "electrical": 6868,
  " cosmic": 6869,
  " swing": 6870,
  " predicted": 6871,
  "amb": 6872,
  "+T": 6873,
  " prote": 6874,
  " contained": 6875,
  "against": 6876,
  " planets": 6877,
  " doctor": 6878,
  " wra": 6879,
  " contributions": 6880,
  "(e": 6881,
  " pulling": 6882,
  " apparently": 6883,
  "ulses": 6884,
  "sto": 6885,
  "coordinate": 6886,
  " tomorrow": 6887,
  "(A": 6888,
  "section": 6889,
  "According": 6890,
  " relate": 6891,
  "nic": 6892,
  "ulations": 6893,
  "tor": 6894,
  " advantage": 6895,
  " hence": 6896,
  "begin": 6897,
  "SP": 6898,
  "bound": 6899,
  "single": 6900,
  "ubst": 6901,
  " induction": 6902,
  ")·": 6903,
  " remembering": 6904,
  " rewrite": 6905,
  " plain": 6906,
  "Before": 6907,
  "itic": 6908,
  " Imagine": 6909,
  " Li": 6910,
  "oop": 6911,
  " evidently": 6912,
  "base": 6913,
  "ony": 6914,
  " oscillate": 6915,
  ")e": 6916,
  "wavelength": 6917,
  " cro": 6918,
  " incidence": 6919,
  " ellipsoid": 6920,
  "Ar": 6921,
  " sheets": 6922,
  "closed": 6923,
  "eptember": 6924,
  "Maybe": 6925,
  " kT": 6926,
  " ordered": 6927,
  " paid": 6928,
  "Par": 6929,
  " equipotential": 6930,
  "+=": 6931,
  "“And": 6932,
  "¨": 6933,
  "◦about": 6934,
  " ash": 6935,
  " hoping": 6936,
  " ˆH": 6937,
  "(xn": 6938,
  " rob": 6939,
  " politics": 6940,
  "fit": 6941,
  "xford": 6942,
  " mort": 6943,
  " peasant": 6944,
  " divine": 6945,
  "chen": 6946,
  " fix": 6947,
  "gir": 6948,
  "ublic": 6949,
  " garden": 6950,
  " husband": 6951,
  " song": 6952,
  " Rod": 6953,
  "\"We": 6954,
  " rolled": 6955,
  "\"W": 6956,
  " charming": 6957,
  " shrugged": 6958,
  "OL": 6959,
  "above": 6960,
  " Fe": 6961,
  " underg": 6962,
  " enthusi": 6963,
  "ugust": 6964,
  " contribute": 6965,
  ".html": 6966,
  " logic": 6967,
  " Wes": 6968,
  " hoped": 6969,
  " satisﬁed": 6970,
  " mainly": 6971,
  " appropriate": 6972,
  "quant": 6973,
  "roscop": 6974,
  "pler": 6975,
  "seud": 6976,
  "seudo": 6977,
  " paradox": 6978,
  "ients": 6979,
  "chrotron": 6980,
  " engines": 6981,
  "urface": 6982,
  " stage": 6983,
  "idea": 6984,
  " perpetual": 6985,
  "zing": 6986,
  "physical": 6987,
  " characteristics": 6988,
  "inarily": 6989,
  " diﬃculties": 6990,
  " thereby": 6991,
  " puzz": 6992,
  "whether": 6993,
  " thirty": 6994,
  "Light": 6995,
  "completely": 6996,
  "Grav": 6997,
  " impulse": 6998,
  "ID": 6999,
  " activ": 7000,
  " older": 7001,
  "anything": 7002,
  " designed": 7003,
  "circ": 7004,
  "My": 7005,
  "360": 7006,
  " wood": 7007,
  " gain": 7008,
  " calculus": 7009,
  " games": 7010,
  "umm": 7011,
  "miss": 7012,
  " brill": 7013,
  " mid": 7014,
  " ridiculous": 7015,
  " street": 7016,
  "+x": 7017,
  " letting": 7018,
  " overcome": 7019,
  " AandB": 7020,
  "/primet": 7021,
  " displacements": 7022,
  "bu": 7023,
  " convention": 7024,
  "+a": 7025,
  "counter": 7026,
  "those": 7027,
  " coinc": 7028,
  "ca": 7029,
  "itated": 7030,
  ")as": 7031,
  " barely": 7032,
  "Fr": 7033,
  " nic": 7034,
  " occurred": 7035,
  " emerg": 7036,
  " strug": 7037,
  "/n": 7038,
  " remained": 7039,
  "+k": 7040,
  "itivity": 7041,
  "parent": 7042,
  " antennas": 7043,
  " receive": 7044,
  "−vt": 7045,
  " advis": 7046,
  "ohr": 7047,
  "John": 7048,
  "Boltzmann": 7049,
  "pleasant": 7050,
  " sing": 7051,
  " loops": 7052,
  "lla": 7053,
  " convers": 7054,
  " strangeness": 7055,
  " dielectrics": 7056,
  "oseph": 7057,
  " electromagnetism": 7058,
  " Your": 7059,
  " afternoon": 7060,
  " creation": 7061,
  " sle": 7062,
  "−H": 7063,
  ";b": 7064,
  ";d": 7065,
  "\n\n\n\n\n\n\n\n": 7066,
  "itiz": 7067,
  "gricultural": 7068,
  "eties": 7069,
  " scholar": 7070,
  " hopes": 7071,
  " office": 7072,
  " credit": 7073,
  " trif": 7074,
  " dreadful": 7075,
  "   ": 7076,
  "“Okay": 7077,
  " Benton": 7078,
  "“Yeah": 7079,
  " achieve": 7080,
  "described": 7081,
  " Comm": 7082,
  " curious": 7083,
  " Edition": 7084,
  " impact": 7085,
  " exciting": 7086,
  " Mich": 7087,
  " Hen": 7088,
  "-the": 7089,
  " clever": 7090,
  " mostly": 7091,
  " application": 7092,
  " damp": 7093,
  " Res": 7094,
  " circles": 7095,
  " hydro": 7096,
  " pushing": 7097,
  " vibration": 7098,
  " diss": 7099,
  " neighborhood": 7100,
  "fund": 7101,
  "obody": 7102,
  "natural": 7103,
  " Sto": 7104,
  "vironment": 7105,
  "strong": 7106,
  " multiple": 7107,
  " subtle": 7108,
  " discussing": 7109,
  " bran": 7110,
  "pen": 7111,
  "AC": 7112,
  "tion": 7113,
  "ulf": 7114,
  " circulating": 7115,
  " facts": 7116,
  "75": 7117,
  " Finally": 7118,
  "related": 7119,
  " shorter": 7120,
  " Their": 7121,
  " lengths": 7122,
  " dim": 7123,
  "coeﬃ": 7124,
  "next": 7125,
  "integraltext": 7126,
  "independent": 7127,
  "=i": 7128,
  "origin": 7129,
  "=y": 7130,
  " artiﬁcial": 7131,
  " expressions": 7132,
  "exp": 7133,
  " company": 7134,
  "andS": 7135,
  "vari": 7136,
  "front": 7137,
  "comfortable": 7138,
  " rab": 7139,
  "cosωt": 7140,
  " uses": 7141,
  "normal": 7142,
  "sens": 7143,
  "ropic": 7144,
  " stresses": 7145,
  " bug": 7146,
  "rich": 7147,
  " bee": 7148,
  "pressure": 7149,
  " viscosity": 7150,
  "eenth": 7151,
  "Vol": 7152,
  " city": 7153,
  "“W": 7154,
  "µν": 7155,
  "operator": 7156,
  " forehead": 7157,
  " RHC": 7158,
  " Stanford": 7159,
  " offic": 7160,
  " sacred": 7161,
  " eternal": 7162,
  " Ital": 7163,
  " precious": 7164,
  " superior": 7165,
  " chick": 7166,
  " gest": 7167,
  " utter": 7168,
  " clothes": 7169,
  " narrating": 7170,
  "lfriend": 7171,
  " softly": 7172,
  " hers": 7173,
  " Aslan": 7174,
  "UM": 7175,
  "asic": 7176,
  " critical": 7177,
  "bout": 7178,
  "88": 7179,
  "makes": 7180,
  " Mat": 7181,
  " accum": 7182,
  " excit": 7183,
  " demonstrated": 7184,
  "ien": 7185,
  " checked": 7186,
  "VE": 7187,
  "hered": 7188,
  " orth": 7189,
  "instance": 7190,
  "ruction": 7191,
  " gy": 7192,
  "vals": 7193,
  " destroy": 7194,
  "arter": 7195,
  " edges": 7196,
  "hematic": 7197,
  " ?": 7198,
  "rict": 7199,
  "hydrogen": 7200,
  " practically": 7201,
  " deduced": 7202,
  " walking": 7203,
  " examine": 7204,
  " playing": 7205,
  " slower": 7206,
  " disturbance": 7207,
  " Λ": 7208,
  " exceed": 7209,
  " biological": 7210,
  "CON": 7211,
  "special": 7212,
  "short": 7213,
  " tim": 7214,
  " Carnot": 7215,
  "conservation": 7216,
  "formula": 7217,
  " device": 7218,
  "meters": 7219,
  " France": 7220,
  "inity": 7221,
  ")dx": 7222,
  " escape": 7223,
  "produced": 7224,
  " displaced": 7225,
  " caught": 7226,
  " reply": 7227,
  "ola": 7228,
  "sound": 7229,
  " hide": 7230,
  "ploy": 7231,
  "bis": 7232,
  "eng": 7233,
  " dipoles": 7234,
  "namely": 7235,
  "Lorentz": 7236,
  "/L": 7237,
  "hings": 7238,
  "capac": 7239,
  " capacitance": 7240,
  "Thank": 7241,
  " dropped": 7242,
  " mad": 7243,
  " loud": 7244,
  " retina": 7245,
  " Journal": 7246,
  " bund": 7247,
  " experien": 7248,
  "representation": 7249,
  " temper": 7250,
  "umped": 7251,
  " abilities": 7252,
  " promised": 7253,
  "athere": 7254,
  "-S": 7255,
  "-up": 7256,
  "Pl": 7257,
  "itary": 7258,
  "die": 7259,
  " fool": 7260,
  "|n": 7261,
  " pray": 7262,
  " soldiers": 7263,
  "lict": 7264,
  " army": 7265,
  " rats": 7266,
  " vict": 7267,
  " Intern": 7268,
  " Humans": 7269,
  " Christian": 7270,
  " dreams": 7271,
  " anxious": 7272,
  "ender": 7273,
  " babies": 7274,
  " reflect": 7275,
  "processing": 7276,
  "Mrs": 7277,
  " grateful": 7278,
  " grin": 7279,
  "“F": 7280,
  "“Because": 7281,
  "“Olive": 7282,
  "ael": 7283,
  "books": 7284,
  "62": 7285,
  " youth": 7286,
  " :": 7287,
  " types": 7288,
  "urch": 7289,
  ",”\n": 7290,
  " hero": 7291,
  " missing": 7292,
  " Bl": 7293,
  " Man": 7294,
  " IN": 7295,
  "Pr": 7296,
  " modiﬁc": 7297,
  " deliver": 7298,
  " pun": 7299,
  " aspects": 7300,
  "uable": 7301,
  " Field": 7302,
  " Beh": 7303,
  "points": 7304,
  " symmetries": 7305,
  "ollow": 7306,
  "yes": 7307,
  "best": 7308,
  "character": 7309,
  "itter": 7310,
  "decre": 7311,
  " nitrogen": 7312,
  "97": 7313,
  " diﬀer": 7314,
  "—not": 7315,
  "matter": 7316,
  " positron": 7317,
  "ihil": 7318,
  " stored": 7319,
  "BB": 7320,
  "gre": 7321,
  " myst": 7322,
  " furn": 7323,
  "currents": 7324,
  " shaking": 7325,
  "forward": 7326,
  " computing": 7327,
  " ﬁnds": 7328,
  " wishes": 7329,
  "—like": 7330,
  "ethat": 7331,
  " backwards": 7332,
  " evaluate": 7333,
  " confused": 7334,
  " reve": 7335,
  " views": 7336,
  "half": 7337,
  "=B": 7338,
  " recently": 7339,
  "divided": 7340,
  "question": 7341,
  "ask": 7342,
  "subjective": 7343,
  "(k": 7344,
  " derivation": 7345,
  "(v": 7346,
  " removed": 7347,
  "(The": 7348,
  " discre": 7349,
  "ugal": 7350,
  " dust": 7351,
  "=f": 7352,
  " proced": 7353,
  ")with": 7354,
  "tis": 7355,
  "angles": 7356,
  "-components": 7357,
  " equality": 7358,
  "Gm": 7359,
  " stops": 7360,
  " Joe": 7361,
  " til": 7362,
  " impur": 7363,
  "wire": 7364,
  "Ci": 7365,
  "ELECTRON": 7366,
  "orses": 7367,
  "ont": 7368,
  "“That": 7369,
  " inqu": 7370,
  "aun": 7371,
  "/d": 7372,
  "bling": 7373,
  "cosω": 7374,
  " pin": 7375,
  "satisf": 7376,
  " af": 7377,
  "+e": 7378,
  "fere": 7379,
  ",E": 7380,
  "×E": 7381,
  "/bracehtip": 7382,
  " circularly": 7383,
  " European": 7384,
  " patience": 7385,
  "af": 7386,
  "ln": 7387,
  " aren": 7388,
  "essed": 7389,
  "Heat": 7390,
  " altogether": 7391,
  " Roman": 7392,
  "·nda": 7393,
  "+S": 7394,
  " thunderstorm": 7395,
  " ferromagnetic": 7396,
  "took": 7397,
  "icon": 7398,
  " inversion": 7399,
  " towards": 7400,
  " King": 7401,
  "−θ": 7402,
  "\u0016h": 7403,
  " guy": 7404,
  "|e": 7405,
  " style": 7406,
  " killed": 7407,
  " effort": 7408,
  " pride": 7409,
  " pharaoh": 7410,
  " floor": 7411,
  " boots": 7412,
  " sunscreen": 7413,
  " joke": 7414,
  " Christmas": 7415,
  "nie": 7416,
  " grace": 7417,
  " ashamed": 7418,
  " lone": 7419,
  "\"S": 7420,
  "   ": 7421,
  " conference": 7422,
  " Books": 7423,
  " institut": 7424,
  " Dep": 7425,
  " Light": 7426,
  " construct": 7427,
  " Cur": 7428,
  " Electr": 7429,
  "150": 7430,
  "least": 7431,
  " remaining": 7432,
  "iﬀer": 7433,
  " Mic": 7434,
  "Tom": 7435,
  " iss": 7436,
  " grou": 7437,
  " modiﬁed": 7438,
  "roduction": 7439,
  "invol": 7440,
  "-l": 7441,
  " Psych": 7442,
  "served": 7443,
  "persion": 7444,
  " summarize": 7445,
  "wrong": 7446,
  "close": 7447,
  " Notice": 7448,
  " balls": 7449,
  " struck": 7450,
  " Hence": 7451,
  "urning": 7452,
  " Actually": 7453,
  "wall": 7454,
  "charged": 7455,
  "meaning": 7456,
  " pointing": 7457,
  " pion": 7458,
  " independently": 7459,
  "MeV": 7460,
  "atively": 7461,
  " supply": 7462,
  "active": 7463,
  " combine": 7464,
  " row": 7465,
  " compos": 7466,
  " forgotten": 7467,
  " imagined": 7468,
  " immense": 7469,
  " silent": 7470,
  " visit": 7471,
  "circumst": 7472,
  " proposition": 7473,
  " observations": 7474,
  "clock": 7475,
  " lights": 7476,
  " Sw": 7477,
  " convin": 7478,
  "area": 7479,
  " politic": 7480,
  " ﬂuctu": 7481,
  " choices": 7482,
  "xand": 7483,
  " surely": 7484,
  " brilliant": 7485,
  " spheres": 7486,
  "ov": 7487,
  "mind": 7488,
  " ),": 7489,
  "77": 7490,
  "produce": 7491,
  "uminum": 7492,
  "having": 7493,
  "lessly": 7494,
  "iently": 7495,
  " torques": 7496,
  "varies": 7497,
  "prov": 7498,
  " conﬁg": 7499,
  " distinct": 7500,
  "meg": 7501,
  " lying": 7502,
  "Mr": 7503,
  "mω": 7504,
  " setting": 7505,
  "circuit": 7506,
  " insul": 7507,
  "/C": 7508,
  "anu": 7509,
  " adj": 7510,
  "acent": 7511,
  "oute": 7512,
  "electromagnetic": 7513,
  " production": 7514,
  " strains": 7515,
  " Bel": 7516,
  ",|": 7517,
  "ologies": 7518,
  "ﬁl": 7519,
  "ocol": 7520,
  "Res": 7521,
  " Brit": 7522,
  "itz": 7523,
  " welcome": 7524,
  "wa": 7525,
  " output": 7526,
  "ulus": 7527,
  "amagnetism": 7528,
  "ials": 7529,
  "“S": 7530,
  "183": 7531,
  "artesian": 7532,
  " devoted": 7533,
  " manage": 7534,
  " pale": 7535,
  " ωp": 7536,
  " tools": 7537,
  "aviour": 7538,
  "rage": 7539,
  "|A": 7540,
  "|J": 7541,
  " humanity": 7542,
  "God": 7543,
  " efforts": 7544,
  " hell": 7545,
  " anger": 7546,
  " citiz": 7547,
  " societies": 7548,
  " fly": 7549,
  " Isl": 7550,
  " ec": 7551,
  "impan": 7552,
  "impanze": 7553,
  " jour": 7554,
  "first": 7555,
  " gaze": 7556,
  " nur": 7557,
  " skill": 7558,
  " marry": 7559,
  " Ol": 7560,
  " Moffat": 7561,
  " Kate": 7562,
  " grads": 7563,
  "“Why": 7564,
  "IGHT": 7565,
  " Su": 7566,
  "ferences": 7567,
  " State": 7568,
  " diﬀerences": 7569,
  "cript": 7570,
  " photograph": 7571,
  "board": 7572,
  " emotional": 7573,
  "lectures": 7574,
  "fr": 7575,
  " Arch": 7576,
  " agreed": 7577,
  " via": 7578,
  "cross": 7579,
  "iam": 7580,
  "Your": 7581,
  " Aust": 7582,
  " images": 7583,
  " contract": 7584,
  "AD": 7585,
  "HO": 7586,
  "—I": 7587,
  " background": 7588,
  "actually": 7589,
  " challen": 7590,
  " encoura": 7591,
  "mediate": 7592,
  " novel": 7593,
  "omic": 7594,
  "iology": 7595,
  " Sim": 7596,
  " resultant": 7597,
  " Mus": 7598,
  "essel": 7599,
  " needle": 7600,
  "upon": 7601,
  " sodium": 7602,
  " ﬂat": 7603,
  "probably": 7604,
  " interacting": 7605,
  "requencies": 7606,
  "ltra": 7607,
  " involving": 7608,
  " leads": 7609,
  "tically": 7610,
  "relations": 7611,
  " Under": 7612,
  "-mesons": 7613,
  "beaut": 7614,
  "erves": 7615,
  "ckets": 7616,
  " deeper": 7617,
  "SU": 7618,
  "greater": 7619,
  " weather": 7620,
  "Conservation": 7621,
  ")Fig": 7622,
  " ton": 7623,
  " latter": 7624,
  " winter": 7625,
  "parts": 7626,
  " aver": 7627,
  " centuries": 7628,
  " estimate": 7629,
  " judg": 7630,
  " win": 7631,
  "/√\n": 7632,
  " areas": 7633,
  "sun": 7634,
  "189": 7635,
  "ifully": 7636,
  "across": 7637,
  "arri": 7638,
  "tin": 7639,
  "complex": 7640,
  " spr": 7641,
  " confusion": 7642,
  "iped": 7643,
  "mill": 7644,
  " rods": 7645,
  "TEM": 7646,
  "Elastic": 7647,
  ",(": 7648,
  " delicate": 7649,
  " claim": 7650,
  "bx": 7651,
  "according": 7652,
  "ji": 7653,
  " denomin": 7654,
  "ruit": 7655,
  " silly": 7656,
  " ﬂash": 7657,
  "(the": 7658,
  "Like": 7659,
  " CM": 7660,
  " devices": 7661,
  " grass": 7662,
  " shifted": 7663,
  "anuary": 7664,
  "child": 7665,
  "voltage": 7666,
  "People": 7667,
  "andT": 7668,
  "Electromagnetic": 7669,
  "andφ": 7670,
  " constantly": 7671,
  "icate": 7672,
  " shaped": 7673,
  "|b": 7674,
  " wound": 7675,
  " superconduct": 7676,
  "aled": 7677,
  " brains": 7678,
  " mamm": 7679,
  " conclusion": 7680,
  " anymore": 7681,
  "(ρ": 7682,
  " pian": 7683,
  "Wave": 7684,
  " disintegration": 7685,
  " grid": 7686,
  "Human": 7687,
  "Flux": 7688,
  "cher": 7689,
  "emic": 7690,
  "ifferent": 7691,
  " ∇·": 7692,
  " wondered": 7693,
  "ωp": 7694,
  " dance": 7695,
  "ureau": 7696,
  " Pers": 7697,
  " Faraday": 7698,
  "−=": 7699,
  " Jz": 7700,
  "(B": 7701,
  " domestic": 7702,
  " touched": 7703,
  " queer": 7704,
  "illing": 7705,
  " ended": 7706,
  "Hij": 7707,
  " LHC": 7708,
  "|−+/": 7709,
  " cup": 7710,
  "verty": 7711,
  "ouls": 7712,
  " medicine": 7713,
  " anxiety": 7714,
  " battle": 7715,
  " suffering": 7716,
  " vot": 7717,
  " immortality": 7718,
  " fate": 7719,
  " national": 7720,
  " finding": 7721,
  "itchen": 7722,
  " evolutionary": 7723,
  " waved": 7724,
  "beral": 7725,
  " sigh": 7726,
  "\"My": 7727,
  " amused": 7728,
  "\"He": 7729,
  "ardon": 7730,
  " address": 7731,
  "nut": 7732,
  "ittee": 7733,
  " lively": 7734,
  " improved": 7735,
  " inno": 7736,
  " shapes": 7737,
  "etime": 7738,
  "itable": 7739,
  "ulty": 7740,
  "tense": 7741,
  "got": 7742,
  " identify": 7743,
  " graduate": 7744,
  "sphere": 7745,
  "cut": 7746,
  "win": 7747,
  " Sm": 7748,
  " laboratory": 7749,
  " statements": 7750,
  " nerv": 7751,
  " bands": 7752,
  "rec": 7753,
  "vision": 7754,
  " profess": 7755,
  " philosop": 7756,
  " lenses": 7757,
  " Elect": 7758,
  " sole": 7759,
  " squee": 7760,
  "GN": 7761,
  " crow": 7762,
  " squares": 7763,
  "ushes": 7764,
  "alline": 7765,
  "cycles": 7766,
  "absolute": 7767,
  " universal": 7768,
  "apan": 7769,
  "GE": 7770,
  " obviously": 7771,
  " neighboring": 7772,
  " weights": 7773,
  " chains": 7774,
  " rib": 7775,
  " subtract": 7776,
  " computed": 7777,
  " ﬂoor": 7778,
  " handle": 7779,
  " Both": 7780,
  "—one": 7781,
  "Perhaps": 7782,
  " Know": 7783,
  " layers": 7784,
  " Fermi": 7785,
  " decision": 7786,
  " suspect": 7787,
  "andv": 7788,
  " previously": 7789,
  "behind": 7790,
  " complications": 7791,
  " sir": 7792,
  " procedure": 7793,
  "taking": 7794,
  "imin": 7795,
  "01": 7796,
  "Notice": 7797,
  "68": 7798,
  "58": 7799,
  "53": 7800,
  "LIN": 7801,
  " ride": 7802,
  "Again": 7803,
  " tilted": 7804,
  "source": 7805,
  " miracle": 7806,
  "sn": 7807,
  "behavior": 7808,
  "OUR": 7809,
  "(or": 7810,
  " Bet": 7811,
  " cone": 7812,
  " volts": 7813,
  " Gener": 7814,
  "andt": 7815,
  "ituting": 7816,
  " subscript": 7817,
  "uing": 7818,
  "someone": 7819,
  "istically": 7820,
  "rac": 7821,
  " ﬂowing": 7822,
  " borrow": 7823,
  " conjug": 7824,
  "ˆx": 7825,
  " electrodes": 7826,
  ".]\n": 7827,
  " transmission": 7828,
  " shock": 7829,
  "′\n": 7830,
  " delightful": 7831,
  "axial": 7832,
  "aked": 7833,
  "◦,": 7834,
  "∂φ": 7835,
  "=λ": 7836,
  "aling": 7837,
  "aper": 7838,
  "polarization": 7839,
  " absorb": 7840,
  "crystal": 7841,
  " Except": 7842,
  "went": 7843,
  "imental": 7844,
  " emb": 7845,
  " search": 7846,
  " unconscious": 7847,
  "shine": 7848,
  "drift": 7849,
  "=T": 7850,
  " χ": 7851,
  " carrier": 7852,
  "−+": 7853,
  "icity": 7854,
  "collect": 7855,
  " lined": 7856,
  " β": 7857,
  " conversation": 7858,
  "-momentum": 7859,
  "Spin": 7860,
  "olds": 7861,
  "|R": 7862,
  "March": 7863,
  " ∇×": 7864,
  " bank": 7865,
  " stroke": 7866,
  " ﬂip": 7867,
  "ker": 7868,
  " jell": 7869,
  "eiδ": 7870,
  "δij": 7871,
  " pleased": 7872,
  "µe": 7873,
  " drew": 7874,
  " opin": 7875,
  "ounced": 7876,
  "athroom": 7877,
  " healthy": 7878,
  "lobal": 7879,
  " influ": 7880,
  " traditional": 7881,
  " pigs": 7882,
  " jaw": 7883,
  "viet": 7884,
  "news": 7885,
  "oston": 7886,
  " Come": 7887,
  " lessons": 7888,
  " gloves": 7889,
  " spoiled": 7890,
  " honor": 7891,
  " paused": 7892,
  "“Not": 7893,
  " America": 7894,
  " Med": 7895,
  "various": 7896,
  "ights": 7897,
  " ease": 7898,
  " college": 7899,
  " Robert": 7900,
  " Michael": 7901,
  "ode": 7902,
  "feiﬀer": 7903,
  "llect": 7904,
  "ded": 7905,
  " THE": 7906,
  "electricity": 7907,
  "mathematical": 7908,
  "orough": 7909,
  " considerable": 7910,
  " ampl": 7911,
  " Found": 7912,
  "velop": 7913,
  "-T": 7914,
  " Ang": 7915,
  " Dis": 7916,
  "iref": 7917,
  " sensation": 7918,
  "ocal": 7919,
  "ﬁned": 7920,
  "plicity": 7921,
  "Spe": 7922,
  " aside": 7923,
  "Ret": 7924,
  "subst": 7925,
  "graph": 7926,
  " od": 7927,
  " evidence": 7928,
  " sand": 7929,
  " protect": 7930,
  "nucle": 7931,
  "condition": 7932,
  "ltrav": 7933,
  "ltraviolet": 7934,
  "table": 7935,
  " statistical": 7936,
  " similarly": 7937,
  " muscle": 7938,
  "+H": 7939,
  "=C": 7940,
  " seven": 7941,
  "-looking": 7942,
  " teles": 7943,
  "perhaps": 7944,
  " blo": 7945,
  " memory": 7946,
  "apse": 7947,
  " pipe": 7948,
  " convenience": 7949,
  " horizontally": 7950,
  "far": 7951,
  "location": 7952,
  " screw": 7953,
  " Planck": 7954,
  " satisfactory": 7955,
  " summer": 7956,
  " Does": 7957,
  "”)": 7958,
  "Eis": 7959,
  "heads": 7960,
  "obtained": 7961,
  "−p": 7962,
  "distribution": 7963,
  " simultaneously": 7964,
  "open": 7965,
  "isible": 7966,
  " Sis": 7967,
  "ometry": 7968,
  "\u000e\n": 7969,
  " sus": 7970,
  " road": 7971,
  " circum": 7972,
  " relevant": 7973,
  " tit": 7974,
  "mix": 7975,
  "conven": 7976,
  " useless": 7977,
  " horses": 7978,
  ",j": 7979,
  "-plate": 7980,
  " fortune": 7981,
  "ki": 7982,
  "erring": 7983,
  "Li": 7984,
  " Ω": 7985,
  "udden": 7986,
  " horr": 7987,
  " integer": 7988,
  "181": 7989,
  "[(": 7990,
  "193": 7991,
  "rap": 7992,
  " oh": 7993,
  " enters": 7994,
  "brain": 7995,
  "omach": 7996,
  "entions": 7997,
  " shining": 7998,
  "aging": 7999,
  "metric": 8000,
  " serve": 8001,
  ")C": 8002,
  " September": 8003,
  "dω": 8004,
  "—at": 8005,
  "Ste": 8006,
  ",S": 8007,
  "∂T": 8008,
  "ucked": 8009,
  " Frank": 8010,
  "Four": 8011,
  "è": 8012,
  " modulus": 8013,
  "Electrostatic": 8014,
  " vortex": 8015,
  "olarized": 8016,
  " semiconductor": 8017,
  "herically": 8018,
  "orticity": 8019,
  " Joseph": 8020,
  "Review": 8021,
  " hungry": 8022,
  "(∇·": 8023,
  " lightning": 8024,
  " June": 8025,
  "vere": 8026,
  "house": 8027,
  "itched": 8028,
  "erable": 8029,
  "Px": 8030,
  "andH": 8031,
  "ouldn": 8032,
  "Msat": 8033,
  "γII": 8034,
  "|−−/": 8035,
  " Great": 8036,
  " Tw": 8037,
  " hunter": 8038,
  " kitchen": 8039,
  "iences": 8040,
  " knight": 8041,
  "couldn": 8042,
  " Brain": 8043,
  " gif": 8044,
  " bonnet": 8045,
  " friendly": 8046,
  " silk": 8047,
  "'.\n\n\n\n": 8048,
  " corporations": 8049,
  "artment": 8050,
  " Des": 8051,
  "nell": 8052,
  " numerous": 8053,
  " ﬁgures": 8054,
  " ,\n": 8055,
  " Out": 8056,
  " India": 8057,
  " groups": 8058,
  " inclined": 8059,
  " successful": 8060,
  "later": 8061,
  "inert": 8062,
  "-day": 8063,
  " members": 8064,
  "usions": 8065,
  "roscopic": 8066,
  " Fl": 8067,
  " intervals": 8068,
  "otation": 8069,
  " parab": 8070,
  "irefring": 8071,
  " ratchet": 8072,
  "bols": 8073,
  " imagining": 8074,
  " chlor": 8075,
  " Na": 8076,
  "itself": 8077,
  " lumps": 8078,
  "situation": 8079,
  " raise": 8080,
  "interaction": 8081,
  "higher": 8082,
  "frequencies": 8083,
  "nearly": 8084,
  " annihil": 8085,
  "-meson": 8086,
  "articles": 8087,
  "reson": 8088,
  " rare": 8089,
  " partly": 8090,
  "etc": 8091,
  " imper": 8092,
  "inking": 8093,
  " rises": 8094,
  " mov": 8095,
  "dev": 8096,
  " oscillates": 8097,
  " deﬁnitions": 8098,
  " halfway": 8099,
  " nearest": 8100,
  "=σ": 8101,
  " speci": 8102,
  "increases": 8103,
  "/angbracketrightto": 8104,
  "uments": 8105,
  " orbits": 8106,
  " angels": 8107,
  "takes": 8108,
  " switch": 8109,
  " collide": 8110,
  "GNET": 8111,
  "187": 8112,
  "success": 8113,
  "suppose": 8114,
  " terrible": 8115,
  "Even": 8116,
  "iating": 8117,
  "orted": 8118,
  "acceleration": 8119,
  "−t": 8120,
  " mere": 8121,
  "(see": 8122,
  " stretch": 8123,
  " actions": 8124,
  " airplane": 8125,
  " sake": 8126,
  " aluminum": 8127,
  " restrict": 8128,
  " sets": 8129,
  "inﬁn": 8130,
  " beside": 8131,
  "systems": 8132,
  " denominator": 8133,
  "Relativistic": 8134,
  " eleph": 8135,
  " unusual": 8136,
  "aur": 8137,
  "relativistic": 8138,
  "Bis": 8139,
  "zx": 8140,
  "LI": 8141,
  " resist": 8142,
  " principal": 8143,
  " ˆA": 8144,
  " voltages": 8145,
  " route": 8146,
  "getting": 8147,
  "RT": 8148,
  " scene": 8149,
  "isticated": 8150,
  "intensity": 8151,
  "+φ": 8152,
  "Et": 8153,
  "del": 8154,
  "Vis": 8155,
  " mixing": 8156,
  "ples": 8157,
  " lat": 8158,
  " discharge": 8159,
  " backstop": 8160,
  "/~.": 8161,
  " adiabatic": 8162,
  " waited": 8163,
  " piano": 8164,
  "Angular": 8165,
  "-current": 8166,
  "mpè": 8167,
  "steres": 8168,
  "steresis": 8169,
  "ynting": 8170,
  "|s": 8171,
  " rank": 8172,
  " attractive": 8173,
  "bracer": 8174,
  "braceright": 8175,
  "—you": 8176,
  "London": 8177,
  " trees": 8178,
  "hter": 8179,
  "“We": 8180,
  " lesson": 8181,
  " Hij": 8182,
  "ache": 8183,
  " yours": 8184,
  "igion": 8185,
  " master": 8186,
  " infect": 8187,
  " medieval": 8188,
  " filled": 8189,
  " poverty": 8190,
  "¬": 8191,
  " citizens": 8192,
  " Age": 8193,
  " fields": 8194,
  " blame": 8195,
  " politicians": 8196,
  " month": 8197,
  " scholars": 8198,
  "-gathere": 8199,
  " enjoying": 8200,
  " cream": 8201,
  " neurons": 8202,
  " command": 8203,
  "umbled": 8204,
  " Jew": 8205,
  " script": 8206,
  " flow": 8207,
  "loved": 8208,
  " maid": 8209,
  " curtain": 8210,
  ".\n\n\n\n\n\n\n": 8211,
  "aisy": 8212,
  "Carlsen": 8213,
  "-dating": 8214,
  " Technology": 8215,
  " brief": 8216,
  " Cor": 8217,
  " role": 8218,
  "ighest": 8219,
  "vation": 8220,
  " approximations": 8221,
  " excitement": 8222,
  " task": 8223,
  " academic": 8224,
  " incorrect": 8225,
  " El": 8226,
  " despite": 8227,
  " dig": 8228,
  "athered": 8229,
  " sections": 8230,
  " optics": 8231,
  "—of": 8232,
  " town": 8233,
  "problems": 8234,
  "-year": 8235,
  " improve": 8236,
  " variety": 8237,
  " ﬁt": 8238,
  "experience": 8239,
  " valuable": 8240,
  " dynamics": 8241,
  "enter": 8242,
  "odes": 8243,
  "ollowing": 8244,
  " remarks": 8245,
  "pract": 8246,
  " simplicity": 8247,
  "black": 8248,
  "—all": 8249,
  " Hel": 8250,
  " containing": 8251,
  " blow": 8252,
  " dry": 8253,
  "xyz": 8254,
  "hthe": 8255,
  "fundamental": 8256,
  "happen": 8257,
  " gather": 8258,
  "few": 8259,
  " medium": 8260,
  " normally": 8261,
  "weight": 8262,
  "minus": 8263,
  " behaves": 8264,
  " environment": 8265,
  "awa": 8266,
  " stone": 8267,
  " catch": 8268,
  "ae": 8269,
  " determines": 8270,
  "aret": 8271,
  " reasoning": 8272,
  " bat": 8273,
  "nature": 8274,
  "ifting": 8275,
  " assumptions": 8276,
  "LO": 8277,
  " strictly": 8278,
  " grandfather": 8279,
  "iﬁer": 8280,
  " Harvard": 8281,
  "radius": 8282,
  " spectral": 8283,
  " coin": 8284,
  "ooking": 8285,
  "(for": 8286,
  ")or": 8287,
  " specify": 8288,
  " determining": 8289,
  " ais": 8290,
  "-re": 8291,
  " tal": 8292,
  " establish": 8293,
  " ellipse": 8294,
  "While": 8295,
  " vertically": 8296,
  " wit": 8297,
  " contro": 8298,
  "viously": 8299,
  "“Yes": 8300,
  "-th": 8301,
  "/∆": 8302,
  " quad": 8303,
  " preced": 8304,
  "preced": 8305,
  " integrating": 8306,
  ")by": 8307,
  "(C": 8308,
  " mv": 8309,
  " transformed": 8310,
  "perpendicular": 8311,
  "oe": 8312,
  "dz": 8313,
  " unity": 8314,
  " clean": 8315,
  " port": 8316,
  "Note": 8317,
  "compress": 8318,
  "/(": 8319,
  " rul": 8320,
  "expression": 8321,
  " surprisingly": 8322,
  "eﬀects": 8323,
  "factor": 8324,
  " cars": 8325,
  " extended": 8326,
  "bar": 8327,
  "·r": 8328,
  " eating": 8329,
  "65": 8330,
  "ˆA": 8331,
  "themselves": 8332,
  "individual": 8333,
  " radiated": 8334,
  "road": 8335,
  " Electric": 8336,
  " bending": 8337,
  " fed": 8338,
  "feeling": 8339,
  "kz": 8340,
  " outer": 8341,
  "nesses": 8342,
  "eterm": 8343,
  "onsense": 8344,
  " exchanged": 8345,
  " wed": 8346,
  " Gra": 8347,
  "idents": 8348,
  "acycles": 8349,
  " nod": 8350,
  "ipp": 8351,
  " gate": 8352,
  "Nuclear": 8353,
  " bow": 8354,
  "yx": 8355,
  "/contintegraldisplay": 8356,
  " storm": 8357,
  "aven": 8358,
  " waste": 8359,
  " voices": 8360,
  " arch": 8361,
  "een": 8362,
  "˙˙": 8363,
  " nickel": 8364,
  " jobs": 8365,
  "·J": 8366,
  "rolled": 8367,
  "|S": 8368,
  "|/": 8369,
  " char": 8370,
  " suffer": 8371,
  "health": 8372,
  " Middle": 8373,
  " hosp": 8374,
  " nations": 8375,
  "grade": 8376,
  " praise": 8377,
  " artificial": 8378,
  "ibl": 8379,
  "-human": 8380,
  "aff": 8381,
  " cheerful": 8382,
  " Soviet": 8383,
  " wearing": 8384,
  " mood": 8385,
  " rosy": 8386,
  " Greg": 8387,
  "\"B": 8388,
  " manners": 8389,
  " gray": 8390,
  " pillow": 8391,
  " eyeb": 8392,
  "\"And": 8393,
  " adviser": 8394,
  "“Hey": 8395,
  "NE": 8396,
  "soever": 8397,
  " Flo": 8398,
  " Millennium": 8399,
  " assem": 8400,
  " Leighton": 8401,
  " Good": 8402,
  " continues": 8403,
  "izes": 8404,
  "cknow": 8405,
  "ART": 8406,
  "OF": 8407,
  "vey": 8408,
  " nervous": 8409,
  "ogonal": 8410,
  " spat": 8411,
  " education": 8412,
  " possessed": 8413,
  " Phys": 8414,
  "sect": 8415,
  "ciency": 8416,
  "aus": 8417,
  "asp": 8418,
  " wigg": 8419,
  " tied": 8420,
  "heric": 8421,
  "105": 8422,
  " Clearly": 8423,
  "pict": 8424,
  " generation": 8425,
  "uous": 8426,
  "ertainly": 8427,
  "unk": 8428,
  "HH": 8429,
  "believe": 8430,
  "scient": 8431,
  "places": 8432,
  " electrically": 8433,
  " symbols": 8434,
  " instrument": 8435,
  "”;": 8436,
  " bore": 8437,
  " unexpected": 8438,
  " Japan": 8439,
  "ﬀerent": 8440,
  "Law": 8441,
  "equivalent": 8442,
  "acc": 8443,
  " mystery": 8444,
  "block": 8445,
  "mach": 8446,
  " counting": 8447,
  "wanted": 8448,
  " spiral": 8449,
  "imagine": 8450,
  "itudes": 8451,
  "Probability": 8452,
  ",T": 8453,
  "Dis": 8454,
  "herent": 8455,
  "uded": 8456,
  " shot": 8457,
  " fallen": 8458,
  " visible": 8459,
  "deg": 8460,
  "oon": 8461,
  " race": 8462,
  " reaches": 8463,
  "working": 8464,
  "derivative": 8465,
  "(∆": 8466,
  "tells": 8467,
  " xy": 8468,
  "67": 8469,
  "(p": 8470,
  " compression": 8471,
  " projection": 8472,
  "grams": 8473,
  "transform": 8474,
  "⊥": 8475,
  "·(": 8476,
  "terday": 8477,
  " shortest": 8478,
  " repeat": 8479,
  " predictions": 8480,
  " satisﬁes": 8481,
  "ubstituting": 8482,
  "directions": 8483,
  "=M": 8484,
  " gently": 8485,
  "ordinary": 8486,
  "show": 8487,
  " occasion": 8488,
  "cuse": 8489,
  " succession": 8490,
  "72": 8491,
  "-inductance": 8492,
  "tes": 8493,
  "γt": 8494,
  "Line": 8495,
  "◦\n": 8496,
  " choo": 8497,
  " maxima": 8498,
  "cluding": 8499,
  " resolution": 8500,
  "utting": 8501,
  ")z": 8502,
  " chose": 8503,
  "materials": 8504,
  "photons": 8505,
  "eye": 8506,
  "hetic": 8507,
  "matid": 8508,
  " display": 8509,
  " motor": 8510,
  "ception": 8511,
  "Two": 8512,
  "xn": 8513,
  " sites": 8514,
  " breaks": 8515,
  "=Q": 8516,
  "“Are": 8517,
  "agnetization": 8518,
  "Inte": 8519,
  "Gravitational": 8520,
  "Molecular": 8521,
  "inic": 8522,
  " ionic": 8523,
  "Three": 8524,
  "eman": 8525,
  ",φ": 8526,
  " waveguide": 8527,
  "=∇×": 8528,
  " willing": 8529,
  "leg": 8530,
  " fasc": 8531,
  "eral": 8532,
  " impurity": 8533,
  "ppers": 8534,
  " calls": 8535,
  " gentlemen": 8536,
  " frightened": 8537,
  " Germany": 8538,
  " kingdom": 8539,
  "ims": 8540,
  " priests": 8541,
  "Come": 8542,
  "-five": 8543,
  " souls": 8544,
  " eld": 8545,
  " farm": 8546,
  " species": 8547,
  "woman": 8548,
  " daughter": 8549,
  " lion": 8550,
  " entities": 8551,
  " Animals": 8552,
  " laughter": 8553,
  " cooperation": 8554,
  " factual": 8555,
  " August": 8556,
  " girlfriend": 8557,
  " flew": 8558,
  "aternal": 8559,
  " decidedly": 8560,
  "\"She": 8561,
  " lonely": 8562,
  " kindly": 8563,
  " pardon": 8564,
  " pause": 8565,
  " frowned": 8566,
  " ©": 8567,
  " Institute": 8568,
  "arc": 8569,
  "-cl": 8570,
  "bru": 8571,
  "bruary": 8572,
  " cop": 8573,
  "lishing": 8574,
  " Pre": 8575,
  "iosity": 8576,
  "63": 8577,
  " genius": 8578,
  " faculty": 8579,
  " intense": 8580,
  "sert": 8581,
  " Ge": 8582,
  "enes": 8583,
  "——": 8584,
  "ALL": 8585,
  "OP": 8586,
  "lications": 8587,
  " attack": 8588,
  " theorems": 8589,
  " vibrating": 8590,
  " shared": 8591,
  " opportunity": 8592,
  " Foundation": 8593,
  " Int": 8594,
  " Time": 8595,
  " gyroscope": 8596,
  " focal": 8597,
  " Index": 8598,
  " ionization": 8599,
  " Ir": 8600,
  "pled": 8601,
  " hint": 8602,
  "accur": 8603,
  "—then": 8604,
  " illustrated": 8605,
  "ﬂy": 8606,
  "equilibrium": 8607,
  " vast": 8608,
  " structures": 8609,
  " observer": 8610,
  "moves": 8611,
  "properties": 8612,
  "necessary": 8613,
  "protons": 8614,
  "others": 8615,
  "kil": 8616,
  "umably": 8617,
  "Quantum": 8618,
  "rat": 8619,
  " disintegrate": 8620,
  "miles": 8621,
  " Stud": 8622,
  "try": 8623,
  "Mat": 8624,
  " pump": 8625,
  " ﬁbers": 8626,
  " muscles": 8627,
  "aborate": 8628,
  "riumph": 8629,
  " musical": 8630,
  " slide": 8631,
  "straight": 8632,
  "consciousness": 8633,
  "psy": 8634,
  "everywhere": 8635,
  "inv": 8636,
  " bringing": 8637,
  " stays": 8638,
  "Consider": 8639,
  "vet": 8640,
  " slipped": 8641,
  "aph": 8642,
  " losses": 8643,
  " bump": 8644,
  "dent": 8645,
  " measures": 8646,
  "pis": 8647,
  "PER": 8648,
  "ROM": 8649,
  " plotted": 8650,
  "].": 8651,
  " distributions": 8652,
  "600": 8653,
  "gas": 8654,
  " properly": 8655,
  "perm": 8656,
  " subjects": 8657,
  "swe": 8658,
  " invisible": 8659,
  " swept": 8660,
  "turned": 8661,
  " roots": 8662,
  "05": 8663,
  "avy": 8664,
  "multi": 8665,
  "magnitude": 8666,
  " isol": 8667,
  "Second": 8668,
  "jected": 8669,
  " recognize": 8670,
  " )\n": 8671,
  "vectors": 8672,
  "itly": 8673,
  "contain": 8674,
  "ictional": 8675,
  " trial": 8676,
  " oil": 8677,
  " exponentially": 8678,
  "ouses": 8679,
  "=−/": 8680,
  " Consequently": 8681,
  " heated": 8682,
  " mixed": 8683,
  " exercise": 8684,
  " agrees": 8685,
  "twenty": 8686,
  ")A": 8687,
  " !": 8688,
  " gotten": 8689,
  "apping": 8690,
  " sensitivity": 8691,
  " interfere": 8692,
  " arrows": 8693,
  " stomach": 8694,
  "fering": 8695,
  " receiver": 8696,
  "Es": 8697,
  " radiate": 8698,
  " nodes": 8699,
  "Cir": 8700,
  " cour": 8701,
  " stim": 8702,
  " †\n": 8703,
  "keeping": 8704,
  " transitions": 8705,
  " domain": 8706,
  "Ei": 8707,
  "artz": 8708,
  "vanometer": 8709,
  " susp": 8710,
  "fin": 8711,
  "+V": 8712,
  "gn": 8713,
  "(+": 8714,
  "bye": 8715,
  "cker": 8716,
  "Surface": 8717,
  "|L": 8718,
  ")dV": 8719,
  "phere": 8720,
  " plasma": 8721,
  " Africa": 8722,
  " Rep": 8723,
  " coun": 8724,
  "−j": 8725,
  "bracerightbigg": 8726,
  " selection": 8727,
  "|W": 8728,
  "|K": 8729,
  "orry": 8730,
  "mac": 8731,
  "isation": 8732,
  " bathroom": 8733,
  " conflict": 8734,
  "sper": 8735,
  " flood": 8736,
  " fears": 8737,
  "rific": 8738,
  "market": 8739,
  "commun": 8740,
  " nation": 8741,
  " scientist": 8742,
  " funds": 8743,
  " Muslim": 8744,
  "algorithms": 8745,
  " passion": 8746,
  " sang": 8747,
  " moral": 8748,
  "experiences": 8749,
  " processing": 8750,
  "-processing": 8751,
  "access": 8752,
  "love": 8753,
  " finished": 8754,
  " Pope": 8755,
  " spirits": 8756,
  " forgive": 8757,
  " shit": 8758,
  "hentic": 8759,
  "depart": 8760,
  ".edu": 8761,
  " cheerfully": 8762,
  " tonight": 8763,
  " leaning": 8764,
  " eager": 8765,
  " wore": 8766,
  " haf": 8767,
  "reatic": 8768,
  "“H": 8769,
  "rigues": 8770,
  " Cong": 8771,
  "iques": 8772,
  " decip": 8773,
  " genes": 8774,
  " corrected": 8775,
  "ibilities": 8776,
  " cooperate": 8777,
  " William": 8778,
  "DU": 8779,
  " teaching": 8780,
  "modern": 8781,
  "forthe": 8782,
  "taken": 8783,
  "rose": 8784,
  " introduce": 8785,
  "/N": 8786,
  " technically": 8787,
  " frequ": 8788,
  " nut": 8789,
  " contraction": 8790,
  "imensions": 8791,
  "plication": 8792,
  " damping": 8793,
  " impedances": 8794,
  " synchrotron": 8795,
  " implications": 8796,
  "hematically": 8797,
  "gens": 8798,
  "AM": 8799,
  "120": 8800,
  " Nevertheless": 8801,
  "slow": 8802,
  "arrangement": 8803,
  " HY": 8804,
  "placing": 8805,
  "alt": 8806,
  " chemists": 8807,
  " While": 8808,
  "phenomena": 8809,
  "paper": 8810,
  "frared": 8811,
  " incidentally": 8812,
  "urely": 8813,
  " muon": 8814,
  " connections": 8815,
  "objects": 8816,
  "nuclear": 8817,
  " weaker": 8818,
  " rates": 8819,
  " gross": 8820,
  "++\n": 8821,
  "\u0000\u0000\n": 8822,
  "information": 8823,
  "bre": 8824,
  " interior": 8825,
  "upiter": 8826,
  " shine": 8827,
  " nicely": 8828,
  " investig": 8829,
  "+(": 8830,
  " derive": 8831,
  "*\n": 8832,
  "reversible": 8833,
  " uranium": 8834,
  " philosophical": 8835,
  "kept": 8836,
  "Are": 8837,
  "either": 8838,
  "occur": 8839,
  " arbitrarily": 8840,
  "aser": 8841,
  "become": 8842,
  " tree": 8843,
  "agree": 8844,
  " ben": 8845,
  " speciﬁed": 8846,
  "predict": 8847,
  "160": 8848,
  "−∞": 8849,
  " wider": 8850,
  "pin": 8851,
  "+r": 8852,
  "Ke": 8853,
  " Sir": 8854,
  " prec": 8855,
  " During": 8856,
  "trying": 8857,
  "+C": 8858,
  " thatthe": 8859,
  "radicalBig": 8860,
  " disturbed": 8861,
  " applies": 8862,
  " xandy": 8863,
  " reci": 8864,
  "74": 8865,
  "rij": 8866,
  "+p": 8867,
  " sliding": 8868,
  "ligible": 8869,
  " Grand": 8870,
  " signiﬁcance": 8871,
  " viscous": 8872,
  "ooke": 8873,
  "felt": 8874,
  "-side": 8875,
  "mus": 8876,
  " Anyway": 8877,
  " arrival": 8878,
  "sometimes": 8879,
  "rotation": 8880,
  " Tr": 8881,
  "imaginary": 8882,
  " striking": 8883,
  "worth": 8884,
  "uddenly": 8885,
  "andk": 8886,
  " conjugate": 8887,
  " wake": 8888,
  " north": 8889,
  " January": 8890,
  " sharply": 8891,
  "umble": 8892,
  " Kir": 8893,
  "soft": 8894,
  " pred": 8895,
  " colored": 8896,
  "Ge": 8897,
  " Pis": 8898,
  "eters": 8899,
  "doing": 8900,
  " sophisticated": 8901,
  "bes": 8902,
  "−iφ": 8903,
  "Tis": 8904,
  ")says": 8905,
  "Electron": 8906,
  " pack": 8907,
  " population": 8908,
  " fem": 8909,
  " Soci": 8910,
  "la": 8911,
  " forb": 8912,
  " conﬁned": 8913,
  " settle": 8914,
  "/V": 8915,
  "maybe": 8916,
  " ninet": 8917,
  " complain": 8918,
  " leading": 8919,
  " integrated": 8920,
  "∆U": 8921,
  " slip": 8922,
  " plenty": 8923,
  "megacycles": 8924,
  " Che": 8925,
  "Today": 8926,
  " grown": 8927,
  "ye": 8928,
  "ostatics": 8929,
  "−∇": 8930,
  "agon": 8931,
  " join": 8932,
  "∇φ": 8933,
  "ACE": 8934,
  "Section": 8935,
  " defe": 8936,
  " activities": 8937,
  " price": 8938,
  " Ho": 8939,
  " magnetized": 8940,
  "/angbracketrightare": 8941,
  "angbracketleftχ": 8942,
  "asked": 8943,
  " Times": 8944,
  " diseases": 8945,
  "precedented": 8946,
  " wars": 8947,
  " technological": 8948,
  " Paris": 8949,
  " flu": 8950,
  " dollars": 8951,
  " Images": 8952,
  " vain": 8953,
  " san": 8954,
  "riage": 8955,
  "fits": 8956,
  "Americ": 8957,
  " hug": 8958,
  "intellig": 8959,
  " Internet": 8960,
  " sunshine": 8961,
  " grave": 8962,
  "utter": 8963,
  " prospect": 8964,
  " web": 8965,
  " Western": 8966,
  " horse": 8967,
  "feelings": 8968,
  " Social": 8969,
  " sob": 8970,
  " dressed": 8971,
  " finish": 8972,
  " Cort": 8973,
  "Please": 8974,
  ".org": 8975,
  "argaret": 8976,
  "\"So": 8977,
  "\"Do": 8978,
  " longed": 8979,
  " hes": 8980,
  " Boston": 8981,
  "URE": 8982,
  " California": 8983,
  " bulk": 8984,
  "tan": 8985,
  "fam": 8986,
  "Pre": 8987,
  "LP": 8988,
  " highest": 8989,
  "larg": 8990,
  "inks": 8991,
  " admit": 8992,
  " promising": 8993,
  " intu": 8994,
  "corpor": 8995,
  "curity": 8996,
  "-a": 8997,
  " succeeded": 8998,
  " Ad": 8999,
  "llectual": 9000,
  "orge": 9001,
  "vin": 9002,
  " TH": 9003,
  " orthogonal": 9004,
  " spatial": 9005,
  " eﬃ": 9006,
  " developing": 9007,
  "once": 9008,
  " separately": 9009,
  "hemical": 9010,
  " Momentum": 9011,
  " generalization": 9012,
  "aque": 9013,
  "ration": 9014,
  "romatic": 9015,
  " Symbols": 9016,
  "learn": 9017,
  " miles": 9018,
  " signiﬁcant": 9019,
  " continuous": 9020,
  "aped": 9021,
  " MA": 9022,
  "nis": 9023,
  " bombard": 9024,
  " qualitatively": 9025,
  " appearance": 9026,
  " incoming": 9027,
  " explosion": 9028,
  " clouds": 9029,
  "connected": 9030,
  "92": 9031,
  "vary": 9032,
  " ultraviolet": 9033,
  "amentally": 9034,
  "aryons": 9035,
  "001": 9036,
  ">>>>>>>>": 9037,
  " Everything": 9038,
  "COO": 9039,
  "+d": 9040,
  "ymes": 9041,
  "pres": 9042,
  " Take": 9043,
  " telescope": 9044,
  " Jupiter": 9045,
  " proportions": 9046,
  " dense": 9047,
  "numer": 9048,
  "argument": 9049,
  " roll": 9050,
  "ounds": 9051,
  "else": 9052,
  "ﬁgure": 9053,
  " py": 9054,
  "welve": 9055,
  "deﬁned": 9056,
  " intr": 9057,
  " giant": 9058,
  " largest": 9059,
  " spaces": 9060,
  " vir": 9061,
  "frame": 9062,
  "happened": 9063,
  "ipping": 9064,
  " card": 9065,
  "Ais": 9066,
  "": 9067,
  "—will": 9068,
  "SIT": 9069,
  "isenberg": 9070,
  "orbit": 9071,
  " pulls": 9072,
  "rele": 9073,
  " contrad": 9074,
  "horizon": 9075,
  "=S": 9076,
  "common": 9077,
  " arrived": 9078,
  " spots": 9079,
  "approximation": 9080,
  "Momentum": 9081,
  "coordinates": 9082,
  "max": 9083,
  ").(": 9084,
  "163": 9085,
  " rout": 9086,
  " entertain": 9087,
  "alone": 9088,
  "cean": 9089,
  "static": 9090,
  " bits": 9091,
  "engine": 9092,
  " conce": 9093,
  " chann": 9094,
  "sidered": 9095,
  "=−∇": 9096,
  " Cont": 9097,
  " studies": 9098,
  "=L": 9099,
  "icking": 9100,
  " spont": 9101,
  "dinal": 9102,
  "-like": 9103,
  "eV": 9104,
  " counted": 9105,
  " summ": 9106,
  "precess": 9107,
  " dies": 9108,
  "66": 9109,
  "SIS": 9110,
  "−q": 9111,
  "Cy": 9112,
  "mission": 9113,
  "ogene": 9114,
  " store": 9115,
  " losing": 9116,
  "—just": 9117,
  " cha": 9118,
  " sinusoidal": 9119,
  "often": 9120,
  "Fourier": 9121,
  "ris": 9122,
  "assuming": 9123,
  " transparent": 9124,
  " adjacent": 9125,
  " aberr": 9126,
  "ns": 9127,
  "sight": 9128,
  "tors": 9129,
  " poly": 9130,
  " son": 9131,
  "ivil": 9132,
  " energ": 9133,
  "uter": 9134,
  " Vis": 9135,
  "-bl": 9136,
  " slot": 9137,
  " birds": 9138,
  "TECTOR": 9139,
  "ashes": 9140,
  "othed": 9141,
  " Je": 9142,
  " trapped": 9143,
  " ﬁlled": 9144,
  "fan": 9145,
  " listened": 9146,
  "US": 9147,
  "uther": 9148,
  "Atomic": 9149,
  "eynolds": 9150,
  "State": 9151,
  "har": 9152,
  "177": 9153,
  "184": 9154,
  " ladder": 9155,
  "Γ": 9156,
  "+j": 9157,
  "∇·(": 9158,
  " Laplacian": 9159,
  "+q": 9160,
  "conductor": 9161,
  "++++": 9162,
  "xz": 9163,
  " tear": 9164,
  "dielectric": 9165,
  " networks": 9166,
  "gust": 9167,
  " threw": 9168,
  "(π": 9169,
  " behaviour": 9170,
  " raft": 9171,
  " golden": 9172,
  " oblig": 9173,
  " papers": 9174,
  " disappointed": 9175,
  " junctions": 9176,
  "-particles": 9177,
  "|iS": 9178,
  "γI": 9179,
  "|ˆH": 9180,
  " germ": 9181,
  "tily": 9182,
  " epid": 9183,
  " terror": 9184,
  "otechnology": 9185,
  " lunch": 9186,
  " enem": 9187,
  "alley": 9188,
  " effic": 9189,
  " chimpanze": 9190,
  "yal": 9191,
  " democratic": 9192,
  " journey": 9193,
  " defin": 9194,
  "wild": 9195,
  "iblical": 9196,
  " peasants": 9197,
  " milk": 9198,
  " motherly": 9199,
  "home": 9200,
  " democracy": 9201,
  " desk": 9202,
  " interview": 9203,
  " selfish": 9204,
  "hington": 9205,
  " campus": 9206,
  "ssip": 9207,
  " Tell": 9208,
  "!'": 9209,
  "\"There": 9210,
  " earnest": 9211,
  " knee": 9212,
  "“Adam": 9213,
  " articles": 9214,
  " institutions": 9215,
  " resolving": 9216,
  " reader": 9217,
  " February": 9218,
  "looks": 9219,
  "hanced": 9220,
  "uscript": 9221,
  " resour": 9222,
  "ronomy": 9223,
  " Er": 9224,
  " entr": 9225,
  ".g": 9226,
  "lis": 9227,
  "Professor": 9228,
  "EF": 9229,
  " intelligent": 9230,
  " intended": 9231,
  " worrying": 9232,
  " teacher": 9233,
  " thinks": 9234,
  " incomplete": 9235,
  " modiﬁcation": 9236,
  "gent": 9237,
  "ivalence": 9238,
  " operations": 9239,
  " Inter": 9240,
  " Behavior": 9241,
  " Brown": 9242,
  " appreciable": 9243,
  "diﬃcult": 9244,
  " resolve": 9245,
  " sentence": 9246,
  " hypothesis": 9247,
  " forty": 9248,
  "white": 9249,
  " continually": 9250,
  " ﬂy": 9251,
  "—because": 9252,
  " hits": 9253,
  "agonal": 9254,
  "eyes": 9255,
  " fewer": 9256,
  " neighbors": 9257,
  "olves": 9258,
  "chemical": 9259,
  " diagonal": 9260,
  " hanging": 9261,
  " collected": 9262,
  " balanced": 9263,
  " surrounded": 9264,
  " horrible": 9265,
  " industry": 9266,
  "iated": 9267,
  " brings": 9268,
  " branch": 9269,
  "rab": 9270,
  "exc": 9271,
  "calculate": 9272,
  " topic": 9273,
  " clue": 9274,
  " mountain": 9275,
  " disease": 9276,
  " arriving": 9277,
  " spaced": 9278,
  " operating": 9279,
  " heights": 9280,
  "—even": 9281,
  " climb": 9282,
  " equals": 9283,
  " liberated": 9284,
  " beats": 9285,
  " grain": 9286,
  "ago": 9287,
  " contem": 9288,
  " vibrations": 9289,
  " slab": 9290,
  " trip": 9291,
  " implies": 9292,
  " backward": 9293,
  "RA": 9294,
  "otions": 9295,
  "rifugal": 9296,
  "exist": 9297,
  "note": 9298,
  " deﬁning": 9299,
  " preceding": 9300,
  "+c": 9301,
  "=g": 9302,
  " dx": 9303,
  "displace": 9304,
  " simplify": 9305,
  "=π": 9306,
  " reduce": 9307,
  "easy": 9308,
  " negligible": 9309,
  "(We": 9310,
  "rotating": 9311,
  "express": 9312,
  "/primein": 9313,
  "-axes": 9314,
  "Actually": 9315,
  " transformations": 9316,
  "−b": 9317,
  " trajectory": 9318,
  "bz": 9319,
  "imm": 9320,
  " anybody": 9321,
  " ultimate": 9322,
  "Never": 9323,
  "Equ": 9324,
  " pseudo": 9325,
  "Bigg": 9326,
  "considered": 9327,
  "rip": 9328,
  " fruit": 9329,
  "itudinal": 9330,
  " interpre": 9331,
  "person": 9332,
  " strugg": 9333,
  "wed": 9334,
  " coincidence": 9335,
  " treated": 9336,
  "region": 9337,
  " survive": 9338,
  "-handed": 9339,
  "=R": 9340,
  " integers": 9341,
  "73": 9342,
  "ares": 9343,
  "Which": 9344,
  " engineers": 9345,
  "-order": 9346,
  " becoming": 9347,
  "correspond": 9348,
  " generators": 9349,
  "owaves": 9350,
  " prevent": 9351,
  "/s": 9352,
  "andP": 9353,
  "olding": 9354,
  "local": 9355,
  "describe": 9356,
  " former": 9357,
  " Thom": 9358,
  " isotropic": 9359,
  " orientations": 9360,
  " plastic": 9361,
  " pink": 9362,
  " purple": 9363,
  " touching": 9364,
  " unlikely": 9365,
  " ommatid": 9366,
  "jud": 9367,
  " interrupt": 9368,
  "rotational": 9369,
  " Calling": 9370,
  "182": 9371,
  " galvanometer": 9372,
  "App": 9373,
  "+α": 9374,
  "/τ": 9375,
  "Coll": 9376,
  "coeﬃcients": 9377,
  "arks": 9378,
  "rella": 9379,
  " swall": 9380,
  "Ant": 9381,
  "elf": 9382,
  " exclusion": 9383,
  "abi": 9384,
  " leader": 9385,
  "liness": 9386,
  " Hans": 9387,
  " tenderly": 9388,
  "Har": 9389,
  "inded": 9390,
  " saved": 9391,
  "SUR": 9392,
  " dull": 9393,
  "moments": 9394,
  "df": 9395,
  " disci": 9396,
  "apa": 9397,
  " Mon": 9398,
  " Sij": 9399,
  " myth": 9400,
  "arb": 9401,
  " begun": 9402,
  "angbracketleftj": 9403,
  "angbracketleftψ": 9404,
  "porary": 9405,
  " afterward": 9406,
  "|y": 9407,
  " ambit": 9408,
  "|β": 9409,
  ";n": 9410,
  ";p": 9411,
  " Modern": 9412,
  " helping": 9413,
  " infin": 9414,
  " cure": 9415,
  "ibiot": 9416,
  "angers": 9417,
  " survival": 9418,
  "bus": 9419,
  " cele": 9420,
  "animals": 9421,
  " evolved": 9422,
  " upgrad": 9423,
  "computer": 9424,
  "itual": 9425,
  "atson": 9426,
  " wicked": 9427,
  " comfor": 9428,
  " reward": 9429,
  " castle": 9430,
  " worn": 9431,
  " authentic": 9432,
  "haled": 9433,
  " button": 9434,
  " Annie": 9435,
  " fee": 9436,
  " grat": 9437,
  " gown": 9438,
  " roses": 9439,
  " exclaimed": 9440,
  " romance": 9441,
  "\"Then": 9442,
  "seemed": 9443,
  " palm": 9444,
  "“Can": 9445,
  " academia": 9446,
  " fuck": 9447,
  " blinked": 9448,
  "Marie": 9449,
  " whatsoever": 9450,
  "250": 9451,
  "sus": 9452,
  "ested": 9453,
  " accomplish": 9454,
  " essence": 9455,
  " empir": 9456,
  " printed": 9457,
  "etting": 9458,
  " eB": 9459,
  " memories": 9460,
  "agues": 9461,
  " version": 9462,
  "auer": 9463,
  "contribut": 9464,
  " audience": 9465,
  "-H": 9466,
  " classes": 9467,
  " schools": 9468,
  "asm": 9469,
  " prepar": 9470,
  "quiet": 9471,
  "omed": 9472,
  "positions": 9473,
  " thorough": 9474,
  " rotational": 9475,
  " Review": 9476,
  " Origin": 9477,
  " activity": 9478,
  "alous": 9479,
  " modulation": 9480,
  " pendulums": 9481,
  " Ant": 9482,
  "Name": 9483,
  " map": 9484,
  "ucl": 9485,
  "vial": 9486,
  " arises": 9487,
  " ﬁts": 9488,
  " creatures": 9489,
  "IM": 9490,
  " idealized": 9491,
  " repel": 9492,
  "stroms": 9493,
  "ufact": 9494,
  "Imagine": 9495,
  " tank": 9496,
  "idently": 9497,
  " illustration": 9498,
  " precip": 9499,
  " generates": 9500,
  " released": 9501,
  "-ray": 9502,
  " shore": 9503,
  "element": 9504,
  " scar": 9505,
  "Rad": 9506,
  " Still": 9507,
  "-wave": 9508,
  "relationship": 9509,
  "da": 9510,
  "reﬂected": 9511,
  " emphasized": 9512,
  " tub": 9513,
  " message": 9514,
  " instruments": 9515,
  " host": 9516,
  "zymes": 9517,
  " Having": 9518,
  "xes": 9519,
  " pigment": 9520,
  ",B": 9521,
  " Something": 9522,
  " listening": 9523,
  "ysis": 9524,
  "ecting": 9525,
  " invention": 9526,
  " counts": 9527,
  " indicates": 9528,
  " operate": 9529,
  "several": 9530,
  "acts": 9531,
  " hang": 9532,
  " quantitative": 9533,
  " impression": 9534,
  " technique": 9535,
  "within": 9536,
  "smaller": 9537,
  "assume": 9538,
  "insic": 9539,
  " clust": 9540,
  " galaxy": 9541,
  "radiation": 9542,
  "iger": 9543,
  "ister": 9544,
  " yield": 9545,
  "choose": 9546,
  "AS": 9547,
  " bin": 9548,
  ")that": 9549,
  "lli": 9550,
  "—called": 9551,
  " tendency": 9552,
  " beautifully": 9553,
  " likewise": 9554,
  "traction": 9555,
  ",c": 9556,
  "igma": 9557,
  "vz": 9558,
  " exert": 9559,
  "needed": 9560,
  "GM": 9561,
  "(i": 9562,
  "circumstances": 9563,
  "dp": 9564,
  " compens": 9565,
  "andm": 9566,
  "build": 9567,
  "transformation": 9568,
  "∆θ": 9569,
  " sooner": 9570,
  "sense": 9571,
  "µis": 9572,
  " Emp": 9573,
  "UL": 9574,
  " deﬂection": 9575,
  "OURCE": 9576,
  " poles": 9577,
  " conﬁguration": 9578,
  "icing": 9579,
  "energies": 9580,
  "/integraltext": 9581,
  "everyone": 9582,
  "iological": 9583,
  "cra": 9584,
  "non": 9585,
  " stir": 9586,
  " Three": 9587,
  "oting": 9588,
  " rescu": 9589,
  " ignored": 9590,
  "Qis": 9591,
  "torque": 9592,
  " labe": 9593,
  "iolis": 9594,
  " paying": 9595,
  "iis": 9596,
  "162": 9597,
  "bracketrightbigg": 9598,
  " remove": 9599,
  "(which": 9600,
  "+γ": 9601,
  " lump": 9602,
  "ithium": 9603,
  "umbling": 9604,
  " focused": 9605,
  " retard": 9606,
  " orders": 9607,
  " Austral": 9608,
  " emitting": 9609,
  "ophane": 9610,
  "ogeneous": 9611,
  "Ass": 9612,
  " electromagnet": 9613,
  " pigments": 9614,
  " gall": 9615,
  " interrupted": 9616,
  "wonder": 9617,
  "=P": 9618,
  "“Well": 9619,
  "-out": 9620,
  " prepare": 9621,
  " Evolution": 9622,
  "/angbracketleftp": 9623,
  " Hy": 9624,
  "−W": 9625,
  " unpleasant": 9626,
  " painful": 9627,
  "inating": 9628,
  "mpère": 9629,
  "oys": 9630,
  "armor": 9631,
  "rupole": 9632,
  "91": 9633,
  " Char": 9634,
  " vorticity": 9635,
  "∇(∇·": 9636,
  " spherically": 9637,
  "dependence": 9638,
  " cares": 9639,
  "SURF": 9640,
  "ressed": 9641,
  "(cosθ": 9642,
  "Nα": 9643,
  "mech": 9644,
  "azz": 9645,
  " troubles": 9646,
  "ijk": 9647,
  " insisted": 9648,
  " courage": 9649,
  "∗\n": 9650,
  "wouldn": 9651,
  "|H": 9652,
  "-polarized": 9653,
  "Cn": 9654,
  "ηi": 9655,
  " prosper": 9656,
  " cheap": 9657,
  "ico": 9658,
  " African": 9659,
  " alarm": 9660,
  " afford": 9661,
  " fist": 9662,
  " signific": 9663,
  " sacrific": 9664,
  "rene": 9665,
  " upgrade": 9666,
  "atholic": 9667,
  " customers": 9668,
  "onies": 9669,
  "happiness": 9670,
  " Italian": 9671,
  " helmet": 9672,
  "acebook": 9673,
  " Please": 9674,
  " tur": 9675,
  " Oxford": 9676,
  " lux": 9677,
  " Union": 9678,
  "xual": 9679,
  "fant": 9680,
  " affection": 9681,
  ".'": 9682,
  "§": 9683,
  "bell": 9684,
  "ictions": 9685,
  " whisper": 9686,
  " tax": 9687,
  "iable": 9688,
  "stantine": 9689,
  " vote": 9690,
  " emails": 9691,
  " Cortana": 9692,
  " impat": 9693,
  "Poor": 9694,
  " merry": 9695,
  " rum": 9696,
  " cleared": 9697,
  " chat": 9698,
  "'am": 9699,
  " Ned": 9700,
  " STEM": 9701,
  " HYPO": 9702,
  " HYPOTHE": 9703,
  " HYPOTHESIS": 9704,
  "“O": 9705,
  " boyfriend": 9706,
  "“Right": 9707,
  " Rodrigues": 9708,
  " review": 9709,
  "800": 9710,
  "alog": 9711,
  " Pri": 9712,
  "iro": 9713,
  "ﬂuid": 9714,
  " teachers": 9715,
  "archers": 9716,
  " ped": 9717,
  " converted": 9718,
  " readers": 9719,
  " quality": 9720,
  " curiosity": 9721,
  "stu": 9722,
  "formed": 9723,
  "bauer": 9724,
  " primary": 9725,
  " Pfeiﬀer": 9726,
  " demonstration": 9727,
  " legal": 9728,
  "orne": 9729,
  " AN": 9730,
  " \n \n \n \n": 9731,
  "PRO": 9732,
  " gathered": 9733,
  " concepts": 9734,
  " qualitative": 9735,
  " planned": 9736,
  "—what": 9737,
  " unfortunately": 9738,
  " majority": 9739,
  " presented": 9740,
  " personality": 9741,
  " minor": 9742,
  " Ke": 9743,
  "amical": 9744,
  "plex": 9745,
  " Dam": 9746,
  "bsor": 9747,
  "hl": 9748,
  "rystal": 9749,
  " Ill": 9750,
  " notes": 9751,
  "imatter": 9752,
  "drop": 9753,
  " atmospheric": 9754,
  " occupy": 9755,
  " inward": 9756,
  "icated": 9757,
  " liquids": 9758,
  "holes": 9759,
  " crude": 9760,
  "Hence": 9761,
  " Se": 9762,
  "—“": 9763,
  "kinetic": 9764,
  "forming": 9765,
  " behold": 9766,
  " hunger": 9767,
  "rule": 9768,
  "unless": 9769,
  "directly": 9770,
  "moved": 9771,
  "Electrical": 9772,
  "108": 9773,
  "pull": 9774,
  " dashed": 9775,
  " enzymes": 9776,
  " protein": 9777,
  " label": 9778,
  "opes": 9779,
  " triumph": 9780,
  " tun": 9781,
  " discoveries": 9782,
  " smoothly": 9783,
  " medical": 9784,
  " dogs": 9785,
  " wrapped": 9786,
  " wine": 9787,
  "inches": 9788,
  " representing": 9789,
  "falls": 9790,
  "-four": 9791,
  " analyses": 9792,
  " Galile": 9793,
  "Galile": 9794,
  "oscillator": 9795,
  "oscope": 9796,
  "method": 9797,
  "liest": 9798,
  " Everyone": 9799,
  " convinced": 9800,
  " arrow": 9801,
  "adi": 9802,
  "ologist": 9803,
  "host": 9804,
  "sho": 9805,
  "collision": 9806,
  " score": 9807,
  "ernou": 9808,
  "ernoulli": 9809,
  "thatthe": 9810,
  " shaded": 9811,
  " bottle": 9812,
  "perfectly": 9813,
  ")the": 9814,
  "spread": 9815,
  " sideways": 9816,
  "minutes": 9817,
  "002": 9818,
  " accelerated": 9819,
  "pur": 9820,
  "pieces": 9821,
  "cance": 9822,
  "parenrightbigg": 9823,
  " integration": 9824,
  " contributes": 9825,
  "deﬁne": 9826,
  " seg": 9827,
  " applying": 9828,
  "Inter": 9829,
  "94": 9830,
  "95": 9831,
  "174": 9832,
  "ORE": 9833,
  "FROM": 9834,
  " degrees": 9835,
  "prop": 9836,
  " Pto": 9837,
  " employ": 9838,
  "riting": 9839,
  "ardbl": 9840,
  "impossible": 9841,
  " hal": 9842,
  "tons": 9843,
  "produces": 9844,
  " repelled": 9845,
  "-for": 9846,
  "+s": 9847,
  "md": 9848,
  "dρ": 9849,
  " relax": 9850,
  " vice": 9851,
  " versa": 9852,
  "lost": 9853,
  ",∂/∂": 9854,
  " glor": 9855,
  " oriented": 9856,
  ")must": 9857,
  "Comparing": 9858,
  " sidewise": 9859,
  " clicks": 9860,
  "analog": 9861,
  " parties": 9862,
  " uncomfortable": 9863,
  " manip": 9864,
  "urd": 9865,
  " rotates": 9866,
  "quet": 9867,
  " Ma": 9868,
  " circumference": 9869,
  " ωis": 9870,
  " summary": 9871,
  "ait": 9872,
  "culation": 9873,
  " exponent": 9874,
  "-value": 9875,
  "156": 9876,
  " drives": 9877,
  " literature": 9878,
  "iley": 9879,
  " inh": 9880,
  "/angbracketleftE": 9881,
  "ombining": 9882,
  " nonlinear": 9883,
  " distingu": 9884,
  "foc": 9885,
  "Very": 9886,
  " Sometimes": 9887,
  " Right": 9888,
  "interference": 9889,
  "dsinθ": 9890,
  "φis": 9891,
  " crest": 9892,
  " dispersion": 9893,
  " sec": 9894,
  " collective": 9895,
  "-vibr": 9896,
  " birefring": 9897,
  "orient": 9898,
  " absorbs": 9899,
  "—an": 9900,
  "qv": 9901,
  "aments": 9902,
  "kyy": 9903,
  "hum": 9904,
  " latest": 9905,
  " Society": 9906,
  " Mc": 9907,
  " organisms": 9908,
  " experts": 9909,
  "fair": 9910,
  "SOURCE": 9911,
  "heard": 9912,
  " seriously": 9913,
  " forest": 9914,
  " objective": 9915,
  " stopping": 9916,
  " nineteenth": 9917,
  "century": 9918,
  "aly": 9919,
  "Bl": 9920,
  "riers": 9921,
  "ieved": 9922,
  "tt": 9923,
  "Volume": 9924,
  " rising": 9925,
  " propagate": 9926,
  "−ρ": 9927,
  " stock": 9928,
  " tast": 9929,
  "Bohr": 9930,
  "amer": 9931,
  "Isothermal": 9932,
  "173": 9933,
  "164": 9934,
  "cartesian": 9935,
  " ferromagnetism": 9936,
  "IVE": 9937,
  " hyper": 9938,
  ")E": 9939,
  " jet": 9940,
  " delighted": 9941,
  " eddy": 9942,
  " provides": 9943,
  " EI": 9944,
  "told": 9945,
  "“Of": 9946,
  "iner": 9947,
  "bow": 9948,
  "iat": 9949,
  "ﬁlter": 9950,
  " transistor": 9951,
  " annoy": 9952,
  "pective": 9953,
  " diamagnetic": 9954,
  "-spin": 9955,
  "SPIN": 9956,
  " grab": 9957,
  "exx": 9958,
  " smoke": 9959,
  "/angbracketrightfor": 9960,
  "/angbracketrighthas": 9961,
  "kb": 9962,
  "ankind": 9963,
  " fles": 9964,
  " Rome": 9965,
  "ilgr": 9966,
  " evil": 9967,
  " declared": 9968,
  " conqu": 9969,
  " flour": 9970,
  " projects": 9971,
  " Christianity": 9972,
  " Islam": 9973,
  " Hindu": 9974,
  " technologies": 9975,
  "rifice": 9976,
  "enjoy": 9977,
  "economic": 9978,
  " miserable": 9979,
  " lip": 9980,
  " fill": 9981,
  " agreeable": 9982,
  " capitalism": 9983,
  " risk": 9984,
  " Marx": 9985,
  "ois": 9986,
  " fat": 9987,
  " breast": 9988,
  "uda": 9989,
  " communism": 9990,
  " Animal": 9991,
  " cared": 9992,
  "youn": 9993,
  "gentle": 9994,
  " romantic": 9995,
  " email": 9996,
  " umb": 9997,
  " copyright": 9998,
  " needn": 9999,
  " dign": 10000,
  " repro": 10001,
  "girls": 10002,
  "kerchief": 10003,
  " muttered": 10004,
  " supper": 10005,
  "laug": 10006,
  "\"The": 10007,
  " wist": 10008,
  " peep": 10009,
  " begged": 10010,
  " heartily": 10011,
  " wedding": 10012,
  " idiot": 10013,
  "       ": 10014,
  "“This": 10015,
  "“Yep": 10016,
  "ceptibility": 10017,
  " eﬀ": 10018,
  " eﬀort": 10019,
  " capt": 10020,
  " alike": 10021,
  "TEX": 10022,
  " manuscript": 10023,
  "biology": 10024,
  " missed": 10025,
  "doc": 10026,
  " believing": 10027,
  "itating": 10028,
  "Germ": 10029,
  "usive": 10030,
  "enses": 10031,
  "OT": 10032,
  "207": 10033,
  " active": 10034,
  " ﬁll": 10035,
  "adv": 10036,
  " trough": 10037,
  ".S": 10038,
  " Mass": 10039,
  " Introduction": 10040,
  "velopment": 10041,
  " Symmetry": 10042,
  "calar": 10043,
  " philosophers": 10044,
  "armonic": 10045,
  " Radiation": 10046,
  "ﬀraction": 10047,
  "bsorption": 10048,
  "atching": 10049,
  " Ther": 10050,
  "amiliar": 10051,
  "Each": 10052,
  " Exper": 10053,
  "accurate": 10054,
  "uel": 10055,
  "thinking": 10056,
  "hot": 10057,
  " occupied": 10058,
  "GEN": 10059,
  " approaches": 10060,
  "extra": 10061,
  " loose": 10062,
  " enormously": 10063,
  "understanding": 10064,
  " chess": 10065,
  " puzzle": 10066,
  "property": 10067,
  " intimate": 10068,
  " massive": 10069,
  "inguishable": 10070,
  "parad": 10071,
  " picking": 10072,
  "electro": 10073,
  " besides": 10074,
  "ukawa": 10075,
  "today": 10076,
  "pton": 10077,
  "111": 10078,
  "ARGE": 10079,
  " coupled": 10080,
  " prev": 10081,
  " psychology": 10082,
  "DP": 10083,
  "itate": 10084,
  "posing": 10085,
  "simply": 10086,
  " permits": 10087,
  " pressures": 10088,
  " Nobody": 10089,
  " forgetting": 10090,
  "—no": 10091,
  " ing": 10092,
  " throwing": 10093,
  " verify": 10094,
  "arth": 10095,
  " includes": 10096,
  "prove": 10097,
  " lever": 10098,
  " loses": 10099,
  "dinarily": 10100,
  " Someone": 10101,
  "bility": 10102,
  "-beam": 10103,
  "techn": 10104,
  "Does": 10105,
  "billion": 10106,
  " twelve": 10107,
  " convince": 10108,
  " brightness": 10109,
  "million": 10110,
  "determined": 10111,
  " micro": 10112,
  "−n": 10113,
  " referred": 10114,
  " Ob": 10115,
  "omial": 10116,
  "/parenright": 10117,
  "Nis": 10118,
  ")will": 10119,
  "somewhere": 10120,
  "rieﬂy": 10121,
  " nearer": 10122,
  " angel": 10123,
  " tangent": 10124,
  "/k": 10125,
  "solid": 10126,
  "degrees": 10127,
  " precision": 10128,
  " dividing": 10129,
  "sent": 10130,
  " desired": 10131,
  " dt": 10132,
  "/summationtext": 10133,
  " parabola": 10134,
  "matic": 10135,
  "anted": 10136,
  "=ma": 10137,
  " columns": 10138,
  "giving": 10139,
  " magic": 10140,
  " respectively": 10141,
  " elasticity": 10142,
  " hidden": 10143,
  "symmetry": 10144,
  "(in": 10145,
  ";y": 10146,
  "acting": 10147,
  ")if": 10148,
  " rectangle": 10149,
  " ain": 10150,
  "convenient": 10151,
  "scalar": 10152,
  " troubled": 10153,
  " honey": 10154,
  " consequently": 10155,
  " slid": 10156,
  "clos": 10157,
  "ira": 10158,
  " dependent": 10159,
  "∆T": 10160,
  " ...,": 10161,
  "utual": 10162,
  "∞/": 10163,
  " Have": 10164,
  "πa": 10165,
  "dW": 10166,
  "pring": 10167,
  " sketch": 10168,
  " φis": 10169,
  " General": 10170,
  " aband": 10171,
  " abandon": 10172,
  " meantime": 10173,
  "Mic": 10174,
  " viewed": 10175,
  " rush": 10176,
  "arrass": 10177,
  " lasted": 10178,
  "help": 10179,
  "mess": 10180,
  " cones": 10181,
  "pµ": 10182,
  " nonrelativistic": 10183,
  " bend": 10184,
  " quantitatively": 10185,
  "-scale": 10186,
  " revol": 10187,
  "immediately": 10188,
  " Dirac": 10189,
  " Act": 10190,
  " logarithm": 10191,
  "bers": 10192,
  "305": 10193,
  " ˆx": 10194,
  "dI": 10195,
  "=V": 10196,
  "/Q": 10197,
  " dying": 10198,
  ")+": 10199,
  " insp": 10200,
  " entered": 10201,
  "Only": 10202,
  "πc": 10203,
  "Im": 10204,
  "pattern": 10205,
  " staying": 10206,
  "=qe": 10207,
  "ec": 10208,
  "=±": 10209,
  "negations": 10210,
  "negationsl": 10211,
  "negationslash": 10212,
  " superconducting": 10213,
  " spectac": 10214,
  " faint": 10215,
  " Red": 10216,
  " sympat": 10217,
  "Most": 10218,
  "lead": 10219,
  "ˆh": 10220,
  "—namely": 10221,
  "assically": 10222,
  " nonsense": 10223,
  " determin": 10224,
  " ears": 10225,
  " headed": 10226,
  " monatomic": 10227,
  "rayed": 10228,
  " mistakes": 10229,
  "=∆": 10230,
  "cylind": 10231,
  " eg": 10232,
  " crazy": 10233,
  "Py": 10234,
  " beliefs": 10235,
  "keys": 10236,
  "arking": 10237,
  " bunch": 10238,
  " guys": 10239,
  "Coulomb": 10240,
  "otive": 10241,
  "rostatics": 10242,
  "isson": 10243,
  "/angbracketleftφ": 10244,
  "Yl": 10245,
  " dict": 10246,
  " Earound": 10247,
  "Who": 10248,
  "CONDU": 10249,
  " brave": 10250,
  "stream": 10251,
  " military": 10252,
  "JE": 10253,
  " Curie": 10254,
  " winding": 10255,
  "Go": 10256,
  " industrial": 10257,
  "~.": 10258,
  " ja": 10259,
  "sold": 10260,
  "kward": 10261,
  "began": 10262,
  "CI": 10263,
  "otic": 10264,
  " lover": 10265,
  "mor": 10266,
  "matrix": 10267,
  "-representation": 10268,
  "/~)(": 10269,
  "(|": 10270,
  " ambitious": 10271,
  " xn": 10272,
  " ˆQ": 10273,
  "key": 10274,
  "ums": 10275,
  "nes": 10276,
  " culture": 10277,
  "rition": 10278,
  " ances": 10279,
  " increasingly": 10280,
  " East": 10281,
  " bird": 10282,
  " patients": 10283,
  " service": 10284,
  " fantas": 10285,
  " sanct": 10286,
  "Google": 10287,
  " chimpanzees": 10288,
  " pursuit": 10289,
  "ustrial": 10290,
  " services": 10291,
  "prom": 10292,
  " celebr": 10293,
  " kids": 10294,
  "orders": 10295,
  " quar": 10296,
  "borg": 10297,
  " biblical": 10298,
  "istoc": 10299,
  " \n\n\n\n\n\n": 10300,
  "ifies": 10301,
  " fulf": 10302,
  "urry": 10303,
  " temple": 10304,
  " sav": 10305,
  " treasure": 10306,
  " priest": 10307,
  " fifteen": 10308,
  "armac": 10309,
  " beloved": 10310,
  " committee": 10311,
  " rooms": 10312,
  " stepped": 10313,
  " intersubjective": 10314,
  "olded": 10315,
  " relief": 10316,
  " texts": 10317,
  "uine": 10318,
  " Lev": 10319,
  " upset": 10320,
  " gesture": 10321,
  " opinion": 10322,
  " desper": 10323,
  " techno": 10324,
  "accessed": 10325,
  "Mother": 10326,
  " stiff": 10327,
  " jolly": 10328,
  "kiss": 10329,
  "tled": 10330,
  "\"Good": 10331,
  "Hannah": 10332,
  " basket": 10333,
  "elle": 10334,
  " chin": 10335,
  "...\"\n\n\n\n": 10336,
  "\"Of": 10337,
  "“Did": 10338,
  "“U": 10339,
  "Shmac": 10340,
  "izations": 10341,
  " Department": 10342,
  "pite": 10343,
  "esides": 10344,
  "electronic": 10345,
  " resources": 10346,
  " lifetime": 10347,
  "—he": 10348,
  " Sands": 10349,
  "iary": 10350,
  "mit": 10351,
  " Mary": 10352,
  "ifer": 10353,
  "-P": 10354,
  " partial": 10355,
  "particularly": 10356,
  "surprising": 10357,
  "period": 10358,
  "proved": 10359,
  " philosophy": 10360,
  "bas": 10361,
  " Unfortunately": 10362,
  " exhib": 10363,
  " acknow": 10364,
  " Space": 10365,
  " multiplication": 10366,
  "ermat": 10367,
  "qual": 10368,
  "omalous": 10369,
  " thermodynamic": 10370,
  "reversibility": 10371,
  " professor": 10372,
  "-shaped": 10373,
  " Very": 10374,
  " pushes": 10375,
  " compressed": 10376,
  " melt": 10377,
  "liquid": 10378,
  " disappears": 10379,
  " dynamic": 10380,
  " Certainly": 10381,
  "bons": 10382,
  "dimensions": 10383,
  " fantastic": 10384,
  " stones": 10385,
  " rock": 10386,
  "wind": 10387,
  " movements": 10388,
  " Whe": 10389,
  " complication": 10390,
  " stuﬀ": 10391,
  " presumably": 10392,
  "neutron": 10393,
  "beat": 10394,
  " coupling": 10395,
  "beautiful": 10396,
  " collection": 10397,
  " biologists": 10398,
  " creature": 10399,
  "brane": 10400,
  " alive": 10401,
  "NH": 10402,
  " analyzing": 10403,
  " marks": 10404,
  "omes": 10405,
  " nowhere": 10406,
  "—are": 10407,
  " Ass": 10408,
  " frog": 10409,
  " poet": 10410,
  "aste": 10411,
  "Take": 10412,
  " release": 10413,
  " equivalence": 10414,
  "aturally": 10415,
  " distant": 10416,
  " oscilloscope": 10417,
  "consist": 10418,
  "109": 10419,
  "103": 10420,
  "longer": 10421,
  "color": 10422,
  " obtaining": 10423,
  " TV": 10424,
  " Otherwise": 10425,
  "likely": 10426,
  " prepared": 10427,
  " vic": 10428,
  "(H": 10429,
  " thrown": 10430,
  "/parenleft": 10431,
  "-fact": 10432,
  "steps": 10433,
  " deviation": 10434,
  "step": 10435,
  "\u0001x": 10436,
  " penet": 10437,
  " container": 10438,
  "description": 10439,
  " densities": 10440,
  " Bra": 10441,
  " attached": 10442,
  " bullet": 10443,
  "MAGNET": 10444,
  ")=": 10445,
  " explains": 10446,
  "UND": 10447,
  "idal": 10448,
  "270": 10449,
  "omer": 10450,
  "pair": 10451,
  " impulses": 10452,
  "pended": 10453,
  " intermediate": 10454,
  "“My": 10455,
  ".]": 10456,
  "POSIT": 10457,
  ",/": 10458,
  "FTER": 10459,
  " rocket": 10460,
  " atob": 10461,
  "leave": 10462,
  "plicitly": 10463,
  "/bardbl": 10464,
  "situations": 10465,
  " insist": 10466,
  "nel": 10467,
  " mild": 10468,
  " θis": 10469,
  "(where": 10470,
  "apart": 10471,
  " yesterday": 10472,
  "θis": 10473,
  "=W": 10474,
  "orous": 10475,
  " shells": 10476,
  " upstairs": 10477,
  " evaluated": 10478,
  "incar": 10479,
  "incaré": 10480,
  " attempts": 10481,
  "ounted": 10482,
  " BC": 10483,
  "=(": 10484,
  " longitudinal": 10485,
  "ishes": 10486,
  " elephant": 10487,
  " deﬁnitely": 10488,
  "ups": 10489,
  "suppos": 10490,
  " limiting": 10491,
  " Mis": 10492,
  " xin": 10493,
  "gebraic": 10494,
  " absurd": 10495,
  "earlier": 10496,
  "Aµ": 10497,
  ")at": 10498,
  "orem": 10499,
  " accelerate": 10500,
  " bis": 10501,
  "ects": 10502,
  "+I": 10503,
  "drawn": 10504,
  "thez": 10505,
  " tends": 10506,
  "corresponding": 10507,
  "multiply": 10508,
  " je": 10509,
  "61": 10510,
  "+iγ": 10511,
  "resist": 10512,
  "resistance": 10513,
  "LD": 10514,
  "−iω": 10515,
  " closing": 10516,
  " ham": 10517,
  " creating": 10518,
  " alt": 10519,
  ")T": 10520,
  " intensities": 10521,
  "/bracehtipdown": 10522,
  "main": 10523,
  "Radiation": 10524,
  " radiates": 10525,
  "arget": 10526,
  "Polarization": 10527,
  " cellophane": 10528,
  "rained": 10529,
  "/negationslash": 10530,
  "=qv": 10531,
  "struct": 10532,
  " enclosed": 10533,
  "Thom": 10534,
  "Normal": 10535,
  "Exper": 10536,
  "talk": 10537,
  " bees": 10538,
  "Ev": 10539,
  " mammals": 10540,
  "weak": 10541,
  " odds": 10542,
  "prot": 10543,
  " collapse": 10544,
  "knew": 10545,
  " slits": 10546,
  "isk": 10547,
  " tin": 10548,
  " leak": 10549,
  " isothermal": 10550,
  " James": 10551,
  " decade": 10552,
  " maser": 10553,
  "Substituting": 10554,
  " challenge": 10555,
  "andV": 10556,
  " article": 10557,
  "grand": 10558,
  " Pe": 10559,
  "ulating": 10560,
  " emitter": 10561,
  "uh": 10562,
  "balt": 10563,
  "Act": 10564,
  "Amplitu": 10565,
  "utation": 10566,
  "Curie": 10567,
  "179": 10568,
  " Sam": 10569,
  "Sij": 10570,
  " Altern": 10571,
  " tensors": 10572,
  " diamagnetism": 10573,
  " hysteresis": 10574,
  " Reynolds": 10575,
  " Empire": 10576,
  "=∇": 10577,
  "SURFACE": 10578,
  "bola": 10579,
  "sa": 10580,
  " wisdom": 10581,
  " scra": 10582,
  " refuge": 10583,
  " engineer": 10584,
  " wrist": 10585,
  "MI": 10586,
  ".c": 10587,
  "“There": 10588,
  "“How": 10589,
  " discipl": 10590,
  "termin": 10591,
  " Ber": 10592,
  "possibilities": 10593,
  " artistic": 10594,
  " valence": 10595,
  " Pol": 10596,
  ",l": 10597,
  "Data": 10598,
  " collabor": 10599,
  " warning": 10600,
  " domains": 10601,
  "eyy": 10602,
  "exy": 10603,
  " crum": 10604,
  " Ci": 10605,
  " unusually": 10606,
  "capital": 10607,
  "kxn": 10608,
  "ˆQ": 10609,
  "ja": 10610,
  " team": 10611,
  " pron": 10612,
  "/angbracketleftψ": 10613,
  " sewing": 10614,
  " advent": 10615,
  " holid": 10616,
  " officials": 10617,
  " Health": 10618,
  " wealth": 10619,
  " hi": 10620,
  " buying": 10621,
  " fairy": 10622,
  " marriage": 10623,
  " Catholic": 10624,
  " elder": 10625,
  "agers": 10626,
  " bureau": 10627,
  "American": 10628,
  "arian": 10629,
  " wash": 10630,
  " experiencing": 10631,
  "anqu": 10632,
  " Facebook": 10633,
  " compet": 10634,
  " panic": 10635,
  " communist": 10636,
  " chickens": 10637,
  " Agricultural": 10638,
  " fest": 10639,
  " rushed": 10640,
  " interests": 10641,
  " burden": 10642,
  " hid": 10643,
  "escu": 10644,
  " vent": 10645,
  " Battle": 10646,
  "hearted": 10647,
  " wishing": 10648,
  " rapt": 10649,
  " Dor": 10650,
  " Scott": 10651,
  " cot": 10652,
  " carriage": 10653,
  "271": 10654,
  "275": 10655,
  " heels": 10656,
  " longing": 10657,
  "\"Jo": 10658,
  " shy": 10659,
  " breakfast": 10660,
  "eling": 10661,
  "\"Here": 10662,
  " knees": 10663,
  " folded": 10664,
  " umbrella": 10665,
  " Daisy": 10666,
  "cied": 10667,
  " shirt": 10668,
  " hotel": 10669,
  "“Maybe": 10670,
  "department": 10671,
  "Jeremy": 10672,
  "YS": 10673,
  "seus": 10674,
  " West": 10675,
  " Special": 10676,
  " Jul": 10677,
  "-Mann": 10678,
  " scientiﬁc": 10679,
  "sted": 10680,
  "students": 10681,
  " researchers": 10682,
  "demonstr": 10683,
  " artist": 10684,
  "early": 10685,
  "thew": 10686,
  " Tips": 10687,
  " recall": 10688,
  " inev": 10689,
  " distracted": 10690,
  "compan": 10691,
  " enthusiastic": 10692,
  "info": 10693,
  " July": 10694,
  " unhappy": 10695,
  " recomm": 10696,
  "iations": 10697,
  "xi": 10698,
  " FOR": 10699,
  "—such": 10700,
  "mention": 10701,
  "merely": 10702,
  " feedback": 10703,
  "diﬀerential": 10704,
  "advant": 10705,
  " logical": 10706,
  " fully": 10707,
  "lihood": 10708,
  " irr": 10709,
  " Super": 10710,
  "ometrical": 10711,
  " opaque": 10712,
  " Ref": 10713,
  " eﬃciency": 10714,
  " Waves": 10715,
  " Fourier": 10716,
  " helps": 10717,
  "attract": 10718,
  " schematically": 10719,
  "turning": 10720,
  " apple": 10721,
  " manufact": 10722,
  " bounce": 10723,
  " picks": 10724,
  "deﬁnite": 10725,
  "oxide": 10726,
  "picture": 10727,
  " burning": 10728,
  "collisions": 10729,
  " pile": 10730,
  "allest": 10731,
  "internal": 10732,
  "More": 10733,
  " interpretation": 10734,
  " oscillatory": 10735,
  " broadcast": 10736,
  "106": 10737,
  "istinguishable": 10738,
  "inertia": 10739,
  " wheels": 10740,
  " fundamentally": 10741,
  "hol": 10742,
  "NT": 10743,
  " theoretically": 10744,
  "actions": 10745,
  "neath": 10746,
  " sigma": 10747,
  " heavier": 10748,
  "worked": 10749,
  "—how": 10750,
  " membrane": 10751,
  " hearing": 10752,
  " concerning": 10753,
  " generating": 10754,
  " elaborate": 10755,
  "units": 10756,
  " tool": 10757,
  "-ey": 10758,
  "-eyed": 10759,
  "anine": 10760,
  " Whatever": 10761,
  "analy": 10762,
  " fre": 10763,
  "discovered": 10764,
  "urbul": 10765,
  " memor": 10766,
  "deal": 10767,
  " dirty": 10768,
  " operates": 10769,
  "IST": 10770,
  " Greek": 10771,
  "∝": 10772,
  "disapp": 10773,
  " permit": 10774,
  " intrinsic": 10775,
  " concentration": 10776,
  " galaxies": 10777,
  "bably": 10778,
  " Pres": 10779,
  "hon": 10780,
  "gave": 10781,
  "-factor": 10782,
  " ﬂuctuations": 10783,
  "coun": 10784,
  " Heisenberg": 10785,
  " brieﬂy": 10786,
  " mathematic": 10787,
  "ipt": 10788,
  "approximately": 10789,
  "diameter": 10790,
  "ran": 10791,
  " acted": 10792,
  " tors": 10793,
  " Greeks": 10794,
  " intellectual": 10795,
  "keep": 10796,
  " (/": 10797,
  "82": 10798,
  "—except": 10799,
  " arith": 10800,
  " arithmet": 10801,
  " riding": 10802,
  "operation": 10803,
  "/primeand": 10804,
  "claim": 10805,
  " bold": 10806,
  "added": 10807,
  "abc": 10808,
  " glory": 10809,
  "dipole": 10810,
  "polar": 10811,
  " distorted": 10812,
  ".,\n": 10813,
  "multiplied": 10814,
  "provided": 10815,
  " sending": 10816,
  " shifts": 10817,
  " Mad": 10818,
  "=const": 10819,
  " cosines": 10820,
  "gradient": 10821,
  "rece": 10822,
  " encounter": 10823,
  " interpreted": 10824,
  " connecting": 10825,
  " critic": 10826,
  " popular": 10827,
  " associate": 10828,
  " inertial": 10829,
  " Taking": 10830,
  ",a": 10831,
  "Lis": 10832,
  " supplied": 10833,
  "suddenly": 10834,
  " tip": 10835,
  "aft": 10836,
  "ato": 10837,
  "spring": 10838,
  " easiest": 10839,
  "je": 10840,
  " raised": 10841,
  " logarithms": 10842,
  "302": 10843,
  "71": 10844,
  "110": 10845,
  "IELD": 10846,
  " paramagnetic": 10847,
  " lithium": 10848,
  "Fer": 10849,
  "shape": 10850,
  "junction": 10851,
  "audi": 10852,
  " Wil": 10853,
  "toB": 10854,
  "irtual": 10855,
  " bought": 10856,
  " entrance": 10857,
  "◦.": 10858,
  " retardation": 10859,
  "detector": 10860,
  ")].": 10861,
  "Acos": 10862,
  " oppos": 10863,
  "atte": 10864,
  "rer": 10865,
  " Est": 10866,
  " Mind": 10867,
  "ymmetric": 10868,
  ")gives": 10869,
  " gauss": 10870,
  "dark": 10871,
  "amps": 10872,
  " deuter": 10873,
  "umination": 10874,
  " bundles": 10875,
  " grows": 10876,
  " butter": 10877,
  " sexual": 10878,
  "esthe": 10879,
  " compliment": 10880,
  "zo": 10881,
  " Commun": 10882,
  " Cambridge": 10883,
  "Except": 10884,
  "grating": 10885,
  "pretty": 10886,
  " rubbed": 10887,
  "Av": 10888,
  "—from": 10889,
  " cutoﬀ": 10890,
  " escap": 10891,
  " convert": 10892,
  " warn": 10893,
  " instinct": 10894,
  " abrupt": 10895,
  "+ρ": 10896,
  "amped": 10897,
  " boundaries": 10898,
  "full": 10899,
  "neighb": 10900,
  "compressible": 10901,
  "oured": 10902,
  "Cap": 10903,
  "Ionic": 10904,
  "valent": 10905,
  "-R": 10906,
  "Paul": 10907,
  "–),": 10908,
  "riedrich": 10909,
  " Charles": 10910,
  " disappeared": 10911,
  "·∇": 10912,
  "enda": 10913,
  " knock": 10914,
  "Taking": 10915,
  "·E": 10916,
  " dropping": 10917,
  "etically": 10918,
  " weren": 10919,
  " locked": 10920,
  "−,": 10921,
  "": 10922,
  "∂ψ": 10923,
  " slee": 10924,
  "othing": 10925,
  "lad": 10926,
  " pleasing": 10927,
  ".p": 10928,
  " relieved": 10929,
  "/parenleftbiggqe": 10930,
  " attitude": 10931,
  "pop": 10932,
  " families": 10933,
  "/braceleftbigg": 10934,
  " positronium": 10935,
  " frank": 10936,
  " intend": 10937,
  "µBz": 10938,
  "ders": 10939,
  " Whereas": 10940,
  " Anth": 10941,
  " village": 10942,
  " wheat": 10943,
  "pril": 10944,
  " flesh": 10945,
  " cows": 10946,
  " Death": 10947,
  " Valley": 10948,
  " USA": 10949,
  " cous": 10950,
  "rob": 10951,
  "etty": 10952,
  " ecological": 10953,
  " truck": 10954,
  " planning": 10955,
  " worthy": 10956,
  "children": 10957,
  "satisfied": 10958,
  " economics": 10959,
  "ification": 10960,
  " decipher": 10961,
  " handful": 10962,
  " socialist": 10963,
  "quered": 10964,
  " difference": 10965,
  " fil": 10966,
  " meat": 10967,
  " fixed": 10968,
  " jelly": 10969,
  "iping": 10970,
  " ban": 10971,
  "whel": 10972,
  " innocent": 10973,
  " cher": 10974,
  "onom": 10975,
  " ate": 10976,
  "-conscious": 10977,
  "osexual": 10978,
  " Sant": 10979,
  "gar": 10980,
  "olph": 10981,
  "eau": 10982,
  "§escu": 10983,
  "money": 10984,
  "hands": 10985,
  " doc": 10986,
  " soldier": 10987,
  "young": 10988,
  " indul": 10989,
  "find": 10990,
  "iration": 10991,
  " hemis": 10992,
  " hemisphere": 10993,
  " vanished": 10994,
  "olie": 10995,
  "-ass": 10996,
  "\"But": 10997,
  " boyish": 10998,
  " trifle": 10999,
  " groaned": 11000,
  " gossip": 11001,
  " flower": 11002,
  "...\"": 11003,
  " hearty": 11004,
  "Hey": 11005,
  " flushed": 11006,
  " indign": 11007,
  "ednes": 11008,
  "ednesday": 11009,
  "assuring": 11010,
  "ashwood": 11011,
  " grinned": 11012,
  " Street": 11013,
  " Mark": 11014,
  "03": 11015,
  " achievements": 11016,
  " techniques": 11017,
  " notations": 11018,
  "diag": 11019,
  " remarkably": 11020,
  "ED": 11021,
  " greatly": 11022,
  " Vers": 11023,
  "random": 11024,
  " tricks": 11025,
  " incorpor": 11026,
  "studied": 11027,
  " Given": 11028,
  "sequent": 11029,
  " checking": 11030,
  "bsite": 11031,
  "Clearly": 11032,
  " www": 11033,
  " grounded": 11034,
  "Will": 11035,
  "ria": 11036,
  " Inte": 11037,
  " issues": 11038,
  " distribute": 11039,
  " discussions": 11040,
  "aﬀ": 11041,
  "dedu": 11042,
  " entering": 11043,
  "ideas": 11044,
  " accomplished": 11045,
  "grate": 11046,
  " Motion": 11047,
  " Psychology": 11048,
  " Theory": 11049,
  "cri": 11050,
  "ponents": 11051,
  " Third": 11052,
  " Relativistic": 11053,
  "concl": 11054,
  "hels": 11055,
  "helson": 11056,
  "orley": 11057,
  " Angular": 11058,
  " Add": 11059,
  "esonance": 11060,
  "osmic": 11061,
  " Neuro": 11062,
  " heats": 11063,
  " solids": 11064,
  "smo": 11065,
  " dots": 11066,
  " hex": 11067,
  " mel": 11068,
  " ordinarily": 11069,
  " combining": 11070,
  "pless": 11071,
  "cases": 11072,
  "Everything": 11073,
  " varied": 11074,
  "repe": 11075,
  "story": 11076,
  "magnetism": 11077,
  " squareof": 11078,
  "ocycles": 11079,
  " infrared": 11080,
  " performed": 11081,
  "Sto": 11082,
  " daw": 11083,
  " listed": 11084,
  " sche": 11085,
  " baryons": 11086,
  " neutr": 11087,
  "206": 11088,
  "137": 11089,
  "organic": 11090,
  "atistics": 11091,
  " nerves": 11092,
  " tubes": 11093,
  " lets": 11094,
  " barrier": 11095,
  "cis": 11096,
  " reproduce": 11097,
  " reproduction": 11098,
  " twisted": 11099,
  "determine": 11100,
  "solved": 11101,
  "analysis": 11102,
  " pressing": 11103,
  "atches": 11104,
  "crete": 11105,
  "Something": 11106,
  " sixteen": 11107,
  "height": 11108,
  "lower": 11109,
  "applied": 11110,
  "elastic": 11111,
  "isturbed": 11112,
  " depended": 11113,
  "obs": 11114,
  "create": 11115,
  "ottom": 11116,
  "226": 11117,
  "Period": 11118,
  "ITY": 11119,
  " continuously": 11120,
  " disintegrates": 11121,
  " pulses": 11122,
  " thumb": 11123,
  " Knowing": 11124,
  " ours": 11125,
  " microscopic": 11126,
  " deﬂected": 11127,
  " tosses": 11128,
  "knowledge": 11129,
  "-col": 11130,
  " computation": 11131,
  " summarized": 11132,
  ")!": 11133,
  "veled": 11134,
  " wand": 11135,
  "−)": 11136,
  ")would": 11137,
  ",p": 11138,
  "Np": 11139,
  " relates": 11140,
  " sem": 11141,
  "=h": 11142,
  " maintained": 11143,
  " centrifugal": 11144,
  " Lo": 11145,
  "ﬁxed": 11146,
  " rarely": 11147,
  "gravity": 11148,
  " absence": 11149,
  " enables": 11150,
  "dri": 11151,
  "Listen": 11152,
  " ds": 11153,
  ")v": 11154,
  ")dt": 11155,
  " dramatic": 11156,
  " springs": 11157,
  " numerically": 11158,
  "displacement": 11159,
  "thex": 11160,
  ")tells": 11161,
  "QU": 11162,
  " gad": 11163,
  " recipro": 11164,
  " countless": 11165,
  " preferred": 11166,
  " joined": 11167,
  "slight": 11168,
  " Pand": 11169,
  "Once": 11170,
  "combination": 11171,
  " geometric": 11172,
  "relation": 11173,
  "swer": 11174,
  "imed": 11175,
  "acos": 11176,
  " ocean": 11177,
  " foreign": 11178,
  "emp": 11179,
  " sevent": 11180,
  " Hooke": 11181,
  "easily": 11182,
  " xand": 11183,
  " corners": 11184,
  "/less": 11185,
  "/lessmuch": 11186,
  " conservative": 11187,
  " Aand": 11188,
  "dU": 11189,
  "andr": 11190,
  " ;": 11191,
  "−φ": 11192,
  "agraph": 11193,
  "rian": 11194,
  " humble": 11195,
  "strange": 11196,
  " newsp": 11197,
  "bul": 11198,
  "Cent": 11199,
  " Cent": 11200,
  "bt": 11201,
  "+L": 11202,
  " shaft": 11203,
  "andω": 11204,
  " ).\n": 11205,
  " repeats": 11206,
  "sug": 11207,
  "oscillating": 11208,
  "Gree": 11209,
  "eiθ": 11210,
  "aa": 11211,
  " delayed": 11212,
  "−∆": 11213,
  " ρis": 11214,
  "shar": 11215,
  " dc": 11216,
  "accept": 11217,
  " conclusions": 11218,
  " inductances": 11219,
  "chho": 11220,
  "chhoﬀ": 11221,
  " cris": 11222,
  " boat": 11223,
  "index": 11224,
  "ni": 11225,
  " aberration": 11226,
  "retarded": 11227,
  " spreading": 11228,
  " recover": 11229,
  "dest": 11230,
  "scattered": 11231,
  "rers": 11232,
  "=φ": 11233,
  "ayle": 11234,
  "ayleigh": 11235,
  "otal": 11236,
  "answered": 11237,
  "rd": 11238,
  "Sc": 11239,
  "group": 11240,
  " crossed": 11241,
  "ieve": 11242,
  " Ey": 11243,
  " civil": 11244,
  "mh": 11245,
  " workers": 11246,
  "ography": 11247,
  " Inc": 11248,
  "sen": 11249,
  "=δ": 11250,
  "pb": 11251,
  "unate": 11252,
  "deep": 11253,
  " pour": 11254,
  "PV": 11255,
  " Sur": 11256,
  "plies": 11257,
  "◦C": 11258,
  "−~": 11259,
  " Art": 11260,
  "list": 11261,
  "sed": 11262,
  "-dependent": 11263,
  "+−": 11264,
  " Whenever": 11265,
  "ables": 11266,
  " (∂": 11267,
  "ungle": 11268,
  " teeth": 11269,
  " La": 11270,
  "rapid": 11271,
  " channel": 11272,
  " cand": 11273,
  "return": 11274,
  "earch": 11275,
  "sticks": 11276,
  " shop": 11277,
  "adays": 11278,
  "erson": 11279,
  "ealous": 11280,
  "Classical": 11281,
  "Ale": 11282,
  "Dip": 11283,
  "Dipole": 11284,
  "Schrödinger": 11285,
  "Phase": 11286,
  "aylor": 11287,
  "178": 11288,
  " Thomas": 11289,
  "roughout": 11290,
  "conductors": 11291,
  "—although": 11292,
  ")y": 11293,
  "−∂\n": 11294,
  "hx": 11295,
  " Sn": 11296,
  " coaxial": 11297,
  "83": 11298,
  "+K": 11299,
  " alle": 11300,
  "LINES": 11301,
  "234": 11302,
  " strip": 11303,
  " acquaint": 11304,
  " squir": 11305,
  "ancy": 11306,
  " radical": 11307,
  " Better": 11308,
  " wanting": 11309,
  " perspective": 11310,
  " rows": 11311,
  " Diameter": 11312,
  " ink": 11313,
  "(j": 11314,
  ")~": 11315,
  " obliged": 11316,
  "xyy": 11317,
  "IDS": 11318,
  " Hit": 11319,
  " ren": 11320,
  "anig": 11321,
  "/angbracketrightin": 11322,
  "EII": 11323,
  " programs": 11324,
  "−µp": 11325,
  " germanium": 11326,
  "=~\n": 11327,
  "venty": 11328,
  " Mer": 11329,
  " About": 11330,
  "emics": 11331,
  " April": 11332,
  " ancestors": 11333,
  " North": 11334,
  "panish": 11335,
  " fever": 11336,
  " Pen": 11337,
  " offers": 11338,
  " figured": 11339,
  " labs": 11340,
  " favour": 11341,
  " committed": 11342,
  " divinity": 11343,
  " supre": 11344,
  " supreme": 11345,
  " modest": 11346,
  "lfare": 11347,
  " taxes": 11348,
  " happier": 11349,
  " South": 11350,
  " Americans": 11351,
  " influence": 11352,
  " Test": 11353,
  "grass": 11354,
  "icket": 11355,
  " fifty": 11356,
  "irth": 11357,
  "perform": 11358,
  " murder": 11359,
  " Russ": 11360,
  "sole": 11361,
  " pace": 11362,
  "-gatherers": 11363,
  " holy": 11364,
  " House": 11365,
  " nap": 11366,
  " empires": 11367,
  " cruel": 11368,
  " mothers": 11369,
  " neuro": 11370,
  " Watson": 11371,
  "udaism": 11372,
  " scriptures": 11373,
  " shame": 11374,
  " flat": 11375,
  " Muslims": 11376,
  "hic": 11377,
  "onomous": 11378,
  " protocol": 11379,
  " insult": 11380,
  "ships": 11381,
  " rebell": 11382,
  "anna": 11383,
  " burned": 11384,
  " disgust": 11385,
  " lovers": 11386,
  " Econom": 11387,
  " brother": 11388,
  " Polly": 11389,
  "/g": 11390,
  "?’,": 11391,
  " Margaret": 11392,
  " Guy": 11393,
  " rude": 11394,
  " handkerchief": 11395,
  " Thank": 11396,
  " departed": 11397,
  " murm": 11398,
  "\"Is": 11399,
  " bash": 11400,
  " gladly": 11401,
  " gratefully": 11402,
  " talent": 11403,
  " Davis": 11404,
  " pity": 11405,
  " grim": 11406,
  "enched": 11407,
  "aturday": 11408,
  "hadn": 11409,
  " Dashwood": 11410,
  "“Good": 11411,
  "opy": 11412,
[...]
