{
  "\u0000": 0,
  "\u0001": 1,
  "\u0002": 2,
  "\u0003": 3,
  "\u0004": 4,
  "\u0005": 5,
  "\u0006": 6,
  "\u0007": 7,
  "\b": 8,
  "\t": 9,
  "\n": 10,
  "\u000b": 11,
  "\f": 12,
  "\r": 13,
  "\u000e": 14,
  "\u000f": 15,
  "\u0010": 16,
  "\u0011": 17,
  "\u0012": 18,
  "\u0013": 19,
  "\u0014": 20,
  "\u0015": 21,
  "\u0016": 22,
  "\u0017": 23,
  "\u0018": 24,
  "\u0019": 25,
  "\u001a": 26,
  "\u001b": 27,
  "\u001c": 28,
  "\u001d": 29,
  "\u001e": 30,
  "\u001f": 31,
  " ": 32,
  "!": 33,
  "\"": 34,
  "#": 35,
  "$": 36,
  "%": 37,
  "&": 38,
  "'": 39,
  "(": 40,
  ")": 41,
  "*": 42,
  "+": 43,
  ",": 44,
  "-": 45,
  ".": 46,
  "/": 47,
  "0": 48,
  "1": 49,
  "2": 50,
  "3": 51,
  "4": 52,
  "5": 53,
  "6": 54,
  "7": 55,
  "8": 56,
  "9": 57,
  ":": 58,
  ";": 59,
  "<": 60,
  "=": 61,
  ">": 62,
  "?": 63,
  "@": 64,
  "A": 65,
  "B": 66,
  "C": 67,
  "D": 68,
  "E": 69,
  "F": 70,
  "G": 71,
  "H": 72,
  "I": 73,
  "J": 74,
  "K": 75,
  "L": 76,
  "M": 77,
  "N": 78,
  "O": 79,
  "P": 80,
  "Q": 81,
  "R": 82,
  "S": 83,
  "T": 84,
  "U": 85,
  "V": 86,
  "W": 87,
  "X": 88,
  "Y": 89,
  "Z": 90,
  "[": 91,
  "\\": 92,
  "]": 93,
  "^": 94,
  "_": 95,
  "`": 96,
  "a": 97,
  "b": 98,
  "c": 99,
  "d": 100,
  "e": 101,
  "f": 102,
  "g": 103,
  "h": 104,
  "i": 105,
  "j": 106,
  "k": 107,
  "l": 108,
  "m": 109,
  "n": 110,
  "o": 111,
  "p": 112,
  "q": 113,
  "r": 114,
  "s": 115,
  "t": 116,
  "u": 117,
  "v": 118,
  "w": 119,
  "x": 120,
  "y": 121,
  "z": 122,
  "{": 123,
  "|": 124,
  "}": 125,
  "~": 126,
  "": 127,
  "�": 26503,
  " t": 256,
  " a": 257,
  "he": 258,
  " \n": 259,
  "in": 260,
  "er": 261,
  " the": 262,
  "on": 263,
  "re": 264,
  "an": 265,
  "en": 266,
  "at": 267,
  " s": 268,
  " o": 269,
  " w": 270,
  "es": 271,
  "is": 272,
  " an": 273,
  "al": 274,
  "it": 275,
  " c": 276,
  "or": 277,
  " and": 278,
  " b": 279,
  "ou": 280,
  " m": 281,
  "ed": 282,
  " p": 283,
  "ing": 284,
  " f": 285,
  "ar": 286,
  " of": 287,
  "ic": 288,
  " h": 289,
  " d": 290,
  " to": 291,
  " in": 292,
  "om": 293,
  "ion": 294,
  "le": 295,
  " e": 296,
  " th": 297,
  "ent": 298,
  "ll": 299,
  "st": 300,
  " n": 302,
  "ly": 303,
  " \n\n": 304,
  "ve": 305,
  "as": 306,
  "ec": 307,
  "ut": 308,
  " l": 309,
  "ro": 310,
  "et": 311,
  "im": 312,
  "ol": 313,
  "’": 314,
  "um": 315,
  "ot": 316,
  "se": 317,
  " g": 318,
  " re": 319,
  "ac": 320,
  "ur": 321,
  "ow": 322,
  "ver": 323,
  " I": 324,
  " T": 325,
  " that": 326,
  "ig": 327,
  "ld": 328,
  " is": 329,
  "ill": 330,
  "id": 331,
  "ce": 332,
  "ir": 333,
  "un": 334,
  "ad": 335,
  " it": 336,
  "ist": 337,
  "am": 338,
  " A": 339,
  "if": 340,
  "uman": 341,
  "ay": 342,
  " S": 343,
  "od": 344,
  "her": 345,
  " on": 346,
  "ith": 347,
  " y": 348,
  "ch": 349,
  " be": 350,
  "ation": 351,
  "op": 352,
  "ess": 353,
  "ap": 354,
  " wh": 355,
  " st": 356,
  "us": 357,
  "ci": 358,
  "and": 359,
  "ers": 360,
  "em": 361,
  "th": 362,
  "ies": 363,
  " for": 364,
  " human": 365,
  " ex": 366,
  " W": 367,
  "ct": 368,
  " or": 369,
  "ul": 370,
  "ter": 371,
  " C": 372,
  " we": 373,
  " The": 374,
  " r": 375,
  "ain": 376,
  " as": 377,
  "ht": 378,
  " H": 379,
  "il": 380,
  " you": 381,
  " B": 382,
  "el": 383,
  " con": 384,
  "20": 385,
  " M": 386,
  " are": 387,
  "ant": 388,
  "iv": 389,
  "ag": 390,
  "ity": 391,
  " with": 392,
  "og": 393,
  "res": 394,
  " su": 395,
  "ke": 396,
  "ore": 397,
  "ical": 398,
  "ave": 399,
  " al": 400,
  "ew": 401,
  "‘": 402,
  "per": 403,
  "ive": 404,
  "ous": 405,
  "ions": 406,
  " pro": 407,
  "est": 408,
  " P": 409,
  " D": 410,
  "rom": 411,
  "ab": 412,
  " ‘": 413,
  "ate": 414,
  " will": 415,
  "ould": 416,
  " he": 417,
  " v": 418,
  " com": 419,
  " not": 420,
  "the": 421,
  "ight": 422,
  " they": 423,
  "ect": 424,
  "ib": 425,
  " by": 426,
  " E": 427,
  "ence": 428,
  " G": 429,
  "ust": 430,
  "ie": 431,
  "qu": 432,
  " R": 433,
  "out": 434,
  " F": 435,
  " de": 436,
  " In": 437,
  " their": 438,
  " all": 439,
  " \n\n\n": 440,
  " have": 441,
  " un": 442,
  "os": 443,
  "ast": 444,
  "hen": 445,
  "our": 446,
  " -": 447,
  "ind": 448,
  " from": 449,
  "ism": 450,
  " wor": 451,
  "ge": 452,
  " can": 453,
  "ome": 454,
  "ine": 455,
  " k": 456,
  "’s": 457,
  "ear": 458,
  " ch": 459,
  " (": 460,
  "ven": 461,
  " but": 462,
  " do": 463,
  "oun": 464,
  "art": 465,
  " was": 466,
  " ab": 467,
  "ure": 468,
  " en": 469,
  "der": 470,
  "eop": 471,
  " so": 472,
  " N": 473,
  " ne": 474,
  " tr": 475,
  "use": 476,
  " J": 477,
  "ort": 478,
  "201": 479,
  "’t": 480,
  "eople": 481,
  "to": 482,
  "pl": 483,
  "ens": 484,
  "als": 485,
  "ost": 486,
  " more": 487,
  " L": 488,
  " sh": 489,
  "very": 490,
  " at": 491,
  " our": 492,
  "olog": 493,
  " j": 494,
  "act": 495,
  "con": 496,
  " than": 497,
  " im": 498,
  "oug": 499,
  "ak": 500,
  "cc": 501,
  "pt": 502,
  "all": 503,
  "ich": 504,
  " se": 505,
  " bec": 506,
  "19": 507,
  "are": 508,
  "ere": 509,
  "ual": 510,
  "ther": 511,
  " no": 512,
  "ment": 513,
  " Y": 514,
  "oc": 515,
  " this": 516,
  "ong": 517,
  "up": 518,
  "ations": 519,
  "ory": 520,
  "now": 521,
  "ans": 522,
  " me": 523,
  "ud": 524,
  "ide": 525,
  "reat": 526,
  "ri": 527,
  " people": 528,
  "peri": 529,
  "ard": 530,
  " O": 531,
  " le": 532,
  "ell": 533,
  " us": 534,
  "ake": 535,
  "fer": 536,
  "ood": 537,
  "ue": 538,
  " humans": 539,
  " if": 540,
  "oo": 541,
  " them": 542,
  "ms": 543,
  "ause": 544,
  "’,": 545,
  " ar": 546,
  " sp": 547,
  "vol": 548,
  "ple": 549,
  "av": 550,
  "tr": 551,
  "app": 552,
  " were": 553,
  " about": 554,
  "ult": 555,
  "one": 556,
  "cient": 557,
  "),": 558,
  " world": 559,
  " Th": 560,
  " what": 561,
  " cent": 562,
  "ough": 563,
  " dis": 564,
  " my": 565,
  "ame": 566,
  " pl": 567,
  "ces": 568,
  "sel": 569,
  "00": 570,
  "ary": 571,
  "ists": 572,
  " even": 573,
  " man": 574,
  "com": 575,
  "ire": 576,
  "ks": 577,
  "hn": 578,
  " tw": 579,
  "ber": 580,
  "lect": 581,
  "ings": 582,
  "for": 583,
  " know": 584,
  " An": 585,
  "gor": 586,
  " such": 587,
  "so": 588,
  "ree": 589,
  " has": 590,
  "end": 591,
  "ress": 592,
  "ace": 593,
  "ass": 594,
  "gorith": 595,
  "ution": 596,
  "ated": 597,
  "ata": 598,
  "aw": 599,
  "ike": 600,
  " his": 601,
  " only": 602,
  " who": 603,
  " which": 604,
  "age": 605,
  " rel": 606,
  "ife": 607,
  "ach": 608,
  "\n\n": 609,
  " U": 610,
  "ts": 611,
  " when": 612,
  "ex": 613,
  " new": 614,
  "ep": 615,
  "ather": 616,
  " its": 617,
  "ric": 618,
  " acc": 619,
  " up": 620,
  " ag": 621,
  "ors": 622,
  " bet": 623,
  " real": 624,
  " year": 625,
  " dec": 626,
  " some": 627,
  " Ch": 628,
  " fe": 629,
  "we": 630,
  " one": 631,
  "ru": 632,
  "ial": 633,
  " because": 634,
  "ob": 635,
  "uch": 636,
  " per": 637,
  "ific": 638,
  "irst": 639,
  "pro": 640,
  "ian": 641,
  " It": 642,
  "ents": 643,
  "ics": 644,
  "ious": 645,
  " experi": 646,
  " If": 647,
  "du": 648,
  " other": 649,
  " far": 650,
  "ip": 651,
  "The": 652,
  "volution": 653,
  " bel": 654,
  " em": 655,
  "ays": 656,
  " would": 657,
  " go": 658,
  "ance": 659,
  "tern": 660,
  "red": 661,
  "yst": 662,
  "ond": 663,
  "ff": 664,
  " br": 665,
  " could": 666,
  "ime": 667,
  "ise": 668,
  " just": 669,
  "ern": 670,
  " comp": 671,
  " algorith": 672,
  "ict": 673,
  " ind": 674,
  "conom": 675,
  " \n\n\n\n": 676,
  " how": 677,
  "ath": 678,
  " most": 679,
  " your": 680,
  " life": 681,
  "port": 682,
  "iber": 683,
  "row": 684,
  "ystem": 685,
  " into": 686,
  "old": 687,
  "vel": 688,
  "ury": 689,
  "oll": 690,
  "ang": 691,
  " there": 692,
  " belie": 693,
  "ject": 694,
  "te": 695,
  " out": 696,
  "ren": 697,
  "ord": 698,
  " pr": 699,
  " may": 700,
  "not": 701,
  "ound": 702,
  "200": 703,
  "ose": 704,
  "ack": 705,
  "ology": 706,
  "ences": 707,
  " had": 708,
  " any": 709,
  "echn": 710,
  "ities": 711,
  "ild": 712,
  "ub": 713,
  "ink": 714,
  " every": 715,
  " cl": 716,
  "ia": 717,
  " feel": 718,
  "sci": 719,
  "hing": 720,
  "ible": 721,
  " happ": 722,
  "human": 723,
  "ves": 724,
  " econom": 725,
  "here": 726,
  "ww": 727,
  " years": 728,
  "ates": 729,
  "able": 730,
  "cial": 731,
  " also": 732,
  "pe": 733,
  "other": 734,
  " under": 735,
  "ile": 736,
  "ever": 737,
  " comm": 738,
  " dif": 739,
  " war": 740,
  " over": 741,
  " need": 742,
  "cess": 743,
  "ook": 744,
  " anim": 745,
  " ad": 746,
  "olit": 747,
  "ry": 748,
  "iver": 749,
  " Wh": 750,
  " relig": 751,
  "ice": 752,
  " might": 753,
  "ign": 754,
  " part": 755,
  " mill": 756,
  "ands": 757,
  " qu": 758,
  " like": 759,
  "ower": 760,
  "gan": 761,
  " these": 762,
  "uth": 763,
  "odern": 764,
  "scious": 765,
  "of": 766,
  "In": 767,
  "ness": 768,
  "rit": 769,
  " bl": 770,
  " cont": 771,
  " ent": 772,
  "22": 773,
  "uc": 774,
  " des": 775,
  " K": 776,
  " liber": 777,
  "ark": 778,
  " res": 779,
  "istory": 780,
  "over": 781,
  " very": 782,
  "ick": 783,
  "17": 784,
  " system": 785,
  " scient": 786,
  "ody": 787,
  " act": 788,
  " did": 789,
  "ish": 790,
  "vent": 791,
  "ade": 792,
  "18": 793,
  "ove": 794,
  "self": 795,
  " For": 796,
  " gen": 797,
  "15": 798,
  "ph": 799,
  " data": 800,
  "ating": 801,
  "ons": 802,
  " make": 803,
  " differ": 804,
  " pre": 805,
  "gr": 806,
  " don": 807,
  "hed": 808,
  "ivid": 809,
  " too": 810,
  "be": 811,
  "oy": 812,
  " But": 813,
  " St": 814,
  "form": 815,
  "ures": 816,
  " algorithms": 817,
  " twent": 818,
  " God": 819,
  "ced": 820,
  "mer": 821,
  " then": 822,
  "elf": 823,
  "ines": 824,
  "ied": 825,
  " mean": 826,
  "14": 827,
  "ail": 828,
  " bi": 829,
  "ite": 830,
  "ween": 831,
  "ural": 832,
  "led": 833,
  " should": 834,
  " When": 835,
  " polit": 836,
  "ful": 837,
  "ological": 838,
  " gr": 839,
  "ition": 840,
  "ork": 841,
  "read": 842,
  " fl": 843,
  "int": 844,
  " sc": 845,
  " Un": 846,
  " inc": 847,
  "ives": 848,
  " many": 849,
  " They": 850,
  "uro": 851,
  "30": 852,
  "iens": 853,
  " prob": 854,
  "less": 855,
  "ved": 856,
  " V": 857,
  " does": 858,
  "ember": 859,
  " long": 860,
  "10": 861,
  "iet": 862,
  "fter": 863,
  " much": 864,
  "tle": 865,
  "ty": 866,
  "urn": 867,
  "de": 868,
  "27": 869,
  " We": 870,
  " right": 871,
  "alth": 872,
  " different": 873,
  " power": 874,
  "apiens": 875,
  " Re": 876,
  "cience": 877,
  "akes": 878,
  "ants": 879,
  " think": 880,
  " god": 881,
  " techn": 882,
  "ital": 883,
  "ars": 884,
  "ction": 885,
  "tp": 886,
  ":/": 887,
  "://": 888,
  " bu": 889,
  " mind": 890,
  "tain": 891,
  " So": 892,
  " cannot": 893,
  " time": 894,
  " int": 895,
  "erm": 896,
  " brain": 897,
  " am": 898,
  "selves": 899,
  " century": 900,
  " liberal": 901,
  "cent": 902,
  " coun": 903,
  "-f": 904,
  " her": 905,
  "rough": 906,
  "hem": 907,
  " grow": 908,
  " between": 909,
  " rather": 910,
  "pect": 911,
  " Yet": 912,
  " ide": 913,
  " free": 914,
  "16": 915,
  "ase": 916,
  "ats": 917,
  "und": 918,
  "iness": 919,
  "26": 920,
  "stand": 921,
  "omet": 922,
  " see": 923,
  "ories": 924,
  "ne": 925,
  "orld": 926,
  " modern": 927,
  " meaning": 928,
  "les": 929,
  "day": 930,
  " first": 931,
  " ro": 932,
  "ments": 933,
  " mat": 934,
  "ires": 935,
  " self": 936,
  " never": 937,
  "24": 938,
  "ually": 939,
  " This": 940,
  " ph": 941,
  "ys": 942,
  " two": 943,
  " ob": 944,
  "ality": 945,
  "su": 946,
  " How": 947,
  "wh": 948,
  " ap": 949,
  " animals": 950,
  " fam": 951,
  " better": 952,
  "fore": 953,
  "erson": 954,
  "oss": 955,
  " same": 956,
  " exam": 957,
  " produ": 958,
  "Th": 959,
  "its": 960,
  ".’": 961,
  "hes": 962,
  "ily": 963,
  " po": 964,
  "own": 965,
  "ording": 966,
  "imes": 967,
  "ins": 968,
  "ug": 969,
  " sm": 970,
  " experiences": 971,
  " still": 972,
  " social": 973,
  " order": 974,
  "wn": 975,
  "sy": 976,
  "uture": 977,
  "ally": 978,
  "velop": 979,
  "ational": 980,
  " val": 981,
  "23": 982,
  " why": 983,
  "13": 984,
  " again": 985,
  "ative": 986,
  " individ": 987,
  " law": 988,
  " Con": 989,
  " good": 990,
  "ought": 991,
  " want": 992,
  " He": 993,
  "uthor": 994,
  "az": 995,
  "br": 996,
  " te": 997,
  " well": 998,
  " work": 999,
  " med": 1000,
  " sur": 1001,
  " gl": 1002,
  " dr": 1003,
  "iss": 1004,
  " history": 1005,
  " ear": 1006,
  " process": 1007,
  "jective": 1008,
  "any": 1009,
  " twenty": 1010,
  "gy": 1011,
  " inter": 1012,
  " comput": 1013,
  " few": 1014,
  "iz": 1015,
  "oth": 1016,
  " pe": 1017,
  " co": 1018,
  " economic": 1019,
  "me": 1020,
  " expl": 1021,
  "25": 1022,
  " ser": 1023,
  "ivers": 1024,
  " say": 1025,
  " cr": 1026,
  " num": 1027,
  "ollow": 1028,
  "urope": 1029,
  "kind": 1030,
  "000": 1031,
  "meric": 1032,
  "ft": 1033,
  "oog": 1034,
  "arket": 1035,
  " import": 1036,
  " whe": 1037,
  " get": 1038,
  ").": 1039,
  "iew": 1040,
  "oogle": 1041,
  "\n\n\n\n": 1042,
  " ac": 1043,
  "pre": 1044,
  "cept": 1045,
  " fact": 1046,
  "ange": 1047,
  " sub": 1048,
  " art": 1049,
  " dem": 1050,
  " use": 1051,
  " own": 1052,
  " access": 1053,
  " elect": 1054,
  " Human": 1055,
  "sciousness": 1056,
  "ream": 1057,
  " rem": 1058,
  " col": 1059,
  "www": 1060,
  "ten": 1061,
  "fl": 1062,
  "isions": 1063,
  "ici": 1064,
  " where": 1065,
  " great": 1066,
  " As": 1067,
  "ular": 1068,
  " understand": 1069,
  " disc": 1070,
  "ental": 1071,
  " Dec": 1072,
  " been": 1073,
  " sec": 1074,
  " sim": 1075,
  "ellig": 1076,
  " way": 1077,
  "aps": 1078,
  " day": 1079,
  " follow": 1080,
  "thing": 1081,
  " another": 1082,
  "ledge": 1083,
  " And": 1084,
  " death": 1085,
  " Europe": 1086,
  "aking": 1087,
  " each": 1088,
  " she": 1089,
  " op": 1090,
  "ull": 1091,
  " car": 1092,
  "uring": 1093,
  "ince": 1094,
  "ently": 1095,
  "igh": 1096,
  " author": 1097,
  "36": 1098,
  "ices": 1099,
  "val": 1100,
  " York": 1101,
  " inst": 1102,
  " take": 1103,
  "oul": 1104,
  "ages": 1105,
  "ised": 1106,
  "apital": 1107,
  "sych": 1108,
  " scientific": 1109,
  " off": 1110,
  " turn": 1111,
  " creat": 1112,
  " him": 1113,
  "sh": 1114,
  "ted": 1115,
  " believe": 1116,
  " experience": 1117,
  " last": 1118,
  " comple": 1119,
  "ier": 1120,
  " str": 1121,
  " cre": 1122,
  " without": 1123,
  " imm": 1124,
  "iving": 1125,
  " gods": 1126,
  " eng": 1127,
  " future": 1128,
  "38": 1129,
  " now": 1130,
  "obal": 1131,
  "ning": 1132,
  "arch": 1133,
  "ingle": 1134,
  " somet": 1135,
  " after": 1136,
  "cl": 1137,
  "by": 1138,
  " example": 1139,
  " contr": 1140,
  " science": 1141,
  "ix": 1142,
  "fe": 1143,
  "ciet": 1144,
  "ield": 1145,
  "35": 1146,
  " accessed": 1147,
  "pr": 1148,
  " nat": 1149,
  " cons": 1150,
  " countr": 1151,
  "ner": 1152,
  " millions": 1153,
  "’.": 1154,
  "body": 1155,
  " pres": 1156,
  "ger": 1157,
  "ising": 1158,
  " themselves": 1159,
  " develop": 1160,
  "ility": 1161,
  " You": 1162,
  " give": 1163,
  ".com": 1164,
  "omo": 1165,
  " through": 1166,
  " Americ": 1167,
  " down": 1168,
  "por": 1169,
  " stud": 1170,
  "37": 1171,
  " cour": 1172,
  " prov": 1173,
  " entire": 1174,
  "bers": 1175,
  "reas": 1176,
  " hel": 1177,
  "air": 1178,
  "that": 1179,
  "199": 1180,
  "New": 1181,
  " New": 1182,
  "ubl": 1183,
  "ting": 1184,
  "ained": 1185,
  " att": 1186,
  "ater": 1187,
  " commun": 1188,
  " sens": 1189,
  " emot": 1190,
  " important": 1191,
  " Data": 1192,
  "ward": 1193,
  "ably": 1194,
  " person": 1195,
  " organ": 1196,
  " growth": 1197,
  " reality": 1198,
  "ina": 1199,
  " ask": 1200,
  " What": 1201,
  " political": 1202,
  " ins": 1203,
  " On": 1204,
  " whether": 1205,
  " exper": 1206,
  " War": 1207,
  "amp": 1208,
  " Is": 1209,
  " soul": 1210,
  "ocr": 1211,
  " World": 1212,
  "rol": 1213,
  " quest": 1214,
  " humankind": 1215,
  " ed": 1216,
  "ional": 1217,
  " super": 1218,
  "ope": 1219,
  "arr": 1220,
  " end": 1221,
  " happen": 1222,
  "-first": 1223,
  " become": 1224,
  " ancient": 1225,
  "arm": 1226,
  "hav": 1227,
  " million": 1228,
  " poss": 1229,
  "ead": 1230,
  " Ar": 1231,
  " cor": 1232,
  " mon": 1233,
  "ways": 1234,
  "formation": 1235,
  " Be": 1236,
  "oney": 1237,
  "oment": 1238,
  "amm": 1239,
  "press": 1240,
  " det": 1241,
  " authority": 1242,
  " Al": 1243,
  "anc": 1244,
  " rec": 1245,
  "ues": 1246,
  "ither": 1247,
  " find": 1248,
  " inv": 1249,
  "Wh": 1250,
  " ke": 1251,
  " evolution": 1252,
  " December": 1253,
  "12": 1254,
  "fect": 1255,
  " hun": 1256,
  " bill": 1257,
  " imag": 1258,
  " min": 1259,
  "onom": 1260,
  " arg": 1261,
  " really": 1262,
  " individual": 1263,
  "elligence": 1264,
  "iversity": 1265,
  " humanism": 1266,
  " algorithm": 1267,
  "ah": 1268,
  " today": 1269,
  " while": 1270,
  " single": 1271,
  "How": 1272,
  " sign": 1273,
  " engine": 1274,
  "ternal": 1275,
  "ov": 1276,
  " health": 1277,
  "ffer": 1278,
  " doct": 1279,
  "pos": 1280,
  " exist": 1281,
  "rist": 1282,
  " tell": 1283,
  "joy": 1284,
  " religion": 1285,
  " lit": 1286,
  "ined": 1287,
  " call": 1288,
  "ows": 1289,
  "my": 1290,
  " within": 1291,
  " doesn": 1292,
  " feelings": 1293,
  "An": 1294,
  "put": 1295,
  "ades": 1296,
  " look": 1297,
  " sl": 1298,
  " Fr": 1299,
  "with": 1300,
  "icated": 1301,
  "oper": 1302,
  "ech": 1303,
  " sch": 1304,
  " ht": 1305,
  " http": 1306,
  "ck": 1307,
  " proble": 1308,
  " small": 1309,
  "comm": 1310,
  " won": 1311,
  " eff": 1312,
  " ever": 1313,
  "ruct": 1314,
  "ock": 1315,
  "hemical": 1316,
  " el": 1317,
  " true": 1318,
  "oman": 1319,
  " Press": 1320,
  " Homo": 1321,
  " ter": 1322,
  "ale": 1323,
  " Pro": 1324,
  " gover": 1325,
  "ilar": 1326,
  "ading": 1327,
  "reed": 1328,
  "sequ": 1329,
  "ically": 1330,
  "iqu": 1331,
  " pat": 1332,
  " view": 1333,
  " care": 1334,
  " moment": 1335,
  "28": 1336,
  "29": 1337,
  " thous": 1338,
  " govern": 1339,
  "cr": 1340,
  "ral": 1341,
  " child": 1342,
  " play": 1343,
  " However": 1344,
  "orm": 1345,
  " Com": 1346,
  " Google": 1347,
  "http": 1348,
  " something": 1349,
  " always": 1350,
  "ases": 1351,
  " ext": 1352,
  " come": 1353,
  "ims": 1354,
  " against": 1355,
  "ered": 1356,
  "icular": 1357,
  " back": 1358,
  "aid": 1359,
  "arge": 1360,
  " value": 1361,
  " aut": 1362,
  "acy": 1363,
  "39": 1364,
  " Sapiens": 1365,
  " things": 1366,
  "11": 1367,
  "sw": 1368,
  " must": 1369,
  " less": 1370,
  " Af": 1371,
  " live": 1372,
  "new": 1373,
  " idea": 1374,
  " hand": 1375,
  " happiness": 1376,
  " eth": 1377,
  " mus": 1378,
  "ds": 1379,
  "ges": 1380,
  "rug": 1381,
  " often": 1382,
  "ots": 1383,
  "like": 1384,
  "pan": 1385,
  "ident": 1386,
  " those": 1387,
  " societ": 1388,
  "atic": 1389,
  " enjoy": 1390,
  " University": 1391,
  "gypt": 1392,
  " gener": 1393,
  "aged": 1394,
  " kill": 1395,
  "ense": 1396,
  "ets": 1397,
  " religious": 1398,
  "ccess": 1399,
  "humans": 1400,
  " scientists": 1401,
  "ready": 1402,
  "ute": 1403,
  "ton": 1404,
  " div": 1405,
  "ript": 1406,
  " spec": 1407,
  "ision": 1408,
  "-m": 1409,
  "eth": 1410,
  " discover": 1411,
  "ogn": 1412,
  " pain": 1413,
  "century": 1414,
  "iven": 1415,
  " result": 1416,
  "most": 1417,
  " enough": 1418,
  "den": 1419,
  " ev": 1420,
  " capital": 1421,
  " made": 1422,
  "ara": 1423,
  "ilities": 1424,
  "ank": 1425,
  "ze": 1426,
  "nect": 1427,
  "oph": 1428,
  " decisions": 1429,
  " aw": 1430,
  " before": 1431,
  "ished": 1432,
  " suffer": 1433,
  "ared": 1434,
  " ref": 1435,
  "do": 1436,
  " dom": 1437,
  "ohn": 1438,
  " computer": 1439,
  "havi": 1440,
  " according": 1441,
  " Revolution": 1442,
  " makes": 1443,
  " plan": 1444,
  " needs": 1445,
  " eas": 1446,
  "ulation": 1447,
  " imp": 1448,
  " money": 1449,
  " probably": 1450,
  " American": 1451,
  " help": 1452,
  " hard": 1453,
  " bat": 1454,
  "rong": 1455,
  " belief": 1456,
  " No": 1457,
  " Br": 1458,
  " Ind": 1459,
  " thousands": 1460,
  " course": 1461,
  "xt": 1462,
  " pop": 1463,
  " dist": 1464,
  "ying": 1465,
  " net": 1466,
  "dom": 1467,
  " natural": 1468,
  " ago": 1469,
  " both": 1470,
  "ng": 1471,
  "ricult": 1472,
  "lear": 1473,
  " cooper": 1474,
  "This": 1475,
  "ians": 1476,
  "ited": 1477,
  "ourn": 1478,
  "rel": 1479,
  " mental": 1480,
  " consciousness": 1481,
  "34": 1482,
  ");": 1483,
  " De": 1484,
  "ss": 1485,
  "uge": 1486,
  " dream": 1487,
  " answ": 1488,
  " nothing": 1489,
  " complete": 1490,
  " control": 1491,
  " sold": 1492,
  " mass": 1493,
  "ertain": 1494,
  "—": 1495,
  " fear": 1496,
  " seem": 1497,
  " knowledge": 1498,
  "uals": 1499,
  " economy": 1500,
  "ustom": 1501,
  " vot": 1502,
  "abb": 1503,
  " experim": 1504,
  "rop": 1505,
  "ene": 1506,
  "til": 1507,
  "ering": 1508,
  " trans": 1509,
  " little": 1510,
  "ra": 1511,
  "par": 1512,
  " global": 1513,
  " pred": 1514,
  "sequently": 1515,
  "co": 1516,
  "ann": 1517,
  "ley": 1518,
  "ford": 1519,
  "ik": 1520,
  "ount": 1521,
  " sac": 1522,
  " Christ": 1523,
  "If": 1524,
  " democr": 1525,
  " desires": 1526,
  " cal": 1527,
  " likely": 1528,
  "reasing": 1529,
  "know": 1530,
  " left": 1531,
  " reas": 1532,
  " main": 1533,
  " pass": 1534,
  "experi": 1535,
  "ane": 1536,
  "ones": 1537,
  " par": 1538,
  "stant": 1539,
  "etic": 1540,
  " Tr": 1541,
  "ax": 1542,
  "ournal": 1543,
  "ature": 1544,
  "oice": 1545,
  "ement": 1546,
  "imals": 1547,
  " once": 1548,
  " humanist": 1549,
  "ieth": 1550,
  "ague": 1551,
  "iers": 1552,
  "haps": 1553,
  " dest": 1554,
  "ged": 1555,
  "get": 1556,
  "from": 1557,
  "aus": 1558,
  "ble": 1559,
  "oday": 1560,
  "ox": 1561,
  " body": 1562,
  " least": 1563,
  "ortality": 1564,
  " run": 1565,
  "-b": 1566,
  " thought": 1567,
  "esc": 1568,
  " sapiens": 1569,
  " writ": 1570,
  " interest": 1571,
  " best": 1572,
  " build": 1573,
  " three": 1574,
  " Egypt": 1575,
  "ols": 1576,
  "undred": 1577,
  " countries": 1578,
  " priv": 1579,
  " sup": 1580,
  "ply": 1581,
  " rese": 1582,
  "hip": 1583,
  "rial": 1584,
  "asant": 1585,
  " animal": 1586,
  " intelligence": 1587,
  "have": 1588,
  " set": 1589,
  "eed": 1590,
  " start": 1591,
  " itself": 1592,
  "bec": 1593,
  " Afric": 1594,
  " level": 1595,
  " became": 1596,
  "vious": 1597,
  "aven": 1598,
  " Le": 1599,
  "enth": 1600,
  " particular": 1601,
  " equ": 1602,
  "aving": 1603,
  " market": 1604,
  " bas": 1605,
  " press": 1606,
  "gin": 1607,
  "..": 1608,
  "oh": 1609,
  " narr": 1610,
  " inner": 1611,
  " collect": 1612,
  "au": 1613,
  " lives": 1614,
  " created": 1615,
  " reg": 1616,
  "ential": 1617,
  "enc": 1618,
  "ique": 1619,
  "itive": 1620,
  "aster": 1621,
  " exact": 1622,
  " ass": 1623,
  "rent": 1624,
  " At": 1625,
  "ler": 1626,
  "omen": 1627,
  " ple": 1628,
  "fess": 1629,
  "lev": 1630,
  "-g": 1631,
  "erv": 1632,
  " ethical": 1633,
  "©": 1634,
  "ird": 1635,
  " old": 1636,
  "ung": 1637,
  " read": 1638,
  " job": 1639,
  " surv": 1640,
  " second": 1641,
  " high": 1642,
  " point": 1643,
  "itions": 1644,
  "idd": 1645,
  " religions": 1646,
  "can": 1647,
  "ccording": 1648,
  " upgr": 1649,
  "21": 1650,
  " bioc": 1651,
  " John": 1652,
  " sensations": 1653,
  "aut": 1654,
  " information": 1655,
  " Bible": 1656,
  " dog": 1657,
  "-s": 1658,
  " move": 1659,
  " liberalism": 1660,
  " next": 1661,
  "wards": 1662,
  " People": 1663,
  "cul": 1664,
  "ron": 1665,
  "ided": 1666,
  "198": 1667,
  " yet": 1668,
  " past": 1669,
  " test": 1670,
  " already": 1671,
  "ource": 1672,
  " change": 1673,
  " matter": 1674,
  "vers": 1675,
  " emotions": 1676,
  " Dataism": 1677,
  " ep": 1678,
  "reak": 1679,
  "fin": 1680,
  "ek": 1681,
  "people": 1682,
  " dev": 1683,
  " US": 1684,
  " netw": 1685,
  "ieve": 1686,
  " allow": 1687,
  "econom": 1688,
  " fore": 1689,
  "oose": 1690,
  " pries": 1691,
  " fun": 1692,
  " pur": 1693,
  "produ": 1694,
  " chang": 1695,
  ".,": 1696,
  "ieval": 1697,
  " dise": 1698,
  "echnology": 1699,
  " add": 1700,
  " blood": 1701,
  " place": 1702,
  "come": 1703,
  " Even": 1704,
  "inese": 1705,
  " Mar": 1706,
  " began": 1707,
  "ified": 1708,
  " stop": 1709,
  "ths": 1710,
  "iddle": 1711,
  " success": 1712,
  " gu": 1713,
  " contrast": 1714,
  "inary": 1715,
  " field": 1716,
  "man": 1717,
  "ides": 1718,
  " trad": 1719,
  "?’": 1720,
  " step": 1721,
  " cur": 1722,
  "ivity": 1723,
  "itional": 1724,
  "ape": 1725,
  "process": 1726,
  " Sh": 1727,
  "irit": 1728,
  " et": 1729,
  "ements": 1730,
  "enn": 1731,
  "ross": 1732,
  "med": 1733,
  " completely": 1734,
  "aced": 1735,
  " prom": 1736,
  "ains": 1737,
  "go": 1738,
  " number": 1739,
  "197": 1740,
  "ators": 1741,
  "ival": 1742,
  " didn": 1743,
  " mem": 1744,
  " medic": 1745,
  "fic": 1746,
  " heart": 1747,
  " dep": 1748,
  " present": 1749,
  " hold": 1750,
  " kind": 1751,
  " lear": 1752,
  " ec": 1753,
  "iverse": 1754,
  " here": 1755,
  "!’": 1756,
  " wrong": 1757,
  "aren": 1758,
  " mar": 1759,
  " love": 1760,
  " create": 1761,
  " since": 1762,
  " story": 1763,
  " pig": 1764,
  " Har": 1765,
  " invent": 1766,
  "cont": 1767,
  " age": 1768,
  "ises": 1769,
  " repl": 1770,
  "ention": 1771,
  " Se": 1772,
  " government": 1773,
  " around": 1774,
  "erous": 1775,
  "deed": 1776,
  " whereas": 1777,
  "90": 1778,
  "ours": 1779,
  " doctors": 1780,
  " pati": 1781,
  "abl": 1782,
  "imate": 1783,
  " Germ": 1784,
  "ricultural": 1785,
  "uss": 1786,
  "str": 1787,
  " That": 1788,
  " connect": 1789,
  "algorith": 1790,
  "ubjective": 1791,
  "ondon": 1792,
  " Im": 1793,
  " famine": 1794,
  " actually": 1795,
  " $": 1796,
  "isf": 1797,
  " book": 1798,
  "land": 1799,
  " increasing": 1800,
  " certain": 1801,
  " earth": 1802,
  "alk": 1803,
  "50": 1804,
  "els": 1805,
  ".—": 1806,
  " either": 1807,
  " unique": 1808,
  " Just": 1809,
  " threat": 1810,
  " exactly": 1811,
  "ads": 1812,
  "iec": 1813,
  " relations": 1814,
  "ecess": 1815,
  "What": 1816,
  "ends": 1817,
  " longer": 1818,
  "ony": 1819,
  " cult": 1820,
  " thing": 1821,
  "Human": 1822,
  "irect": 1823,
  "imal": 1824,
  "reedom": 1825,
  "ificial": 1826,
  " pract": 1827,
  " jud": 1828,
  " bad": 1829,
  " question": 1830,
  " twentieth": 1831,
  " China": 1832,
  "utions": 1833,
  " decades": 1834,
  " food": 1835,
  "eds": 1836,
  " days": 1837,
  " hundred": 1838,
  " expect": 1839,
  " billion": 1840,
  " adv": 1841,
  " sw": 1842,
  "lam": 1843,
  "ouse": 1844,
  "ps": 1845,
  "uries": 1846,
  "ublic": 1847,
  "atisf": 1848,
  " react": 1849,
  "you": 1850,
  "Ch": 1851,
  "ailed": 1852,
  "econd": 1853,
  " reason": 1854,
  " Why": 1855,
  "org": 1856,
  " mach": 1857,
  " determ": 1858,
  " biochemical": 1859,
  "ters": 1860,
  " minds": 1861,
  "araoh": 1862,
  "tic": 1863,
  "idge": 1864,
  "-century": 1865,
  " list": 1866,
  " sol": 1867,
  " early": 1868,
  " though": 1869,
  " perhaps": 1870,
  "uck": 1871,
  "they": 1872,
  " Chinese": 1873,
  "100": 1874,
  "aves": 1875,
  "191": 1876,
  " lab": 1877,
  "ination": 1878,
  " non": 1879,
  "des": 1880,
  " deal": 1881,
  " fight": 1882,
  " research": 1883,
  "isms": 1884,
  " invest": 1885,
  " individuals": 1886,
  " Sim": 1887,
  "aces": 1888,
  " states": 1889,
  " choose": 1890,
  " common": 1891,
  "aph": 1892,
  " genetic": 1893,
  " stat": 1894,
  " truth": 1895,
  " pay": 1896,
  " All": 1897,
  "ustrial": 1898,
  " computers": 1899,
  " subjective": 1900,
  "NA": 1901,
  "icate": 1902,
  " bab": 1903,
  "oices": 1904,
  "oly": 1905,
  " Science": 1906,
  "ari": 1907,
  "oub": 1908,
  "ooks": 1909,
  " took": 1910,
  " caus": 1911,
  " Em": 1912,
  "than": 1913,
  "ames": 1914,
  " psych": 1915,
  "ficult": 1916,
  " state": 1917,
  " source": 1918,
  "ned": 1919,
  "ired": 1920,
  " fin": 1921,
  " project": 1922,
  "xford": 1923,
  "eng": 1924,
  "pose": 1925,
  "ocus": 1926,
  " produce": 1927,
  " everything": 1928,
  " pap": 1929,
  "htm": 1930,
  " History": 1931,
  " ey": 1932,
  "osm": 1933,
  " terr": 1934,
  "ilit": 1935,
  "them": 1936,
  "ived": 1937,
  " bus": 1938,
  " anything": 1939,
  " After": 1940,
  "oid": 1941,
  "establ": 1942,
  "flu": 1943,
  " peace": 1944,
  "icians": 1945,
  "orn": 1946,
  " said": 1947,
  " knows": 1948,
  "empt": 1949,
  " laws": 1950,
  "ery": 1951,
  "hers": 1952,
  "ights": 1953,
  " custom": 1954,
  " begin": 1955,
  "lection": 1956,
  " conscious": 1957,
  " Ag": 1958,
  "idem": 1959,
  "owers": 1960,
  " technology": 1961,
  " living": 1962,
  "une": 1963,
  " poor": 1964,
  " quick": 1965,
  " predict": 1966,
  "world": 1967,
  "eenth": 1968,
  "-d": 1969,
  " believed": 1970,
  "agn": 1971,
  " Or": 1972,
  "ify": 1973,
  "let": 1974,
  " means": 1975,
  " domin": 1976,
  " large": 1977,
  " existence": 1978,
  "istic": 1979,
  " found": 1980,
  "ana": 1981,
  "ethod": 1982,
  "volved": 1983,
  " neur": 1984,
  " open": 1985,
  "istor": 1986,
  "bel": 1987,
  "ams": 1988,
  "perior": 1989,
  " narrating": 1990,
  ".htm": 1991,
  " Sp": 1992,
  "bs": 1993,
  " contin": 1994,
  " die": 1995,
  " cosm": 1996,
  " Rather": 1997,
  " rob": 1998,
  "rific": 1999,
  " treat": 2000,
  " Bl": 2001,
  "gress": 2002,
  " cond": 2003,
  " Intern": 2004,
  "their": 2005,
  " rest": 2006,
  " corpor": 2007,
  "iles": 2008,
  "under": 2009,
  " Humans": 2010,
  "ears": 2011,
  " eternal": 2012,
  " accept": 2013,
  " form": 2014,
  " rul": 2015,
  "utes": 2016,
  " big": 2017,
  " being": 2018,
  "ote": 2019,
  " lawn": 2020,
  " Q": 2021,
  " theory": 2022,
  "processing": 2023,
  "ambr": 2024,
  "ambridge": 2025,
  "To": 2026,
  " lim": 2027,
  "We": 2028,
  "ched": 2029,
  " given": 2030,
  "reme": 2031,
  " biological": 2032,
  " provide": 2033,
  " isn": 2034,
  " problem": 2035,
  "ving": 2036,
  "hereas": 2037,
  " rats": 2038,
  " nor": 2039,
  " loc": 2040,
  "lud": 2041,
  " vis": 2042,
  " children": 2043,
  "ky": 2044,
  "there": 2045,
  "iot": 2046,
  " pot": 2047,
  " times": 2048,
  " phys": 2049,
  " difficult": 2050,
  "how": 2051,
  " app": 2052,
  "min": 2053,
  "ternative": 2054,
  " possible": 2055,
  "tw": 2056,
  " says": 2057,
  " rabb": 2058,
  "inter": 2059,
  "ending": 2060,
  "When": 2061,
  "suit": 2062,
  " study": 2063,
  "irth": 2064,
  "comput": 2065,
  " yourself": 2066,
  " mamm": 2067,
  " pharaoh": 2068,
  "avid": 2069,
  ".html": 2070,
  " Rel": 2071,
  "\n\n\n\n\n\n\n\n": 2072,
  " There": 2073,
  "Yet": 2074,
  "rew": 2075,
  " soldiers": 2076,
  " towards": 2077,
  " sever": 2078,
  "crib": 2079,
  "aly": 2080,
  "inet": 2081,
  " instead": 2082,
  " er": 2083,
  "yond": 2084,
  " includ": 2085,
  " ach": 2086,
  " nobody": 2087,
  "pass": 2088,
  " mere": 2089,
  " revolution": 2090,
  " therefore": 2091,
  "itiz": 2092,
  "ider": 2093,
  " Today": 2094,
  "elt": 2095,
  " keep": 2096,
  " scho": 2097,
  "happ": 2098,
  "impan": 2099,
  "impanze": 2100,
  "ym": 2101,
  " asked": 2102,
  " focus": 2103,
  " numbers": 2104,
  " argue": 2105,
  " ele": 2106,
  " emp": 2107,
  " stories": 2108,
  "aug": 2109,
  "right": 2110,
  "For": 2111,
  "verage": 2112,
  "omes": 2113,
  " water": 2114,
  " mor": 2115,
  " almost": 2116,
  " politics": 2117,
  " country": 2118,
  " coll": 2119,
  " European": 2120,
  "However": 2121,
  "pite": 2122,
  "full": 2123,
  "hel": 2124,
  " societies": 2125,
  " Inst": 2126,
  "ener": 2127,
  " impl": 2128,
  " account": 2129,
  " conf": 2130,
  " Islam": 2131,
  " Christian": 2132,
  "cript": 2133,
  "pres": 2134,
  "olic": 2135,
  "ples": 2136,
  "ext": 2137,
  "reg": 2138,
  "yn": 2139,
  " national": 2140,
  "xual": 2141,
  "195": 2142,
  "oon": 2143,
  " similar": 2144,
  " stand": 2145,
  "ma": 2146,
  " DNA": 2147,
  " abilities": 2148,
  " shap": 2149,
  " farm": 2150,
  " evolutionary": 2151,
  "conscious": 2152,
  "iberal": 2153,
  " problems": 2154,
  " plague": 2155,
  "iol": 2156,
  "roll": 2157,
  "allen": 2158,
  " ourselves": 2159,
  "ented": 2160,
  " going": 2161,
  "aim": 2162,
  " vill": 2163,
  " buy": 2164,
  "ingdom": 2165,
  " rich": 2166,
  "nce": 2167,
  "-c": 2168,
  " spread": 2169,
  " ten": 2170,
  " imagine": 2171,
  " event": 2172,
  "ash": 2173,
  "aken": 2174,
  " home": 2175,
  "uary": 2176,
  "change": 2177,
  " Scient": 2178,
  " piec": 2179,
  " conqu": 2180,
  "orks": 2181,
  "atch": 2182,
  " show": 2183,
  " wis": 2184,
  " immortality": 2185,
  " aim": 2186,
  " universe": 2187,
  "lobal": 2188,
  " heaven": 2189,
  " fund": 2190,
  "angu": 2191,
  " hands": 2192,
  "asure": 2193,
  "ilos": 2194,
  " traditional": 2195,
  " gave": 2196,
  " leg": 2197,
  " method": 2198,
  " class": 2199,
  " mist": 2200,
  "humanism": 2201,
  " Journal": 2202,
  "isp": 2203,
  " Psych": 2204,
  "33": 2205,
  " humanity": 2206,
  " answer": 2207,
  "ued": 2208,
  " Most": 2209,
  " managed": 2210,
  " killed": 2211,
  " full": 2212,
  " extreme": 2213,
  " France": 2214,
  " feels": 2215,
  " che": 2216,
  " Since": 2217,
  "alf": 2218,
  "illion": 2219,
  " centuries": 2220,
  "anuary": 2221,
  "organ": 2222,
  "ev": 2223,
  " serv": 2224,
  "every": 2225,
  " battle": 2226,
  " head": 2227,
  "ging": 2228,
  " else": 2229,
  "ologies": 2230,
  " Indeed": 2231,
  " direct": 2232,
  "reen": 2233,
  "hemat": 2234,
  "erspect": 2235,
  " hunter": 2236,
  " Cl": 2237,
  " hardly": 2238,
  " experiment": 2239,
  "arents": 2240,
  " obs": 2241,
  "eb": 2242,
  "rum": 2243,
  " fri": 2244,
  " Mus": 2245,
  " superior": 2246,
  " pigs": 2247,
  " Do": 2248,
  "98": 2249,
  "ief": 2250,
  "Con": 2251,
  "igion": 2252,
  "awn": 2253,
  "ret": 2254,
  " ang": 2255,
  "system": 2256,
  " family": 2257,
  " medieval": 2258,
  " bo": 2259,
  " following": 2260,
  " Pr": 2261,
  " told": 2262,
  "ped": 2263,
  "¬": 2264,
  "sp": 2265,
  " dead": 2266,
  " bod": 2267,
  "iting": 2268,
  " until": 2269,
  " called": 2270,
  " medicine": 2271,
  "cer": 2272,
  " able": 2273,
  "ales": 2274,
  "ously": 2275,
  " citiz": 2276,
  " Age": 2277,
  " private": 2278,
  " powerful": 2279,
  " ability": 2280,
  " necess": 2281,
  " Sov": 2282,
  " enc": 2283,
  " prot": 2284,
  "will": 2285,
  " sacred": 2286,
  "iam": 2287,
  " try": 2288,
  " used": 2289,
  " engineering": 2290,
  " struct": 2291,
  " flow": 2292,
  "-gather": 2293,
  "It": 2294,
  "feel": 2295,
  "imul": 2296,
  " Hence": 2297,
  " divine": 2298,
  "through": 2299,
  " These": 2300,
  " making": 2301,
  "haviour": 2302,
  "ologists": 2303,
  " understanding": 2304,
  "which": 2305,
  "rees": 2306,
  " Roman": 2307,
  " music": 2308,
  "57": 2309,
  " creation": 2310,
  " Ph": 2311,
  " third": 2312,
  "And": 2313,
  "umb": 2314,
  "ried": 2315,
  " lo": 2316,
  " died": 2317,
  " eat": 2318,
  " ill": 2319,
  " reach": 2320,
  "iny": 2321,
  " May": 2322,
  "some": 2323,
  "met": 2324,
  " Middle": 2325,
  "dec": 2326,
  "acc": 2327,
  " vict": 2328,
  "ster": 2329,
  " simply": 2330,
  "olars": 2331,
  "icro": 2332,
  "ffect": 2333,
  " whole": 2334,
  " ord": 2335,
  "ased": 2336,
  "anda": 2337,
  "ails": 2338,
  " put": 2339,
  " log": 2340,
  " cause": 2341,
  " pos": 2342,
  "ergy": 2343,
  " politicians": 2344,
  " mis": 2345,
  "inc": 2346,
  "view": 2347,
  "ciences": 2348,
  " society": 2349,
  "because": 2350,
  "-p": 2351,
  " young": 2352,
  " establ": 2353,
  "market": 2354,
  " systems": 2355,
  " educ": 2356,
  " calcul": 2357,
  " electric": 2358,
  " rights": 2359,
  " beings": 2360,
  " According": 2361,
  " Don": 2362,
  "ush": 2363,
  " Man": 2364,
  " artificial": 2365,
  " function": 2366,
  " fict": 2367,
  " Ne": 2368,
  "ibl": 2369,
  "book": 2370,
  " emotional": 2371,
  " mother": 2372,
  " complex": 2373,
  "asants": 2374,
  " Jew": 2375,
  " chick": 2376,
  "inct": 2377,
  "estern": 2378,
  " spirit": 2379,
  " offer": 2380,
  "-to": 2381,
  " Soviet": 2382,
  " David": 2383,
  " Brain": 2384,
  " Me": 2385,
  " prop": 2386,
  " nature": 2387,
  " short": 2388,
  " indeed": 2389,
  " infect": 2390,
  "more": 2391,
  " doub": 2392,
  " sent": 2393,
  " technological": 2394,
  "about": 2395,
  " rout": 2396,
  " record": 2397,
  " fall": 2398,
  " vir": 2399,
  " men": 2400,
  " came": 2401,
  "iti": 2402,
  "40": 2403,
  "-t": 2404,
  " achieve": 2405,
  "was": 2406,
  " others": 2407,
  "ump": 2408,
  " def": 2409,
  "edi": 2410,
  " mater": 2411,
  "field": 2412,
  " fields": 2413,
  " Instead": 2414,
  " cy": 2415,
  " adop": 2416,
  " suffering": 2417,
  " planet": 2418,
  " satisf": 2419,
  " happy": 2420,
  " constant": 2421,
  "pression": 2422,
  " brains": 2423,
  "hips": 2424,
  " ninet": 2425,
  " wol": 2426,
  "erve": 2427,
  " strong": 2428,
  " Z": 2429,
  "outh": 2430,
  "encing": 2431,
  "-l": 2432,
  "ha": 2433,
  " conv": 2434,
  " neurons": 2435,
  " sound": 2436,
  " del": 2437,
  "arl": 2438,
  " species": 2439,
  " beaut": 2440,
  "ened": 2441,
  " ign": 2442,
  " His": 2443,
  "earch": 2444,
  " grou": 2445,
  " entities": 2446,
  " Animals": 2447,
  " script": 2448,
  "anguage": 2449,
  " cooperation": 2450,
  "ugust": 2451,
  " factual": 2452,
  " judg": 2453,
  "news": 2454,
  "who": 2455,
  "isation": 2456,
  " usually": 2457,
  " confl": 2458,
  " attention": 2459,
  " powers": 2460,
  " To": 2461,
  "bet": 2462,
  " four": 2463,
  " Aust": 2464,
  "ighb": 2465,
  " With": 2466,
  " later": 2467,
  "idence": 2468,
  " ant": 2469,
  " inf": 2470,
  " mut": 2471,
  "fully": 2472,
  " dang": 2473,
  "oms": 2474,
  " citizens": 2475,
  " nations": 2476,
  " product": 2477,
  " corporations": 2478,
  " soon": 2479,
  "aun": 2480,
  " ess": 2481,
  " clear": 2482,
  " priests": 2483,
  "io": 2484,
  " ideas": 2485,
  " theories": 2486,
  " takes": 2487,
  "even": 2488,
  "dis": 2489,
  "commun": 2490,
  " tax": 2491,
  " deep": 2492,
  " freedom": 2493,
  " minutes": 2494,
  "duct": 2495,
  "iffer": 2496,
  " prin": 2497,
  "udd": 2498,
  " external": 2499,
  " eleph": 2500,
  "ately": 2501,
  " questions": 2502,
  "levant": 2503,
  "bl": 2504,
  " explain": 2505,
  "As": 2506,
  "mun": 2507,
  " Musl": 2508,
  " reflect": 2509,
  " name": 2510,
  "roc": 2511,
  "algorithms": 2512,
  " fir": 2513,
  "aff": 2514,
  " activ": 2515,
  " Res": 2516,
  "experiences": 2517,
  "-processing": 2518,
  " Pope": 2519,
  "-w": 2520,
  " Ste": 2521,
  " Cort": 2522,
  " .": 2523,
  "part": 2524,
  " huge": 2525,
  " di": 2526,
  " concl": 2527,
  " diseases": 2528,
  "preced": 2529,
  "precedented": 2530,
  " wars": 2531,
  " recent": 2532,
  " lived": 2533,
  " bit": 2534,
  " previous": 2535,
  " lost": 2536,
  " ste": 2537,
  "vis": 2538,
  " path": 2539,
  " Fl": 2540,
  " central": 2541,
  " army": 2542,
  " alone": 2543,
  " eventually": 2544,
  "ached": 2545,
  " including": 2546,
  " Brit": 2547,
  " ty": 2548,
  " ident": 2549,
  " hop": 2550,
  " Some": 2551,
  " sense": 2552,
  " Images": 2553,
  " felt": 2554,
  " fur": 2555,
  " energy": 2556,
  " Gr": 2557,
  "indu": 2558,
  " away": 2559,
  " easy": 2560,
  "science": 2561,
  "aste": 2562,
  "ucr": 2563,
  "fort": 2564,
  "ountain": 2565,
  " remember": 2566,
  " drug": 2567,
  "aded": 2568,
  " Internet": 2569,
  " var": 2570,
  "would": 2571,
  " listen": 2572,
  " valu": 2573,
  " compos": 2574,
  " processing": 2575,
  "access": 2576,
  "havior": 2577,
  "60": 2578,
  "ersubjective": 2579,
  " Bat": 2580,
  "hentic": 2581,
  "192": 2582,
  "orat": 2583,
  " Not": 2584,
  "ium": 2585,
  "exam": 2586,
  " tools": 2587,
  " epidem": 2588,
  "ceed": 2589,
  " average": 2590,
  " milit": 2591,
  " healthy": 2592,
  "illions": 2593,
  " Africa": 2594,
  " conc": 2595,
  " collective": 2596,
  " impact": 2597,
  " pric": 2598,
  " fast": 2599,
  " exc": 2600,
  "af": 2601,
  " separ": 2602,
  " Though": 2603,
  "health": 2604,
  "aris": 2605,
  " eight": 2606,
  "but": 2607,
  " One": 2608,
  " among": 2609,
  " En": 2610,
  " half": 2611,
  " January": 2612,
  " tens": 2613,
  " potential": 2614,
  " ra": 2615,
  " progress": 2616,
  " thereby": 2617,
  " Consequently": 2618,
  " ways": 2619,
  "So": 2620,
  " report": 2621,
  "avour": 2622,
  "ables": 2623,
  " disapp": 2624,
  "anted": 2625,
  " bro": 2626,
  "ability": 2627,
  "fact": 2628,
  " billions": 2629,
  "oot": 2630,
  " break": 2631,
  "only": 2632,
  " fa": 2633,
  "olitical": 2634,
  " bank": 2635,
  " above": 2636,
  "anct": 2637,
  " Med": 2638,
  " special": 2639,
  " doctor": 2640,
  "ander": 2641,
  " av": 2642,
  " dreams": 2643,
  " mod": 2644,
  " current": 2645,
  " chimpanze": 2646,
  "artment": 2647,
  "rease": 2648,
  " cars": 2649,
  "evolution": 2650,
  " selection": 2651,
  " requ": 2652,
  "iblical": 2653,
  " decide": 2654,
  "urch": 2655,
  " peasants": 2656,
  "fessor": 2657,
  " paper": 2658,
  "ploy": 2659,
  "consciousness": 2660,
  " rat": 2661,
  " Social": 2662,
  " voice": 2663,
  " democracy": 2664,
  " practical": 2665,
  " August": 2666,
  "43": 2667,
  " Cont": 2668,
  " Great": 2669,
  " India": 2670,
  " count": 2671,
  " cosmic": 2672,
  " lif": 2673,
  " hor": 2674,
  " destro": 2675,
  " exp": 2676,
  " occ": 2677,
  "aries": 2678,
  " ve": 2679,
  "likely": 2680,
  "ills": 2681,
  "ino": 2682,
  " ce": 2683,
  " beyond": 2684,
  " taken": 2685,
  " famil": 2686,
  " Val": 2687,
  " effici": 2688,
  " growing": 2689,
  "196": 2690,
  "aj": 2691,
  " happened": 2692,
  " conditions": 2693,
  " tem": 2694,
  "vir": 2695,
  "ulate": 2696,
  "pons": 2697,
  " publ": 2698,
  " serious": 2699,
  " networks": 2700,
  " using": 2701,
  " sit": 2702,
  "che": 2703,
  " comes": 2704,
  " sacrific": 2705,
  "De": 2706,
  " scholars": 2707,
  "oint": 2708,
  "ball": 2709,
  " prefer": 2710,
  " bliss": 2711,
  " parad": 2712,
  " philos": 2713,
  "ilt": 2714,
  "urea": 2715,
  "ureaucr": 2716,
  "igin": 2717,
  " sure": 2718,
  " democratic": 2719,
  " determine": 2720,
  " actions": 2721,
  " experiments": 2722,
  "animals": 2723,
  " stimul": 2724,
  " evolved": 2725,
  "ophist": 2726,
  "ophisticated": 2727,
  " Pl": 2728,
  "-and": 2729,
  "avel": 2730,
  "uk": 2731,
  "...": 2732,
  " production": 2733,
  "computer": 2734,
  " histor": 2735,
  "col": 2736,
  " Ad": 2737,
  " exchange": 2738,
  " Are": 2739,
  " tea": 2740,
  "atson": 2741,
  " cred": 2742,
  " London": 2743,
  "-of": 2744,
  " Qu": 2745,
  " Nature": 2746,
  "ingly": 2747,
  " i": 2748,
  " Modern": 2749,
  "Com": 2750,
  " \n\n\n\n\n": 2751,
  " face": 2752,
  "itutions": 2753,
  " forces": 2754,
  " replace": 2755,
  " easily": 2756,
  " lack": 2757,
  "ume": 2758,
  "ches": 2759,
  " kingdom": 2760,
  " King": 2761,
  "estors": 2762,
  " knew": 2763,
  " parts": 2764,
  " overcome": 2765,
  " effort": 2766,
  " hundreds": 2767,
  " sug": 2768,
  " during": 2769,
  " Tw": 2770,
  " mer": 2771,
  " fle": 2772,
  "orth": 2773,
  " Eng": 2774,
  " local": 2775,
  " African": 2776,
  "ula": 2777,
  " bodies": 2778,
  "posed": 2779,
  "70": 2780,
  "side": 2781,
  " network": 2782,
  "ibiot": 2783,
  "theless": 2784,
  " cancer": 2785,
  " turned": 2786,
  " ann": 2787,
  "ances": 2788,
  "194": 2789,
  " however": 2790,
  "97": 2791,
  " cap": 2792,
  " greater": 2793,
  " wild": 2794,
  "acks": 2795,
  " challen": 2796,
  " novel": 2797,
  " hope": 2798,
  " survival": 2799,
  " worth": 2800,
  " sanct": 2801,
  ",’": 2802,
  "You": 2803,
  " whose": 2804,
  " several": 2805,
  " writing": 2806,
  " upgrade": 2807,
  "super": 2808,
  " revol": 2809,
  " El": 2810,
  "rem": 2811,
  " customers": 2812,
  " ir": 2813,
  " went": 2814,
  "apan": 2815,
  " mathemat": 2816,
  " birth": 2817,
  " Sw": 2818,
  " recogn": 2819,
  "your": 2820,
  " vol": 2821,
  " Ber": 2822,
  " parents": 2823,
  "ison": 2824,
  "ole": 2825,
  " princi": 2826,
  "while": 2827,
  "alys": 2828,
  " beh": 2829,
  " lead": 2830,
  "acebook": 2831,
  " happens": 2832,
  " ris": 2833,
  "just": 2834,
  "time": 2835,
  "St": 2836,
  " Oxford": 2837,
  " II": 2838,
  " lion": 2839,
  " myth": 2840,
  " cooperate": 2841,
  " Union": 2842,
  "uda": 2843,
  " activities": 2844,
  " himself": 2845,
  "32": 2846,
  "icles": 2847,
  "ognitive": 2848,
  "§": 2849,
  " authentic": 2850,
  " Cortana": 2851,
  " teac": 2852,
  "ocene": 2853,
  "aning": 2854,
  " viol": 2855,
  " Many": 2856,
  "God": 2857,
  "ission": 2858,
  "ola": 2859,
  " ur": 2860,
  "iding": 2861,
  "Be": 2862,
  " population": 2863,
  "ounts": 2864,
  " ru": 2865,
  " wonder": 2866,
  "enced": 2867,
  " Our": 2868,
  "this": 2869,
  " caused": 2870,
  " quickly": 2871,
  "acter": 2872,
  " arm": 2873,
  " Austral": 2874,
  "known": 2875,
  "atives": 2876,
  " along": 2877,
  " neighb": 2878,
  " squ": 2879,
  " anyone": 2880,
  "ptember": 2881,
  "ober": 2882,
  "ai": 2883,
  "itors": 2884,
  " East": 2885,
  " First": 2886,
  " hence": 2887,
  "hood": 2888,
  " hell": 2889,
  " developed": 2890,
  " deb": 2891,
  " perfect": 2892,
  "mit": 2893,
  " game": 2894,
  " rad": 2895,
  "rugg": 2896,
  "aneously": 2897,
  " alternative": 2898,
  "80": 2899,
  " lot": 2900,
  "antas": 2901,
  "such": 2902,
  "fare": 2903,
  "arily": 2904,
  "osc": 2905,
  "ok": 2906,
  "amental": 2907,
  " protect": 2908,
  "arg": 2909,
  " having": 2910,
  " Christianity": 2911,
  " Hindu": 2912,
  " fate": 2913,
  "life": 2914,
  " woman": 2915,
  " sciences": 2916,
  " influ": 2917,
  " maintain": 2918,
  "150": 2919,
  " technologies": 2920,
  " ret": 2921,
  " thoughts": 2922,
  " har": 2923,
  "pire": 2924,
  "economic": 2925,
  "echan": 2926,
  " women": 2927,
  "valu": 2928,
  "ilarly": 2929,
  "production": 2930,
  " genes": 2931,
  "ids": 2932,
  " lose": 2933,
  "55": 2934,
  "elligent": 2935,
  "-day": 2936,
  " design": 2937,
  " capitalism": 2938,
  "But": 2939,
  "ebru": 2940,
  "ebruary": 2941,
  "ny": 2942,
  " choices": 2943,
  " Marx": 2944,
  " changed": 2945,
  " aware": 2946,
  " repe": 2947,
  "aze": 2948,
  "esticated": 2949,
  " web": 2950,
  " Western": 2951,
  " Evolution": 2952,
  " side": 2953,
  " bond": 2954,
  " feeling": 2955,
  "icle": 2956,
  " language": 2957,
  " communism": 2958,
  "46": 2959,
  "brain": 2960,
  " support": 2961,
  "ument": 2962,
  " Animal": 2963,
  "eau": 2964,
  "zan": 2965,
  "31": 2966,
  "stantine": 2967,
  "pd": 2968,
  " Times": 2969,
  "opy": 2970,
  "formed": 2971,
  " Like": 2972,
  "sper": 2973,
  "otechnology": 2974,
  " extremely": 2975,
  " line": 2976,
  "utrit": 2977,
  " slow": 2978,
  "rict": 2979,
  " bread": 2980,
  "ests": 2981,
  "osing": 2982,
  " increasingly": 2983,
  " cat": 2984,
  " possess": 2985,
  " flood": 2986,
  " numerous": 2987,
  " steam": 2988,
  " tiny": 2989,
  "On": 2990,
  " got": 2991,
  " emer": 2992,
  "Even": 2993,
  " patients": 2994,
  "osp": 2995,
  "ibly": 2996,
  " wa": 2997,
  " chance": 2998,
  "experience": 2999,
  " organic": 3000,
  " z": 3001,
  "aining": 3002,
  " defe": 3003,
  " Germany": 3004,
  " material": 3005,
  " sil": 3006,
  " gi": 3007,
  " abs": 3008,
  "overn": 3009,
  " failed": 3010,
  " logic": 3011,
  " mess": 3012,
  " initi": 3013,
  " further": 3014,
  "ming": 3015,
  " technical": 3016,
  "gen": 3017,
  " Thus": 3018,
  " spe": 3019,
  "ship": 3020,
  "ont": 3021,
  "ards": 3022,
  " appro": 3023,
  " Cath": 3024,
  "line": 3025,
  " chimpanzees": 3026,
  " attempt": 3027,
  " seems": 3028,
  "writ": 3029,
  " Ep": 3030,
  " pursuit": 3031,
  " Jer": 3032,
  " nineteenth": 3033,
  " nation": 3034,
  " oper": 3035,
  "anks": 3036,
  "erspective": 3037,
  "arian": 3038,
  " objective": 3039,
  "istry": 3040,
  "sens": 3041,
  "ourne": 3042,
  "order": 3043,
  "ciety": 3044,
  "borg": 3045,
  " kn": 3046,
  " signals": 3047,
  " tou": 3048,
  " biblical": 3049,
  " father": 3050,
  "iar": 3051,
  "iful": 3052,
  " becomes": 3053,
  " baby": 3054,
  " shaped": 3055,
  " behaviour": 3056,
  "ulf": 3057,
  " organisms": 3058,
  " toget": 3059,
  " together": 3060,
  "itor": 3061,
  "Un": 3062,
  " spiritual": 3063,
  " progr": 3064,
  "-re": 3065,
  "uly": 3066,
  "yr": 3067,
  " intersubjective": 3068,
  " valuable": 3069,
  " June": 3070,
  " students": 3071,
  " techno": 3072,
  "”": 3073,
  "accessed": 3074,
  "well": 3075,
  "ee": 3076,
  "real": 3077,
  "break": 3078,
  " somebody": 3079,
  " commit": 3080,
  " terror": 3081,
  "att": 3082,
  "idents": 3083,
  "power": 3084,
  " words": 3085,
  " let": 3086,
  " hunger": 3087,
  "ulations": 3088,
  "illed": 3089,
  " som": 3090,
  " char": 3091,
  "abit": 3092,
  " anc": 3093,
  " business": 3094,
  " certainly": 3095,
  "anced": 3096,
  " experts": 3097,
  " offici": 3098,
  " officials": 3099,
  " disease": 3100,
  " rate": 3101,
  " medical": 3102,
  " patient": 3103,
  " despite": 3104,
  " effect": 3105,
  "what": 3106,
  " race": 3107,
  "porary": 3108,
  " appear": 3109,
  " published": 3110,
  "uclear": 3111,
  " fantas": 3112,
  " rise": 3113,
  " giving": 3114,
  "etty": 3115,
  " spect": 3116,
  " inside": 3117,
  "elled": 3118,
  "henomen": 3119,
  " merely": 3120,
  " action": 3121,
  "inity": 3122,
  " Every": 3123,
  " Second": 3124,
  " autom": 3125,
  "Google": 3126,
  " explained": 3127,
  "According": 3128,
  " rece": 3129,
  " learn": 3130,
  "when": 3131,
  " sometimes": 3132,
  " processes": 3133,
  " gives": 3134,
  "-n": 3135,
  " increase": 3136,
  " Japan": 3137,
  " needed": 3138,
  " ens": 3139,
  " States": 3140,
  "rucial": 3141,
  " diss": 3142,
  "eterm": 3143,
  "apse": 3144,
  " experiencing": 3145,
  " conduct": 3146,
  " games": 3147,
  " manip": 3148,
  "orders": 3149,
  "arp": 3150,
  " sophisticated": 3151,
  "airs": 3152,
  "44": 3153,
  " Facebook": 3154,
  " industrial": 3155,
  "iter": 3156,
  " norm": 3157,
  "test": 3158,
  " communist": 3159,
  " Stud": 3160,
  "ogr": 3161,
  "cha": 3162,
  " Agricultural": 3163,
  "ilk": 3164,
  "Ex": 3165,
  " machine": 3166,
  " credit": 3167,
  "individ": 3168,
  "uff": 3169,
  "escu": 3170,
  " Battle": 3171,
  " Rich": 3172,
  " vote": 3173,
  "pdf": 3174,
  "/g": 3175,
  "Cambridge": 3176,
  "271": 3177,
  "275": 3178,
  " Anth": 3179,
  " ©": 3180,
  " eyes": 3181,
  " across": 3182,
  " rare": 3183,
  " doing": 3184,
  "Well": 3185,
  " works": 3186,
  "Hence": 3187,
  " da": 3188,
  "icts": 3189,
  " bring": 3190,
  "ID": 3191,
  " village": 3192,
  " destroy": 3193,
  "rench": 3194,
  " cows": 3195,
  " throughout": 3196,
  " survive": 3197,
  "ossible": 3198,
  "ancy": 3199,
  "urity": 3200,
  " sal": 3201,
  "acle": 3202,
  " masses": 3203,
  "denly": 3204,
  "75": 3205,
  " Ex": 3206,
  "ico": 3207,
  "gu": 3208,
  " bom": 3209,
  "sm": 3210,
  " USA": 3211,
  "ether": 3212,
  "Al": 3213,
  " impro": 3214,
  " Health": 3215,
  "ency": 3216,
  " physical": 3217,
  " strugg": 3218,
  " immedi": 3219,
  "ese": 3220,
  "action": 3221,
  " Now": 3222,
  " ecological": 3223,
  " talk": 3224,
  " values": 3225,
  " supre": 3226,
  " constantly": 3227,
  "rote": 3228,
  "elect": 3229,
  "cise": 3230,
  " thinking": 3231,
  " Will": 3232,
  " Catholic": 3233,
  " six": 3234,
  "place": 3235,
  "ao": 3236,
  " My": 3237,
  " hig": 3238,
  " esc": 3239,
  " establish": 3240,
  " souls": 3241,
  " serve": 3242,
  "agers": 3243,
  " built": 3244,
  " pun": 3245,
  "Americ": 3246,
  "epend": 3247,
  " choice": 3248,
  " dict": 3249,
  "irty": 3250,
  " leave": 3251,
  " events": 3252,
  " remain": 3253,
  " jobs": 3254,
  " Who": 3255,
  "bi": 3256,
  " school": 3257,
  "atural": 3258,
  " pressure": 3259,
  "alian": 3260,
  " born": 3261,
  " economics": 3262,
  "requ": 3263,
  " mammals": 3264,
  "could": 3265,
  "keys": 3266,
  " light": 3267,
  " command": 3268,
  "apter": 3269,
  " February": 3270,
  "ius": 3271,
  "ipher": 3272,
  " socialist": 3273,
  " kept": 3274,
  "eman": 3275,
  "usion": 3276,
  " fulf": 3277,
  " chickens": 3278,
  "inction": 3279,
  " everyone": 3280,
  "enty": 3281,
  " simple": 3282,
  "fant": 3283,
  " share": 3284,
  " interpre": 3285,
  " interests": 3286,
  " priest": 3287,
  " eye": 3288,
  "ares": 3289,
  " structures": 3290,
  "omose": 3291,
  "omosexual": 3292,
  " Am": 3293,
  " Sant": 3294,
  " myself": 3295,
  "olph": 3296,
  "§escu": 3297,
  " Rep": 3298,
  " Cr": 3299,
  " obe": 3300,
  " colon": 3301,
  " hem": 3302,
  " hemisp": 3303,
  "London": 3304,
  "Data": 3305,
  " Behavior": 3306,
  "enda": 3307,
  "oven": 3308,
  "oses": 3309,
  "chang": 3310,
  " top": 3311,
  " invented": 3312,
  " star": 3313,
  "icide": 3314,
  "ald": 3315,
  " military": 3316,
  "fam": 3317,
  " concern": 3318,
  "utrition": 3319,
  " wheat": 3320,
  " save": 3321,
  "example": 3322,
  " Whereas": 3323,
  " comb": 3324,
  "eless": 3325,
  "ivil": 3326,
  " consequently": 3327,
  " Death": 3328,
  " taking": 3329,
  "Is": 3330,
  " sk": 3331,
  " members": 3332,
  " near": 3333,
  " mag": 3334,
  "ouses": 3335,
  " September": 3336,
  " Valley": 3337,
  "Dec": 3338,
  "ront": 3339,
  " seen": 3340,
  "ildren": 3341,
  " due": 3342,
  " met": 3343,
  " ground": 3344,
  " hours": 3345,
  "ization": 3346,
  "ajor": 3347,
  "mon": 3348,
  "ient": 3349,
  "sur": 3350,
  "-in": 3351,
  " illness": 3352,
  " faster": 3353,
  "ponsible": 3354,
  " crit": 3355,
  "ption": 3356,
  " favour": 3357,
  "ultaneously": 3358,
  " engineer": 3359,
  " Law": 3360,
  " piece": 3361,
  " ordinary": 3362,
  "56": 3363,
  "orpor": 3364,
  " gold": 3365,
  " acqu": 3366,
  "icon": 3367,
  " word": 3368,
  " discuss": 3369,
  "ively": 3370,
  " highly": 3371,
  "rying": 3372,
  " essence": 3373,
  "understand": 3374,
  " redu": 3375,
  " divinity": 3376,
  " sav": 3377,
  "ifest": 3378,
  " supreme": 3379,
  "ecause": 3380,
  " Col": 3381,
  "/G": 3382,
  "present": 3383,
  " decision": 3384,
  " vast": 3385,
  "rey": 3386,
  " walk": 3387,
  "reet": 3388,
  " obvious": 3389,
  " results": 3390,
  "190": 3391,
  "scient": 3392,
  "lets": 3393,
  " laborat": 3394,
  "head": 3395,
  "happiness": 3396,
  "bus": 3397,
  " education": 3398,
  " wel": 3399,
  " mechan": 3400,
  "oes": 3401,
  " United": 3402,
  " basic": 3403,
  " services": 3404,
  " thus": 3405,
  " pleasant": 3406,
  "pleasant": 3407,
  " German": 3408,
  "othe": 3409,
  "uts": 3410,
  "ls": 3411,
  "iat": 3412,
  "62": 3413,
  " univers": 3414,
  " pattern": 3415,
  " elephant": 3416,
  " helmet": 3417,
  " touch": 3418,
  "abilities": 3419,
  " Test": 3420,
  " movement": 3421,
  " Empire": 3422,
  "-gatherers": 3423,
  " empires": 3424,
  " trees": 3425,
  " ...": 3426,
  "rolled": 3427,
  " Professor": 3428,
  "174": 3429,
  "rect": 3430,
  " Watson": 3431,
  "udaism": 3432,
  "where": 3433,
  " scriptures": 3434,
  "dem": 3435,
  " Muslims": 3436,
  "onomous": 3437,
  "-r": 3438,
  " crus": 3439,
  "181": 3440,
  "di": 3441,
  "ean": 3442,
  " Ant": 3443,
  "itler": 3444,
  "ask": 3445,
  " Econom": 3446,
  "olie": 3447,
  "?’,": 3448,
  "305": 3449,
  "work": 3450,
  " millenn": 3451,
  " night": 3452,
  " institutions": 3453,
  " prophe": 3454,
  " Of": 3455,
  " Such": 3456,
  " daily": 3457,
  " unprecedented": 3458,
  " prosper": 3459,
  " demand": 3460,
  "IDS": 3461,
  "these": 3462,
  "overty": 3463,
  "emy": 3464,
  " French": 3465,
  " town": 3466,
  " describ": 3467,
  " somew": 3468,
  " Other": 3469,
  " ancestors": 3470,
  " unlikely": 3471,
  "ternational": 3472,
  "hest": 3473,
  "were": 3474,
  " feed": 3475,
  "za": 3476,
  " From": 3477,
  " Bet": 3478,
  " city": 3479,
  " force": 3480,
  "tock": 3481,
  " \n\n\n\n\n\n\n": 3482,
  " More": 3483,
  " cell": 3484,
  " land": 3485,
  " waves": 3486,
  "pet": 3487,
  " reached": 3488,
  " flu": 3489,
  "ulated": 3490,
  " By": 3491,
  " Cong": 3492,
  "tog": 3493,
  "together": 3494,
  "inations": 3495,
  " major": 3496,
  " blind": 3497,
  "istance": 3498,
  " developing": 3499,
  " nan": 3500,
  " assum": 3501,
  " anger": 3502,
  "ping": 3503,
  " enable": 3504,
  "ungle": 3505,
  " Stone": 3506,
  "ources": 3507,
  " Cent": 3508,
  " doll": 3509,
  "ibility": 3510,
  " learned": 3511,
  "ificant": 3512,
  "reng": 3513,
  "apped": 3514,
  " encour": 3515,
  "ude": 3516,
  "ries": 3517,
  " phenomen": 3518,
  "equ": 3519,
  " harm": 3520,
  " positive": 3521,
  "emporary": 3522,
  " culture": 3523,
  " const": 3524,
  " oug": 3525,
  " ought": 3526,
  " breat": 3527,
  "Oxford": 3528,
  " solution": 3529,
  " aren": 3530,
  " cross": 3531,
  "mar": 3532,
  " fundamental": 3533,
  "207": 3534,
  "idered": 3535,
  " provided": 3536,
  "fits": 3537,
  "asting": 3538,
  " personal": 3539,
  "-de": 3540,
  " bureaucr": 3541,
  "ites": 3542,
  " South": 3543,
  " leading": 3544,
  "astic": 3545,
  "iger": 3546,
  "into": 3547,
  " machines": 3548,
  " changes": 3549,
  " surpr": 3550,
  "inal": 3551,
  " Only": 3552,
  " watch": 3553,
  "lin": 3554,
  "Some": 3555,
  " journe": 3556,
  " agree": 3557,
  " neither": 3558,
  " perform": 3559,
  "ils": 3560,
  " methods": 3561,
  "uments": 3562,
  "free": 3563,
  " smart": 3564,
  " challenge": 3565,
  " answers": 3566,
  " travel": 3567,
  " dogs": 3568,
  " tells": 3569,
  " compl": 3570,
  " realise": 3571,
  "umer": 3572,
  " Scientific": 3573,
  "intelligence": 3574,
  " vers": 3575,
  " risk": 3576,
  " case": 3577,
  " Mich": 3578,
  " gir": 3579,
  "ube": 3580,
  "urder": 3581,
  " Commun": 3582,
  " building": 3583,
  " saw": 3584,
  " colle": 3585,
  " beliefs": 3586,
  " wolves": 3587,
  " domesticated": 3588,
  "times": 3589,
  "ior": 3590,
  " written": 3591,
  "jects": 3592,
  "essing": 3593,
  "rocod": 3594,
  " groups": 3595,
  " State": 3596,
  "algorithm": 3597,
  "plit": 3598,
  "aled": 3599,
  "igions": 3600,
  " hero": 3601,
  "river": 3602,
  "feelings": 3603,
  "ikes": 3604,
  " Mind": 3605,
  "ception": 3606,
  " map": 3607,
  " relevant": 3608,
  "yl": 3609,
  "-conscious": 3610,
  " homosexual": 3611,
  " party": 3612,
  " Cambridge": 3613,
  "exts": 3614,
  " Hans": 3615,
  " elite": 3616,
  "umber": 3617,
  " faith": 3618,
  " obey": 3619,
  " soldier": 3620,
  "enin": 3621,
  " liberals": 3622,
  " judgements": 3623,
  " song": 3624,
  "itivity": 3625,
  "Ne": 3626,
  "andom": 3627,
  "“": 3628,
  "MI": 3629,
  "77": 3630,
  " Jolie": 3631,
  "-humanism": 3632,
  " spectrum": 3633,
  "artz": 3634,
  "/news": 3635,
  "226": 3636,
  "270": 3637,
  "268": 3638,
  "lling": 3639,
  "ollins": 3640,
  "ication": 3641,
  " Consciousness": 3642,
  " Religion": 3643,
  " remained": 3644,
  " generation": 3645,
  "vation": 3646,
  "war": 3647,
  " prevent": 3648,
  " suc": 3649,
  "’ll": 3650,
  " Mc": 3651,
  " claim": 3652,
  "rap": 3653,
  " coming": 3654,
  " Bi": 3655,
  " suff": 3656,
  " governments": 3657,
  "finite": 3658,
  "ring": 3659,
  " stri": 3660,
  "agues": 3661,
  " cities": 3662,
  "then": 3663,
  " sud": 3664,
  "ores": 3665,
  " post": 3666,
  "onic": 3667,
  "ayers": 3668,
  " cure": 3669,
  "amed": 3670,
  " virus": 3671,
  " America": 3672,
  "panish": 3673,
  " bur": 3674,
  " black": 3675,
  " cold": 3676,
  "och": 3677,
  " months": 3678,
  " Sm": 3679,
  "emic": 3680,
  "atically": 3681,
  "ibiotics": 3682,
  "atively": 3683,
  "ially": 3684,
  " public": 3685,
  "iety": 3686,
  "much": 3687,
  "back": 3688,
  "ultimate": 3689,
  " upon": 3690,
  " prove": 3691,
  "rob": 3692,
  "ero": 3693,
  "obe": 3694,
  " sum": 3695,
  " armies": 3696,
  " news": 3697,
  " oil": 3698,
  "ize": 3699,
  "soft": 3700,
  "year": 3701,
  "see": 3702,
  "irc": 3703,
  "overnment": 3704,
  " Kore": 3705,
  " mot": 3706,
  " streng": 3707,
  " Ages": 3708,
  " continue": 3709,
  " oppos": 3710,
  "might": 3711,
  " projects": 3712,
  " voters": 3713,
  " finally": 3714,
  " schools": 3715,
  " bal": 3716,
  "don": 3717,
  "win": 3718,
  " statements": 3719,
  ".^": 3720,
  "riage": 3721,
  "ode": 3722,
  " profess": 3723,
  "engine": 3724,
  " boy": 3725,
  " capitalist": 3726,
  " looked": 3727,
  " sym": 3728,
  " Once": 3729,
  " crow": 3730,
  " key": 3731,
  " Epic": 3732,
  " secret": 3733,
  " drive": 3734,
  "bu": 3735,
  " taxes": 3736,
  "ien": 3737,
  " Thom": 3738,
  " basis": 3739,
  " Per": 3740,
  " Gu": 3741,
  " unpleasant": 3742,
  " avoid": 3743,
  "imb": 3744,
  "ert": 3745,
  "rodes": 3746,
  " drugs": 3747,
  "differ": 3748,
  " meet": 3749,
  "import": 3750,
  " Budd": 3751,
  " reading": 3752,
  " behind": 3753,
  "tual": 3754,
  "ications": 3755,
  "ament": 3756,
  "inking": 3757,
  " compet": 3758,
  " superhumans": 3759,
  " wrote": 3760,
  " friend": 3761,
  "economy": 3762,
  " discovered": 3763,
  " various": 3764,
  "gal": 3765,
  " fix": 3766,
  "uppose": 3767,
  " Des": 3768,
  "nowledge": 3769,
  " conflict": 3770,
  " elections": 3771,
  " useless": 3772,
  " rules": 3773,
  " grand": 3774,
  " equally": 3775,
  "usal": 3776,
  "usalem": 3777,
  " holy": 3778,
  " indust": 3779,
  "ifies": 3780,
  ".e": 3781,
  " cultures": 3782,
  "ograph": 3783,
  " forest": 3784,
  "somet": 3785,
  "osystem": 3786,
  " During": 3787,
  "uted": 3788,
  " stones": 3789,
  "stud": 3790,
  " importance": 3791,
  " contrad": 3792,
  "berg": 3793,
  " firm": 3794,
  "inst": 3795,
  "creat": 3796,
  " accur": 3797,
  " composed": 3798,
  " philosoph": 3799,
  " Dep": 3800,
  " placed": 3801,
  "inced": 3802,
  " seconds": 3803,
  " trust": 3804,
  " Church": 3805,
  " imaginary": 3806,
  "acies": 3807,
  "atab": 3808,
  "rib": 3809,
  " cost": 3810,
  " price": 3811,
  " Hitler": 3812,
  " Constantine": 3813,
  " Heb": 3814,
  " Mat": 3815,
  " Dor": 3816,
  "-the": 3817,
  " Society": 3818,
  " “": 3819,
  "azzan": 3820,
  "azzanig": 3821,
  "azzaniga": 3822,
  " Ann": 3823,
  "83": 3824,
  " Review": 3825,
  ".org": 3826,
  "/d": 3827,
  "aught": 3828,
  " mast": 3829,
  " bar": 3830,
  " mir": 3831,
  " countless": 3832,
  " manage": 3833,
  " done": 3834,
  " succeed": 3835,
  " fail": 3836,
  " drought": 3837,
  "gent": 3838,
  " immense": 3839,
  " AIDS": 3840,
  " mal": 3841,
  " Apr": 3842,
  " April": 3843,
  "169": 3844,
  "aring": 3845,
  "esh": 3846,
  " cast": 3847,
  "augh": 3848,
  "Sim": 3849,
  " scen": 3850,
  " empt": 3851,
  " X": 3852,
  " fif": 3853,
  " trade": 3854,
  "portun": 3855,
  " efforts": 3856,
  " morning": 3857,
  "leep": 3858,
  " sugar": 3859,
  " Red": 3860,
  " greatest": 3861,
  "leged": 3862,
  "legedly": 3863,
  "203": 3864,
  "ling": 3865,
  " suddenly": 3866,
  " famous": 3867,
  " North": 3868,
  "156": 3869,
  " angry": 3870,
  " fair": 3871,
  " March": 3872,
  " evil": 3873,
  " helped": 3874,
  " busy": 3875,
  "185": 3876,
  " efficient": 3877,
  " five": 3878,
  "modern": 3879,
  " achievements": 3880,
  " victory": 3881,
  " addition": 3882,
  " identify": 3883,
  " fig": 3884,
  "viron": 3885,
  "vironment": 3886,
  "ctors": 3887,
  "205": 3888,
  " swe": 3889,
  " responsible": 3890,
  "Or": 3891,
  "never": 3892,
  " gets": 3893,
  "sc": 3894,
  " enables": 3895,
  "may": 3896,
  " agricultural": 3897,
  " weap": 3898,
  " held": 3899,
  "oted": 3900,
  "imag": 3901,
  " Ang": 3902,
  " Ir": 3903,
  " fac": 3904,
  " sevent": 3905,
  "political": 3906,
  "han": 3907,
  "-old": 3908,
  "ieved": 3909,
  " gain": 3910,
  " satisfied": 3911,
  "imm": 3912,
  " lawy": 3913,
  "expl": 3914,
  " draw": 3915,
  " instruct": 3916,
  "/Getty": 3917,
  " engineers": 3918,
  " precise": 3919,
  " date": 3920,
  "nov": 3921,
  " aims": 3922,
  "ortal": 3923,
  " pieces": 3924,
  "expect": 3925,
  "aul": 3926,
  "ivided": 3927,
  "being": 3928,
  "pir": 3929,
  " foot": 3930,
  " sin": 3931,
  " hopes": 3932,
  " higher": 3933,
  " considered": 3934,
  " discoveries": 3935,
  "take": 3936,
  " Can": 3937,
  " close": 3938,
  " doubt": 3939,
  "enough": 3940,
  " desire": 3941,
  "urus": 3942,
  " Sal": 3943,
  " evalu": 3944,
  " perspective": 3945,
  " levels": 3946,
  " disci": 3947,
  " pleasure": 3948,
  "228": 3949,
  " views": 3950,
  "ishing": 3951,
  " peasant": 3952,
  " surprising": 3953,
  "hemistry": 3954,
  "sensations": 3955,
  "no": 3956,
  "ool": 3957,
  " reproduction": 3958,
  " seek": 3959,
  " gather": 3960,
  "ooking": 3961,
  "icture": 3962,
  " charge": 3963,
  " Italian": 3964,
  "off": 3965,
  "good": 3966,
  "celer": 3967,
  "rical": 3968,
  " patterns": 3969,
  "300": 3970,
  "ayan": 3971,
  " wants": 3972,
  "olm": 3973,
  "connect": 3974,
  "technology": 3975,
  " sky": 3976,
  " commands": 3977,
  "velopment": 3978,
  " historical": 3979,
  " robot": 3980,
  "atures": 3981,
  " explan": 3982,
  "ening": 3983,
  " beautiful": 3984,
  " pure": 3985,
  " believes": 3986,
  " Russ": 3987,
  " decipher": 3988,
  "used": 3989,
  "capital": 3990,
  " speed": 3991,
  " Similarly": 3992,
  " bene": 3993,
  "ptions": 3994,
  " strict": 3995,
  "arden": 3996,
  " equal": 3997,
  " meat": 3998,
  " ecosystem": 3999,
  " sn": 4000,
  " known": 4001,
  " search": 4002,
  "ration": 4003,
  " psychology": 4004,
  "lo": 4005,
  "icks": 4006,
  " mathematical": 4007,
  " correct": 4008,
  "ama": 4009,
  "99": 4010,
  "actions": 4011,
  " Judaism": 4012,
  " Jews": 4013,
  "teen": 4014,
  " wishes": 4015,
  " moral": 4016,
  "olute": 4017,
  "individual": 4018,
  "isible": 4019,
  "istics": 4020,
  "RI": 4021,
  " crucial": 4022,
  " detailed": 4023,
  "embers": 4024,
  " cognitive": 4025,
  "ashing": 4026,
  " necessary": 4027,
  " Santino": 4028,
  "Sapiens": 4029,
  " friends": 4030,
  "ott": 4031,
  " Ceau": 4032,
  " voices": 4033,
  "rivers": 4034,
  " base": 4035,
  " Richard": 4036,
  "orges": 4037,
  " sect": 4038,
  " Rec": 4039,
  " Your": 4040,
  " customer": 4041,
  "anial": 4042,
  " Gazzaniga": 4043,
  " Future": 4044,
  "96": 4045,
  ".pdf": 4046,
  " Neuro": 4047,
  "137": 4048,
  "206": 4049,
  "Har": 4050,
  "ibr": 4051,
  "room": 4052,
  "god": 4053,
  "tegr": 4054,
  "bola": 4055,
  "humankind": 4056,
  " clos": 4057,
  "nutrition": 4058,
  " hit": 4059,
  "hat": 4060,
  " [": 4061,
  "orb": 4062,
  "between": 4063,
  "ruck": 4064,
  " inh": 4065,
  " hol": 4066,
  " cheap": 4067,
  " Paris": 4068,
  "blem": 4069,
  " worse": 4070,
  " Rome": 4071,
  "millions": 4072,
  "amb": 4073,
  ".-": 4074,
  " low": 4075,
  "lier": 4076,
  " white": 4077,
  "opulation": 4078,
  " While": 4079,
  "rich": 4080,
  " front": 4081,
  "aching": 4082,
  "trans": 4083,
  "yg": 4084,
  " camp": 4085,
  " decl": 4086,
  "single": 4087,
  "comple": 4088,
  "illing": 4089,
  " perfectly": 4090,
  "does": 4091,
  "esp": 4092,
  " myster": 4093,
  " wealth": 4094,
  " af": 4095,
  "ured": 4096,
  ".)": 4097,
  " jump": 4098,
  "eff": 4099,
  " creates": 4100,
  "roughout": 4101,
  " weapons": 4102,
  " Ap": 4103,
  "though": 4104,
  " Pe": 4105,
  "Br": 4106,
  " kinds": 4107,
  "ountr": 4108,
  "log": 4109,
  " adopted": 4110,
  " worked": 4111,
  "uation": 4112,
  " imagination": 4113,
  " cha": 4114,
  " obl": 4115,
  " security": 4116,
  " cases": 4117,
  " goes": 4118,
  " circ": 4119,
  "One": 4120,
  "grow": 4121,
  " provides": 4122,
  " poll": 4123,
  " shall": 4124,
  "urrent": 4125,
  "aration": 4126,
  " role": 4127,
  "itch": 4128,
  " mutation": 4129,
  " Life": 4130,
  " tend": 4131,
  "ologist": 4132,
  "ointed": 4133,
  "alog": 4134,
  "iel": 4135,
  "rep": 4136,
  " development": 4137,
  "also": 4138,
  " journal": 4139,
  " extr": 4140,
  "prob": 4141,
  " promising": 4142,
  "business": 4143,
  " workers": 4144,
  "American": 4145,
  " Thomas": 4146,
  "adays": 4147,
  " sexual": 4148,
  "eal": 4149,
  " telev": 4150,
  " sex": 4151,
  " cle": 4152,
  " studies": 4153,
  " everybody": 4154,
  "asp": 4155,
  " Nob": 4156,
  ".g": 4157,
  " UK": 4158,
  "78": 4159,
  "natural": 4160,
  " Britain": 4161,
  "important": 4162,
  " upgrading": 4163,
  " hear": 4164,
  " space": 4165,
  " She": 4166,
  " Mon": 4167,
  "ctions": 4168,
  " impossible": 4169,
  "rael": 4170,
  " immediately": 4171,
  "meaning": 4172,
  "That": 4173,
  " breakthrough": 4174,
  " chapter": 4175,
  "iament": 4176,
  " sun": 4177,
  " outper": 4178,
  " steps": 4179,
  "perim": 4180,
  " murder": 4181,
  " alien": 4182,
  " mistake": 4183,
  " mistakes": 4184,
  "cy": 4185,
  "better": 4186,
  "Mar": 4187,
  " capitalists": 4188,
  " analys": 4189,
  "cour": 4190,
  " therap": 4191,
  " examine": 4192,
  "erving": 4193,
  " led": 4194,
  " lawns": 4195,
  " green": 4196,
  " Jewish": 4197,
  "ij": 4198,
  "urt": 4199,
  "Humans": 4200,
  "mas": 4201,
  "People": 4202,
  " dominated": 4203,
  " intelligent": 4204,
  "humanist": 4205,
  " movements": 4206,
  " giant": 4207,
  " respect": 4208,
  " evidence": 4209,
  "two": 4210,
  " realities": 4211,
  "147": 4212,
  "many": 4213,
  " typ": 4214,
  "riculture": 4215,
  " biologists": 4216,
  " undergo": 4217,
  "ator": 4218,
  " Fre": 4219,
  " based": 4220,
  "idel": 4221,
  " return": 4222,
  " whenever": 4223,
  " saying": 4224,
  " Their": 4225,
  " wish": 4226,
  "cre": 4227,
  " Naz": 4228,
  " practice": 4229,
  "cannot": 4230,
  " employ": 4231,
  "hold": 4232,
  "affic": 4233,
  " aff": 4234,
  "renal": 4235,
  " autonomous": 4236,
  "armac": 4237,
  "arc": 4238,
  " convinced": 4239,
  " rule": 4240,
  "ounter": 4241,
  "obek": 4242,
  " texts": 4243,
  "155": 4244,
  " ches": 4245,
  " chess": 4246,
  "-A": 4247,
  "64": 4248,
  " ech": 4249,
  "163": 4250,
  "II": 4251,
  "liberal": 4252,
  "ethoven": 4253,
  "graph": 4254,
  " hemisphere": 4255,
  "oscopy": 4256,
  "IT": 4257,
  "94": 4258,
  " Waze": 4259,
  " Psychology": 4260,
  " See": 4261,
  "73": 4262,
  "360": 4263,
  "368": 4264,
  "/art": 4265,
  "264": 4266,
  "48": 4267,
  " Form": 4268,
  "247": 4269,
  "323": 4270,
  "ouple": 4271,
  " Time": 4272,
  " Lab": 4273,
  " Publ": 4274,
  "oto": 4275,
  "mind": 4276,
  " cup": 4277,
  " rein": 4278,
  " transformed": 4279,
  " quite": 4280,
  " looking": 4281,
  " fire": 4282,
  "information": 4283,
  "isis": 4284,
  "ria": 4285,
  "pen": 4286,
  "aughter": 4287,
  " throw": 4288,
  "atever": 4289,
  " miss": 4290,
  " poverty": 4291,
  "ums": 4292,
  "eks": 4293,
  " stream": 4294,
  "alled": 4295,
  "plague": 4296,
  " Art": 4297,
  " epidemic": 4298,
  " air": 4299,
  " Australia": 4300,
  "ips": 4301,
  "person": 4302,
  "pox": 4303,
  " terrible": 4304,
  " nearby": 4305,
  "lying": 4306,
  " particularly": 4307,
  " Sam": 4308,
  " labour": 4309,
  "particular": 4310,
  " offers": 4311,
  " West": 4312,
  " dam": 4313,
  " anx": 4314,
  "pat": 4315,
  " happening": 4316,
  " hosp": 4317,
  " difficulties": 4318,
  "ronic": 4319,
  " unknown": 4320,
  " reasons": 4321,
  " ultimate": 4322,
  " Scientists": 4323,
  " fighting": 4324,
  " regard": 4325,
  " late": 4326,
  " upper": 4327,
  "anger": 4328,
  " disappear": 4329,
  " pol": 4330,
  " consider": 4331,
  " forced": 4332,
  " conquer": 4333,
  "fit": 4334,
  "ilicon": 4335,
  " battlefield": 4336,
  "ware": 4337,
  " meant": 4338,
  " vital": 4339,
  "ruction": 4340,
  " Over": 4341,
  " bull": 4342,
  "pled": 4343,
  "ghan": 4344,
  " opposite": 4345,
  " resources": 4346,
  " blame": 4347,
  "ials": 4348,
  " lawyers": 4349,
  " Because": 4350,
  "isted": 4351,
  "death": 4352,
  "rip": 4353,
  "techn": 4354,
  "way": 4355,
  " enter": 4356,
  " National": 4357,
  " dism": 4358,
  "eck": 4359,
  "sues": 4360,
  " Wall": 4361,
  " Fif": 4362,
  "ouble": 4363,
  " marriage": 4364,
  " memory": 4365,
  " divided": 4366,
  " working": 4367,
  "without": 4368,
  " measure": 4369,
  " biology": 4370,
  " forward": 4371,
  " burn": 4372,
  "olly": 4373,
  "ault": 4374,
  "sold": 4375,
  " origin": 4376,
  "sue": 4377,
  " yard": 4378,
  " economists": 4379,
  "itarian": 4380,
  " uses": 4381,
  "-gatherer": 4382,
  "ored": 4383,
  "atter": 4384,
  " ded": 4385,
  " depression": 4386,
  " journey": 4387,
  " kids": 4388,
  "ining": 4389,
  "hether": 4390,
  "idepress": 4391,
  "found": 4392,
  " sharp": 4393,
  " allowed": 4394,
  " defin": 4395,
  " produc": 4396,
  " smartph": 4397,
  " diagn": 4398,
  "move": 4399,
  " mov": 4400,
  " limit": 4401,
  " nevertheless": 4402,
  " escape": 4403,
  " terms": 4404,
  " Gree": 4405,
  "inks": 4406,
  " wanted": 4407,
  " rain": 4408,
  " farmers": 4409,
  "oming": 4410,
  " collapse": 4411,
  " familiar": 4412,
  " surpass": 4413,
  "acqu": 4414,
  "pring": 4415,
  "gg": 4416,
  " popular": 4417,
  " beauty": 4418,
  "Sh": 4419,
  " Then": 4420,
  " outperform": 4421,
  " Knowledge": 4422,
  "Things": 4423,
  " Jerusalem": 4424,
  "lish": 4425,
  "claim": 4426,
  " shape": 4427,
  "oe": 4428,
  "class": 4429,
  " Rober": 4430,
  "omer": 4431,
  "soci": 4432,
  " Act": 4433,
  "asks": 4434,
  " ignore": 4435,
  "-bl": 4436,
  "Why": 4437,
  "irds": 4438,
  " phenomenon": 4439,
  "ecies": 4440,
  " mammoth": 4441,
  " rabbits": 4442,
  "pent": 4443,
  "knowledge": 4444,
  " contradict": 4445,
  "afe": 4446,
  " baboon": 4447,
  " split": 4448,
  "care": 4449,
  " monkeys": 4450,
  " fit": 4451,
  "ager": 4452,
  "icked": 4453,
  " personality": 4454,
  " proper": 4455,
  " pack": 4456,
  " programs": 4457,
  " entity": 4458,
  "From": 4459,
  "esthe": 4460,
  " decided": 4461,
  " Well": 4462,
  " adrenal": 4463,
  " memories": 4464,
  "Ph": 4465,
  " road": 4466,
  "las": 4467,
  "data": 4468,
  " gay": 4469,
  " smell": 4470,
  " express": 4471,
  " master": 4472,
  " conducted": 4473,
  " freely": 4474,
  " Part": 4475,
  " socialism": 4476,
  "minist": 4477,
  " Bro": 4478,
  " agents": 4479,
  " Elvis": 4480,
  " Fay": 4481,
  " Fayum": 4482,
  " doc": 4483,
  "men": 4484,
  "artin": 4485,
  "uther": 4486,
  " Eth": 4487,
  " Lev": 4488,
  " stock": 4489,
  " Global": 4490,
  "81": 4491,
  "legraph": 4492,
  " Hong": 4493,
  "cranial": 4494,
  "ael": 4495,
  "ahn": 4496,
  " route": 4497,
  "91": 4498,
  "76": 4499,
  " privacy": 4500,
  " emails": 4501,
  "Dataism": 4502,
  " Dataist": 4503,
  "52": 4504,
  " edn": 4505,
  "/.": 4506,
  ".h": 4507,
  "309": 4508,
  "41": 4509,
  "173": 4510,
  "234": 4511,
  "274": 4512,
  "352": 4513,
  "262": 4514,
  " Noah": 4515,
  "orrow": 4516,
  "Ar": 4517,
  " Go": 4518,
  " Anthrop": 4519,
  "cean": 4520,
  " Ab": 4521,
  "\n\n\n\n\n\n\n\n\n\n\n\n\n\n\n\n": 4522,
  " fer": 4523,
  "At": 4524,
  "ror": 4525,
  " agenda": 4526,
  "aint": 4527,
  "azing": 4528,
  " faced": 4529,
  " infectious": 4530,
  " terrorists": 4531,
  " generals": 4532,
  "history": 4533,
  " crisis": 4534,
  "aging": 4535,
  "cle": 4536,
  " flesh": 4537,
  " empty": 4538,
  " turns": 4539,
  " opportun": 4540,
  " hung": 4541,
  " communists": 4542,
  " scenari": 4543,
  "Indeed": 4544,
  " allegedly": 4545,
  "orge": 4546,
  "esity": 4547,
  "dise": 4548,
  " civil": 4549,
  " outbreak": 4550,
  " Black": 4551,
  " drop": 4552,
  " Europeans": 4553,
  " brought": 4554,
  " Spanish": 4555,
  "ancis": 4556,
  "ancisco": 4557,
  " house": 4558,
  "author": 4559,
  " settle": 4560,
  " emper": 4561,
  "December": 4562,
  " explo": 4563,
  " British": 4564,
  "osis": 4565,
  " Flu": 4566,
  " Congo": 4567,
  " vacc": 4568,
  "ganization": 4569,
  "far": 4570,
  " fears": 4571,
  " admit": 4572,
  "oved": 4573,
  " illnesses": 4574,
  "erms": 4575,
  " depend": 4576,
  " passing": 4577,
  "volve": 4578,
  "itable": 4579,
  "reaking": 4580,
  " plans": 4581,
  " territ": 4582,
  "120": 4583,
  "olve": 4584,
  "apt": 4585,
  "ops": 4586,
  "Germ": 4587,
  "-h": 4588,
  " Mer": 4589,
  "ister": 4590,
  " table": 4591,
  "Just": 4592,
  " minute": 4593,
  " nuclear": 4594,
  " necessarily": 4595,
  " gun": 4596,
  "play": 4597,
  " significant": 4598,
  "tal": 4599,
  " decade": 4600,
  " Islamic": 4601,
  "themselves": 4602,
  "coming": 4603,
  "istan": 4604,
  " trying": 4605,
  " argu": 4606,
  "entieth": 4607,
  "vest": 4608,
  "itude": 4609,
  " amb": 4610,
  " goals": 4611,
  " harmony": 4612,
  "laration": 4613,
  " Hinduism": 4614,
  " solve": 4615,
  "No": 4616,
  "orate": 4617,
  " True": 4618,
  " laun": 4619,
  " Bill": 4620,
  "answ": 4621,
  " yes": 4622,
  "sing": 4623,
  " win": 4624,
  " fantasies": 4625,
  "urs": 4626,
  " relationships": 4627,
  "years": 4628,
  "-ch": 4629,
  "-five": 4630,
  " stay": 4631,
  " middle": 4632,
  "-year": 4633,
  " Ge": 4634,
  "arry": 4635,
  " wolf": 4636,
  "cover": 4637,
  "wood": 4638,
  " worship": 4639,
  " sole": 4640,
  "jected": 4641,
  " vision": 4642,
  " focused": 4643,
  " Industrial": 4644,
  " liter": 4645,
  " tra": 4646,
  " shouldn": 4647,
  "his": 4648,
  "ban": 4649,
  "itz": 4650,
  " dictators": 4651,
  " thirty": 4652,
  "rends": 4653,
  "isive": 4654,
  " pill": 4655,
  "social": 4656,
  " surprisingly": 4657,
  " outside": 4658,
  "ldom": 4659,
  " pri": 4660,
  " picture": 4661,
  " controls": 4662,
  " electrodes": 4663,
  "active": 4664,
  " climb": 4665,
  " mountain": 4666,
  "amer": 4667,
  " revolutions": 4668,
  " raise": 4669,
  " Maybe": 4670,
  " neuro": 4671,
  " stro": 4672,
  " beginning": 4673,
  " train": 4674,
  " observe": 4675,
  "emot": 4676,
  " wisdom": 4677,
  " cyborg": 4678,
  "organic": 4679,
  "control": 4680,
  " general": 4681,
  "ason": 4682,
  "Can": 4683,
  "lease": 4684,
  " emb": 4685,
  " Dis": 4686,
  "three": 4687,
  "aron": 4688,
  " fell": 4689,
  "first": 4690,
  "cast": 4691,
  " gained": 4692,
  "105": 4693,
  " accordingly": 4694,
  "na": 4695,
  " White": 4696,
  "utter": 4697,
  "-R": 4698,
  "oud": 4699,
  " tasks": 4700,
  "nature": 4701,
  " model": 4702,
  "believe": 4703,
  " fil": 4704,
  "olf": 4705,
  "imp": 4706,
  " peak": 4707,
  " archa": 4708,
  "round": 4709,
  " whom": 4710,
  " Garden": 4711,
  " Gen": 4712,
  " milk": 4713,
  "twenty": 4714,
  " character": 4715,
  " believing": 4716,
  " safe": 4717,
  " follows": 4718,
  "anas": 4719,
  " sight": 4720,
  " sees": 4721,
  "Le": 4722,
  " group": 4723,
  " temple": 4724,
  " cho": 4725,
  " cosmos": 4726,
  " explains": 4727,
  " lad": 4728,
  "alt": 4729,
  " Newton": 4730,
  " underm": 4731,
  " Dar": 4732,
  " dogma": 4733,
  "tics": 4734,
  "MRI": 4735,
  "subjective": 4736,
  "another": 4737,
  " homosexuality": 4738,
  " July": 4739,
  "athe": 4740,
  " shif": 4741,
  "pot": 4742,
  "66": 4743,
  " neighbour": 4744,
  " host": 4745,
  " repeated": 4746,
  " reve": 4747,
  " monitor": 4748,
  "ognition": 4749,
  "belief": 4750,
  " aud": 4751,
  "aders": 4752,
  " Front": 4753,
  " advant": 4754,
  " universal": 4755,
  "bell": 4756,
  " supermarket": 4757,
  " Gener": 4758,
  " Holy": 4759,
  " river": 4760,
  " ren": 4761,
  " Mem": 4762,
  "alyse": 4763,
  " datab": 4764,
  " Sobek": 4765,
  " marks": 4766,
  " Sous": 4767,
  " borders": 4768,
  "188": 4769,
  "74": 4770,
  " Lenin": 4771,
  " Person": 4772,
  "ellect": 4773,
  " modernity": 4774,
  "ampires": 4775,
  "-market": 4776,
  "issions": 4777,
  " van": 4778,
  "130": 4779,
  " voter": 4780,
  " Frank": 4781,
  " stars": 4782,
  "viv": 4783,
  " Dix": 4784,
  " Liberal": 4785,
  " Beethoven": 4786,
  "387": 4787,
  " visions": 4788,
  "ih": 4789,
  " Michael": 4790,
  " colonoscopy": 4791,
  " processors": 4792,
  "-AII": 4793,
  "178": 4794,
  ".c": 4795,
  ".co": 4796,
  ".uk": 4797,
  " Hebrew": 4798,
  " Resistance": 4799,
  "143": 4800,
  " Behavioral": 4801,
  "310": 4802,
  "383": 4803,
  "223": 4804,
  "184": 4805,
  " Dorme": 4806,
  " Dormeh": 4807,
  " Dormehl": 4808,
  " Formula": 4809,
  "338": 4810,
  "273": 4811,
  "246": 4812,
  "227": 4813,
  "261": 4814,
  " Tom": 4815,
  "Homo": 4816,
  "AR": 4817,
  "perC": 4818,
  "perCollins": 4819,
  "tell": 4820,
  " Control": 4821,
  " fertil": 4822,
  "ibrary": 4823,
  " continued": 4824,
  " epidemics": 4825,
  " violence": 4826,
  " thinkers": 4827,
  "uded": 4828,
  "Tr": 4829,
  " Ebola": 4830,
  "quest": 4831,
  " biotechnology": 4832,
  " worst": 4833,
  " recently": 4834,
  "avy": 4835,
  "dr": 4836,
  "ensive": 4837,
  " offic": 4838,
  " weak": 4839,
  "oard": 4840,
  "arter": 4841,
  " losing": 4842,
  " experienced": 4843,
  "net": 4844,
  " hungry": 4845,
  " sleep": 4846,
  "rance": 4847,
  "Today": 4848,
  " expected": 4849,
  " ideal": 4850,
  "upt": 4851,
  " Stock": 4852,
  " sus": 4853,
  "exist": 4854,
  " angels": 4855,
  "exico": 4856,
  " mult": 4857,
  "po": 4858,
  " neighbours": 4859,
  " Te": 4860,
  "ipe": 4861,
  " families": 4862,
  " houses": 4863,
  "250": 4864,
  " isol": 4865,
  " smaller": 4866,
  "has": 4867,
  "prov": 4868,
  " successful": 4869,
  "complete": 4870,
  " thanks": 4871,
  "ican": 4872,
  " mysterious": 4873,
  " medicines": 4874,
  " condition": 4875,
  "rather": 4876,
  " lar": 4877,
  " larger": 4878,
  " majority": 4879,
  " relatively": 4880,
  " cous": 4881,
  " accum": 4882,
  "ounced": 4883,
  "emies": 4884,
  " zero": 4885,
  " inev": 4886,
  " reaction": 4887,
  " struggle": 4888,
  " simultaneously": 4889,
  " service": 4890,
  " International": 4891,
  " crime": 4892,
  " dangerous": 4893,
  " Pre": 4894,
  " Cal": 4895,
  "-tech": 4896,
  "icrosoft": 4897,
  " products": 4898,
  "ipp": 4899,
  "azil": 4900,
  " stage": 4901,
  "-st": 4902,
  " Angel": 4903,
  " Korea": 4904,
  "etime": 4905,
  "ammed": 4906,
  " seventy": 4907,
  " kings": 4908,
  " situation": 4909,
  " Afghan": 4910,
  " sick": 4911,
  " warming": 4912,
  " strive": 4913,
  " pus": 4914,
  " prosperity": 4915,
  " parl": 4916,
  " constit": 4917,
  "ainst": 4918,
  " rabbis": 4919,
  "icted": 4920,
  " running": 4921,
  "iod": 4922,
  "eter": 4923,
  " den": 4924,
  "rene": 4925,
  "220": 4926,
  "ora": 4927,
  " Street": 4928,
  " runs": 4929,
  " structure": 4930,
  " spend": 4931,
  " Mao": 4932,
  "arles": 4933,
  " Its": 4934,
  " attack": 4935,
  " dyn": 4936,
  "want": 4937,
  "phony": 4938,
  " glory": 4939,
  " sacrifice": 4940,
  "lasting": 4941,
  " paradise": 4942,
  "onies": 4943,
  " eld": 4944,
  " purpose": 4945,
  "DP": 4946,
  "she": 4947,
  " teachers": 4948,
  "children": 4949,
  " wasn": 4950,
  " stronger": 4951,
  " Ot": 4952,
  " ensure": 4953,
  " surely": 4954,
  " recomm": 4955,
  " stress": 4956,
  " bigger": 4957,
  " la": 4958,
  "psych": 4959,
  " Dr": 4960,
  "determ": 4961,
  "him": 4962,
  " goal": 4963,
  " dire": 4964,
  "oooo": 4965,
  " electricity": 4966,
  " generations": 4967,
  "irrel": 4968,
  "ners": 4969,
  " broad": 4970,
  " connected": 4971,
  "inner": 4972,
  "92": 4973,
  " horm": 4974,
  " influence": 4975,
  " principle": 4976,
  " compan": 4977,
  " acceler": 4978,
  " earlier": 4979,
  " ice": 4980,
  "All": 4981,
  "necess": 4982,
  "arth": 4983,
  " directly": 4984,
  " wear": 4985,
  "redict": 4986,
  "cend": 4987,
  " telling": 4988,
  " punish": 4989,
  " send": 4990,
  " creating": 4991,
  " robots": 4992,
  " upgraded": 4993,
  "relevant": 4994,
  " belong": 4995,
  "cale": 4996,
  " opening": 4997,
  " lat": 4998,
  " latest": 4999,
  " silence": 5000,
  " tried": 5001,
  " underst": 5002,
  " superhuman": 5003,
  " Medic": 5004,
  " leads": 5005,
  " Paul": 5006,
  " Suppose": 5007,
  "vention": 5008,
  " forb": 5009,
  "arad": 5010,
  "ifesto": 5011,
  "lete": 5012,
  "Marx": 5013,
  " ruled": 5014,
  " Ac": 5015,
  " English": 5016,
  "-class": 5017,
  "certain": 5018,
  " industry": 5019,
  " House": 5020,
  "pson": 5021,
  "unt": 5022,
  "kin": 5023,
  "igins": 5024,
  "-blood": 5025,
  " difference": 5026,
  "house": 5027,
  "65": 5028,
  "spect": 5029,
  " text": 5030,
  " trib": 5031,
  " involved": 5032,
  " alike": 5033,
  "aka": 5034,
  " reports": 5035,
  " bc": 5036,
  " rept": 5037,
  "esis": 5038,
  " red": 5039,
  " pen": 5040,
  " piglets": 5041,
  " skills": 5042,
  " variety": 5043,
  " jo": 5044,
  "Whereas": 5045,
  " fr": 5046,
  " ignor": 5047,
  "231": 5048,
  " vending": 5049,
  " ban": 5050,
  " calculations": 5051,
  " Dam": 5052,
  "esus": 5053,
  "whel": 5054,
  " discipl": 5055,
  " aband": 5056,
  " abandon": 5057,
  " series": 5058,
  " theist": 5059,
  " myths": 5060,
  " crocod": 5061,
  "dess": 5062,
  " interpret": 5063,
  " showed": 5064,
  "hism": 5065,
  "phas": 5066,
  "ierarch": 5067,
  " opin": 5068,
  " Research": 5069,
  "hor": 5070,
  " stra": 5071,
  " straight": 5072,
  "Revolution": 5073,
  "ishes": 5074,
  " humanists": 5075,
  " accepted": 5076,
  " laboratory": 5077,
  " Gall": 5078,
  " absolute": 5079,
  " Alternative": 5080,
  " contract": 5081,
  " possibly": 5082,
  "Evolution": 5083,
  " veh": 5084,
  "dog": 5085,
  " explanation": 5086,
  " fMRI": 5087,
  " traffic": 5088,
  " term": 5089,
  "-up": 5090,
  " maybe": 5091,
  "Pro": 5092,
  " tests": 5093,
  " wind": 5094,
  " recognise": 5095,
  " Self": 5096,
  "aims": 5097,
  " Party": 5098,
  " Romania": 5099,
  "arest": 5100,
  " TV": 5101,
  "aires": 5102,
  " encounter": 5103,
  "tim": 5104,
  " chicken": 5105,
  "asc": 5106,
  "stories": 5107,
  " bak": 5108,
  " Republic": 5109,
  "son": 5110,
  " fictional": 5111,
  " Sumer": 5112,
  " brand": 5113,
  " Nile": 5114,
  " invention": 5115,
  " algorithmic": 5116,
  " standard": 5117,
  "187": 5118,
  " Sousa": 5119,
  "endes": 5120,
  "oloc": 5121,
  "criptures": 5122,
  " accurate": 5123,
  "88": 5124,
  " grows": 5125,
  "abyl": 5126,
  "abylon": 5127,
  " clin": 5128,
  " package": 5129,
  " Dem": 5130,
  " invisible": 5131,
  "iberals": 5132,
  " Martin": 5133,
  " Donation": 5134,
  "315": 5135,
  " judgement": 5136,
  "oren": 5137,
  "zo": 5138,
  "custom": 5139,
  "Ber": 5140,
  "160": 5141,
  " therapist": 5142,
  " Jean": 5143,
  " Lea": 5144,
  "kel": 5145,
  " Mark": 5146,
  " Comput": 5147,
  " random": 5148,
  "ington": 5149,
  " Sally": 5150,
  " Department": 5151,
  "ahneman": 5152,
  " Lu": 5153,
  "vard": 5154,
  "47": 5155,
  " Cope": 5156,
  " EMI": 5157,
  "89": 5158,
  "67": 5159,
  " Ed": 5160,
  " Market": 5161,
  "-Things": 5162,
  "/health": 5163,
  " Meg": 5164,
  "erspectives": 5165,
  "95": 5166,
  "nytimes": 5167,
  "269": 5168,
  " Rout": 5169,
  " Routledge": 5170,
  "102": 5171,
  " Aut": 5172,
  "393": 5173,
  "242": 5174,
  "233": 5175,
  "351": 5176,
  "263": 5177,
  "276": 5178,
  " teacher": 5179,
  "enk": 5180,
  " taught": 5181,
  "dd": 5182,
  "pling": 5183,
  " mush": 5184,
  "occ": 5185,
  "amine": 5186,
  "perfect": 5187,
  " amazing": 5188,
  "long": 5189,
  "imin": 5190,
  " conflicts": 5191,
  " carried": 5192,
  " ones": 5193,
  " severe": 5194,
  " infinite": 5195,
  " occup": 5196,
  " appe": 5197,
  " hors": 5198,
  " horses": 5199,
  " flows": 5200,
  "reets": 5201,
  " Sc": 5202,
  " inhabit": 5203,
  "Most": 5204,
  " holid": 5205,
  " haven": 5206,
  " tor": 5207,
  " strike": 5208,
  " except": 5209,
  "astrop": 5210,
  " causes": 5211,
  " expectancy": 5212,
  " knowing": 5213,
  " weeks": 5214,
  " Che": 5215,
  " compared": 5216,
  "ogens": 5217,
  " week": 5218,
  " England": 5219,
  " demons": 5220,
  " deadly": 5221,
  "lands": 5222,
  " Up": 5223,
  " Francisco": 5224,
  " cells": 5225,
  "ugees": 5226,
  "atan": 5227,
  " consult": 5228,
  " collaps": 5229,
  "158": 5230,
  "rodu": 5231,
  " visitors": 5232,
  " supply": 5233,
  "unprecedented": 5234,
  "asures": 5235,
  " victims": 5236,
  "Af": 5237,
  " esp": 5238,
  " community": 5239,
  "gest": 5240,
  "heart": 5241,
  " waiting": 5242,
  " mutations": 5243,
  " chemical": 5244,
  " treatments": 5245,
  "-rob": 5246,
  " enemies": 5247,
  "ifying": 5248,
  "icism": 5249,
  " defeat": 5250,
  "uthless": 5251,
  "future": 5252,
  " committed": 5253,
  "abet": 5254,
  " Silicon": 5255,
  "gener": 5256,
  "There": 5257,
  " Pol": 5258,
  " Brazil": 5259,
  " strate": 5260,
  "Ind": 5261,
  " cyber": 5262,
  "countr": 5263,
  " bombs": 5264,
  "iner": 5265,
  "odes": 5266,
  "fr": 5267,
  " tempt": 5268,
  " dominate": 5269,
  "iolence": 5270,
  " foreign": 5271,
  " tries": 5272,
  " depends": 5273,
  "ittle": 5274,
  " message": 5275,
  "acles": 5276,
  " arguing": 5277,
  "forms": 5278,
  " vac": 5279,
  " carefully": 5280,
  " explore": 5281,
  " danger": 5282,
  " tast": 5283,
  " misery": 5284,
  "upgr": 5285,
  "global": 5286,
  "aper": 5287,
  " afterlife": 5288,
  " balance": 5289,
  "Modern": 5290,
  "inger": 5291,
  " period": 5292,
  " youth": 5293,
  "comp": 5294,
  "Such": 5295,
  " shared": 5296,
  "reprene": 5297,
  " Fifth": 5298,
  " sixty": 5299,
  " Her": 5300,
  " harder": 5301,
  "ichel": 5302,
  "struct": 5303,
  " pull": 5304,
  "uls": 5305,
  " Right": 5306,
  "ece": 5307,
  "opher": 5308,
  " Epicurus": 5309,
  " waste": 5310,
  " size": 5311,
  " welfare": 5312,
  "-being": 5313,
  "otic": 5314,
  "build": 5315,
  " paying": 5316,
  " centralised": 5317,
  ".m": 5318,
  "ione": 5319,
  " liberty": 5320,
  " San": 5321,
  " dissatisf": 5322,
  "vey": 5323,
  "product": 5324,
  " increas": 5325,
  " recommend": 5326,
  "suffer": 5327,
  " Americans": 5328,
  "computers": 5329,
  " scept": 5330,
  " joy": 5331,
  " decisive": 5332,
  " pie": 5333,
  " clean": 5334,
  " Japanese": 5335,
  " easier": 5336,
  "dep": 5337,
  " improve": 5338,
  " ball": 5339,
  "odox": 5340,
  "nothing": 5341,
  "thous": 5342,
  "verse": 5343,
  "eper": 5344,
  " television": 5345,
  "lebr": 5346,
  " match": 5347,
  " org": 5348,
  "icates": 5349,
  " occas": 5350,
  " ped": 5351,
  "ideo": 5352,
  " enjoying": 5353,
  "fall": 5354,
  "undane": 5355,
  "rooms": 5356,
  "They": 5357,
  " forget": 5358,
  " Ec": 5359,
  "isations": 5360,
  "fortable": 5361,
  " devices": 5362,
  "contr": 5363,
  " fiction": 5364,
  " requires": 5365,
  "400": 5366,
  " approach": 5367,
  " virtual": 5368,
  " wise": 5369,
  " promises": 5370,
  " Israel": 5371,
  "pace": 5372,
  "-computer": 5373,
  " irrelevant": 5374,
  " contrib": 5375,
  " devout": 5376,
  "anderth": 5377,
  "unter": 5378,
  " visit": 5379,
  " scientist": 5380,
  "ennis": 5381,
  " breakthroughs": 5382,
  "piec": 5383,
  "aling": 5384,
  " Medicine": 5385,
  "abled": 5386,
  " devoted": 5387,
  "aire": 5388,
  "spring": 5389,
  " Blo": 5390,
  "regard": 5391,
  "equality": 5392,
  "unction": 5393,
  " functions": 5394,
  "tical": 5395,
  "nam": 5396,
  " Clint": 5397,
  "101": 5398,
  "emin": 5399,
  "idden": 5400,
  "cious": 5401,
  "stat": 5402,
  "claimed": 5403,
  " played": 5404,
  " conce": 5405,
  " hon": 5406,
  " Homer": 5407,
  " Muslim": 5408,
  " company": 5409,
  "ilem": 5410,
  " conclusion": 5411,
  " III": 5412,
  "usions": 5413,
  "zar": 5414,
  " reflected": 5415,
  " lions": 5416,
  " ecology": 5417,
  "billion": 5418,
  "jo": 5419,
  " extinction": 5420,
  " separated": 5421,
  "imates": 5422,
  "sim": 5423,
  " gap": 5424,
  " elephants": 5425,
  " male": 5426,
  "key": 5427,
  "owing": 5428,
  "ns": 5429,
  " farming": 5430,
  " produced": 5431,
  " pressures": 5432,
  " sows": 5433,
  "controlled": 5434,
  "produce": 5435,
  "ios": 5436,
  "ocked": 5437,
  "-human": 5438,
  "cal": 5439,
  "oup": 5440,
  " forth": 5441,
  " bananas": 5442,
  "ati": 5443,
  "achine": 5444,
  "igs": 5445,
  " overwhel": 5446,
  " argued": 5447,
  "istical": 5448,
  "azine": 5449,
  " hour": 5450,
  "Infant": 5451,
  " cut": 5452,
  "irs": 5453,
  "religions": 5454,
  " turning": 5455,
  " drama": 5456,
  "Christ": 5457,
  " driver": 5458,
  " deluge": 5459,
  "ki": 5460,
  " Ha": 5461,
  " rabbi": 5462,
  "compass": 5463,
  " emphas": 5464,
  " property": 5465,
  " physics": 5466,
  "annah": 5467,
  "ports": 5468,
  " write": 5469,
  "ingu": 5470,
  " salvation": 5471,
  " MA": 5472,
  " implies": 5473,
  "sem": 5474,
  " actual": 5475,
  " neuron": 5476,
  " rap": 5477,
  " Pres": 5478,
  "Consequently": 5479,
  " Dan": 5480,
  "ste": 5481,
  " signatures": 5482,
  " Turing": 5483,
  " passed": 5484,
  "won": 5485,
  " appl": 5486,
  "elfare": 5487,
  "49": 5488,
  "cription": 5489,
  "Psych": 5490,
  " unf": 5491,
  "olphins": 5492,
  " wat": 5493,
  " toolm": 5494,
  "Social": 5495,
  "Commun": 5496,
  "communist": 5497,
  " organise": 5498,
  "aganda": 5499,
  "yram": 5500,
  "Am": 5501,
  "ygmy": 5502,
  " followers": 5503,
  " orders": 5504,
  " independ": 5505,
  "ffects": 5506,
  " Nove": 5507,
  " Novem": 5508,
  " November": 5509,
  " General": 5510,
  " fictions": 5511,
  " Hen": 5512,
  " lands": 5513,
  " taste": 5514,
  " electronic": 5515,
  "religion": 5516,
  " Inc": 5517,
  " kingdoms": 5518,
  " analyse": 5519,
  " Protest": 5520,
  " Fact": 5521,
  "actical": 5522,
  "perial": 5523,
  " books": 5524,
  " intellect": 5525,
  " Harr": 5526,
  "axim": 5527,
  " fox": 5528,
  "ampire": 5529,
  " Justice": 5530,
  " emissions": 5531,
  "-J": 5532,
  "acques": 5533,
  " amounts": 5534,
  " teach": 5535,
  " formula": 5536,
  "alter": 5537,
  "heres": 5538,
  " Merkel": 5539,
  " Chuck": 5540,
  " Berry": 5541,
  "perience": 5542,
  " sam": 5543,
  "ashington": 5544,
  "TO": 5545,
  "182": 5546,
  "udan": 5547,
  " detect": 5548,
  "-brain": 5549,
  "85": 5550,
  " Steven": 5551,
  "179": 5552,
  "igital": 5553,
  "AL": 5554,
  "post": 5555,
  "EI": 5556,
  "EIR": 5557,
  "EIRD": 5558,
  " Su": 5559,
  " retr": 5560,
  "149": 5561,
  "-cent": 5562,
  ".the": 5563,
  "183": 5564,
  " Trans": 5565,
  "71": 5566,
  " Ol": 5567,
  " Sur": 5568,
  "51": 5569,
  "afaun": 5570,
  " Ext": 5571,
  "159": 5572,
  "306": 5573,
  "225": 5574,
  "82": 5575,
  "304": 5576,
  "248": 5577,
  "388": 5578,
  "157": 5579,
  "381": 5580,
  "161": 5581,
  "322": 5582,
  "253": 5583,
  "375": 5584,
  "294": 5585,
  "397": 5586,
  "370": 5587,
  " Anthropocene": 5588,
  " Humanist": 5589,
  "oupling": 5590,
  " Publis": 5591,
  "Science": 5592,
  " millennium": 5593,
  "same": 5594,
  "systems": 5595,
  " resc": 5596,
  " promise": 5597,
  " eating": 5598,
  " suicide": 5599,
  "Don": 5600,
  " scale": 5601,
  "yria": 5602,
  "raq": 5603,
  " edge": 5604,
  " malnutrition": 5605,
  " heavy": 5606,
  " resulted": 5607,
  "common": 5608,
  "too": 5609,
  " mad": 5610,
  "having": 5611,
  " somewhat": 5612,
  " onto": 5613,
  " streets": 5614,
  "tles": 5615,
  " whatever": 5616,
  "ouis": 5617,
  "IV": 5618,
  "During": 5619,
  " areas": 5620,
  "plan": 5621,
  "cies": 5622,
  " floods": 5623,
  "earth": 5624,
  " ts": 5625,
  " international": 5626,
  "bal": 5627,
  " lots": 5628,
  " millennia": 5629,
  " routine": 5630,
  " eighteenth": 5631,
  "diseases": 5632,
  " pil": 5633,
  " somewhere": 5634,
  "rium": 5635,
  " Arch": 5636,
  "cu": 5637,
  " island": 5638,
  " bomb": 5639,
  " infected": 5640,
  "With": 5641,
  "ctober": 5642,
  "olis": 5643,
  " Within": 5644,
  " alive": 5645,
  " Cap": 5646,
  " Sub": 5647,
  "make": 5648,
  " antibiotics": 5649,
  " Organization": 5650,
  " counter": 5651,
  " hospital": 5652,
  " previously": 5653,
  " afford": 5654,
  "ihood": 5655,
  " Under": 5656,
  " guar": 5657,
  " guarant": 5658,
  "Do": 5659,
  " efficiently": 5660,
  " type": 5661,
  "istant": 5662,
  "-robots": 5663,
  "organisms": 5664,
  " globe": 5665,
  " inevitable": 5666,
  "anch": 5667,
  "herent": 5668,
  " ideology": 5669,
  " Jungle": 5670,
  " granted": 5671,
  "arious": 5672,
  "500": 5673,
  "iforn": 5674,
  "ifornia": 5675,
  " prev": 5676,
  " soft": 5677,
  "government": 5678,
  "idn": 5679,
  " places": 5680,
  " warfare": 5681,
  " effectively": 5682,
  " fought": 5683,
  " controll": 5684,
  " fired": 5685,
  " fault": 5686,
  "oscow": 5687,
  " via": 5688,
  " total": 5689,
  "fund": 5690,
  " trapped": 5691,
  "eared": 5692,
  " seriously": 5693,
  " exter": 5694,
  " reduce": 5695,
  " toler": 5696,
  "wise": 5697,
  "growth": 5698,
  " climate": 5699,
  "prove": 5700,
  " enorm": 5701,
  " enormous": 5702,
  "level": 5703,
  " deus": 5704,
  " Declaration": 5705,
  " Rights": 5706,
  "always": 5707,
  " sanctified": 5708,
  "ysical": 5709,
  "tery": 5710,
  "blems": 5711,
  " wait": 5712,
  " couple": 5713,
  "ocks": 5714,
  "olicy": 5715,
  " limited": 5716,
  "urz": 5717,
  "urzwe": 5718,
  "urzweil": 5719,
  "entures": 5720,
  " investment": 5721,
  " brave": 5722,
  " dismiss": 5723,
  " teen": 5724,
  " equality": 5725,
  "210": 5726,
  " receive": 5727,
  " treatment": 5728,
  " forty": 5729,
  " double": 5730,
  " falling": 5731,
  " married": 5732,
  "110": 5733,
  "ties": 5734,
  " relationship": 5735,
  " learning": 5736,
  " followed": 5737,
  " football": 5738,
  "138": 5739,
  " Charles": 5740,
  " realm": 5741,
  "engineer": 5742,
  "scientific": 5743,
  " harness": 5744,
  " elder": 5745,
  " Holly": 5746,
  " Gre": 5747,
  " king": 5748,
  " paid": 5749,
  " strengthen": 5750,
  "soldiers": 5751,
  " pione": 5752,
  "oyal": 5753,
  " sought": 5754,
  "vision": 5755,
  " happier": 5756,
  "John": 5757,
  " Mary": 5758,
  "airy": 5759,
  "ita": 5760,
  " GDP": 5761,
  " yardst": 5762,
  " nowadays": 5763,
  "estic": 5764,
  " satisfy": 5765,
  " contemporary": 5766,
  "today": 5767,
  " clot": 5768,
  " attain": 5769,
  " golden": 5770,
  "World": 5771,
  " glass": 5772,
  "ieving": 5773,
  " expectations": 5774,
  "entment": 5775,
  "success": 5776,
  " Mill": 5777,
  " abstr": 5778,
  "otion": 5779,
  " mid": 5780,
  " Sch": 5781,
  " direction": 5782,
  "coll": 5783,
  " celebr": 5784,
  " deeper": 5785,
  "turn": 5786,
  "doesn": 5787,
  " mates": 5788,
  "asing": 5789,
  " squirrel": 5790,
  "iring": 5791,
  " enjoyed": 5792,
  " rival": 5793,
  " interesting": 5794,
  "great": 5795,
  "scientists": 5796,
  "pair": 5797,
  " Jones": 5798,
  "iatric": 5799,
  " object": 5800,
  " neural": 5801,
  " courage": 5802,
  " stroke": 5803,
  " consum": 5804,
  " changing": 5805,
  "ulating": 5806,
  "mere": 5807,
  " Both": 5808,
  " activity": 5809,
  " spaces": 5810,
  " rewrit": 5811,
  "yborg": 5812,
  "older": 5813,
  "predict": 5814,
  "beings": 5815,
  " Greek": 5816,
  "arb": 5817,
  " grad": 5818,
  " inn": 5819,
  "idepressant": 5820,
  "ademic": 5821,
  "Who": 5822,
  "Second": 5823,
  " fright": 5824,
  "gins": 5825,
  " enabled": 5826,
  " egg": 5827,
  " Better": 5828,
  "cell": 5829,
  " select": 5830,
  " none": 5831,
  " Should": 5832,
  "ochond": 5833,
  " girl": 5834,
  "ification": 5835,
  " Russian": 5836,
  " inequality": 5837,
  " predictions": 5838,
  " obso": 5839,
  " obsolete": 5840,
  " insights": 5841,
  " former": 5842,
  " Clinton": 5843,
  " Communist": 5844,
  "cons": 5845,
  "raid": 5846,
  "course": 5847,
  " Third": 5848,
  " repeat": 5849,
  " chain": 5850,
  " president": 5851,
  " conquered": 5852,
  "usi": 5853,
  " quality": 5854,
  "stock": 5855,
  "lass": 5856,
  " Simpson": 5857,
  " dilem": 5858,
  "itation": 5859,
  " ideals": 5860,
  " contains": 5861,
  "poses": 5862,
  " flaw": 5863,
  " dominant": 5864,
  " fulfil": 5865,
  " looks": 5866,
  "igation": 5867,
  " scr": 5868,
  "ini": 5869,
  " holds": 5870,
  " Big": 5871,
  "engu": 5872,
  " birds": 5873,
  " extinct": 5874,
  " Yes": 5875,
  " principles": 5876,
  " whale": 5877,
  "elly": 5878,
  " Pers": 5879,
  "different": 5880,
  " distinct": 5881,
  " wood": 5882,
  "mamm": 5883,
  " archaic": 5884,
  " essential": 5885,
  "inding": 5886,
  " Nay": 5887,
  " department": 5888,
  "down": 5889,
  "second": 5890,
  "ruit": 5891,
  " plants": 5892,
  "authority": 5893,
  " Dom": 5894,
  "tect": 5895,
  " agriculture": 5896,
  "hand": 5897,
  "rec": 5898,
  " calls": 5899,
  "van": 5900,
  " playing": 5901,
  "rete": 5902,
  " naturally": 5903,
  "cles": 5904,
  "onstr": 5905,
  " useful": 5906,
  "117": 5907,
  "anging": 5908,
  " Does": 5909,
  "assion": 5910,
  " bats": 5911,
  " article": 5912,
  " seldom": 5913,
  " instance": 5914,
  " heard": 5915,
  "collect": 5916,
  " mix": 5917,
  "uel": 5918,
  "Egypt": 5919,
  "something": 5920,
  "guard": 5921,
  " parties": 5922,
  " goddess": 5923,
  " spin": 5924,
  "eh": 5925,
  "created": 5926,
  "145": 5927,
  "non": 5928,
  " tort": 5929,
  "create": 5930,
  " Archa": 5931,
  " crowd": 5932,
  "kay": 5933,
  " monothe": 5934,
  "thousands": 5935,
  " Darwin": 5936,
  " absolutely": 5937,
  " assem": 5938,
  "undreds": 5939,
  "orne": 5940,
  " electroc": 5941,
  " image": 5942,
  " jam": 5943,
  " collection": 5944,
  " rapid": 5945,
  " contem": 5946,
  " speech": 5947,
  "mat": 5948,
  " represent": 5949,
  " vehicles": 5950,
  " articles": 5951,
  " ethics": 5952,
  " argument": 5953,
  " realised": 5954,
  " signed": 5955,
  " weight": 5956,
  " statement": 5957,
  "61": 5958,
  "ogs": 5959,
  "He": 5960,
  " researc": 5961,
  " villages": 5962,
  " revealed": 5963,
  "placed": 5964,
  " toolmaking": 5965,
  " conquest": 5966,
  " thousand": 5967,
  " Int": 5968,
  "180": 5969,
  "ucharest": 5970,
  " wife": 5971,
  "ience": 5972,
  "/w": 5973,
  " police": 5974,
  " pointed": 5975,
  "mission": 5976,
  " anti": 5977,
  " players": 5978,
  "ailable": 5979,
  " pygmy": 5980,
  "money": 5981,
  " rational": 5982,
  " offered": 5983,
  " round": 5984,
  " cuc": 5985,
  " iron": 5986,
  " rebell": 5987,
  " threats": 5988,
  "acrific": 5989,
  "Me": 5990,
  " Each": 5991,
  " Land": 5992,
  " Christians": 5993,
  "azon": 5994,
  "istorical": 5995,
  "anna": 5996,
  " administ": 5997,
  "decisions": 5998,
  " Three": 5999,
  " Jul": 6000,
  " deeds": 6001,
  " sins": 6002,
  " Babylon": 6003,
  " adopt": 6004,
  " document": 6005,
  "ray": 6006,
  "should": 6007,
  " facts": 6008,
  "iritual": 6009,
  "dev": 6010,
  "uh": 6011,
  "igious": 6012,
  " Luther": 6013,
  "jud": 6014,
  " imperial": 6015,
  "131": 6016,
  "yle": 6017,
  " intellectual": 6018,
  " gaps": 6019,
  " Harris": 6020,
  " Columb": 6021,
  " advanced": 6022,
  " amount": 6023,
  "ployment": 6024,
  " Mod": 6025,
  " Er": 6026,
  " Syn": 6027,
  "arrow": 6028,
  " Manifesto": 6029,
  "within": 6030,
  "-Jacques": 6031,
  " Ethics": 6032,
  " sensitivity": 6033,
  "Sur": 6034,
  "162": 6035,
  "193": 6036,
  " musical": 6037,
  "ahdi": 6038,
  "189": 6039,
  " Origin": 6040,
  " distrib": 6041,
  " switch": 6042,
  "imulation": 6043,
  " Quix": 6044,
  "136": 6045,
  " baseball": 6046,
  " MIT": 6047,
  " biomet": 6048,
  " Bas": 6049,
  " Jose": 6050,
  " Joseph": 6051,
  ".w": 6052,
  " Lear": 6053,
  " Swartz": 6054,
  "-centric": 6055,
  "igm": 6056,
  " Books": 6057,
  " Bul": 6058,
  "fluen": 6059,
  "fluenza": 6060,
  "164": 6061,
  "363": 6062,
  " Robert": 6063,
  " Perspectives": 6064,
  "03": 6065,
  "/google": 6066,
  "54": 6067,
  "/article": 6068,
  "06": 6069,
  " Change": 6070,
  ".nytimes": 6071,
  "287": 6072,
  "58": 6073,
  "321": 6074,
  " Steiner": 6075,
  " Autom": 6076,
  " Automate": 6077,
  "245": 6078,
  "257": 6079,
  "05": 6080,
  "377": 6081,
  "367": 6082,
  "307": 6083,
  "266": 6084,
  "330": 6085,
  "313": 6086,
  "353": 6087,
  "359": 6088,
  "132": 6089,
  "251": 6090,
  "244": 6091,
  "176": 6092,
  "265": 6093,
  " Harari": 6094,
  " coff": 6095,
  "medieval": 6096,
  " rarely": 6097,
  " horiz": 6098,
  " closer": 6099,
  "oring": 6100,
  " luck": 6101,
  " driven": 6102,
  " official": 6103,
  " prices": 6104,
  "soul": 6105,
  " struck": 6106,
  " suffered": 6107,
  " inhabitants": 6108,
  "develop": 6109,
  "ety": 6110,
  " Mass": 6111,
  " opportunities": 6112,
  "ellow": 6113,
  "ference": 6114,
  " apoc": 6115,
  "astrophe": 6116,
  " advice": 6117,
  "fu": 6118,
  "After": 6119,
  " ceas": 6120,
  " ceaseless": 6121,
  " civilisation": 6122,
  " breed": 6123,
  " pathogens": 6124,
  "epidem": 6125,
  " era": 6126,
  " suspect": 6127,
  " contain": 6128,
  "/C": 6129,
  "lers": 6130,
  "illa": 6131,
  " smallpox": 6132,
  " rub": 6133,
  " magn": 6134,
  "million": 6135,
  " Haw": 6136,
  "uber": 6137,
  "small": 6138,
  "itherto": 6139,
  "ouring": 6140,
  " Argent": 6141,
  " cop": 6142,
  " mortality": 6143,
  " declared": 6144,
  " seemed": 6145,
  " massive": 6146,
  "Afric": 6147,
  " seemingly": 6148,
  " psychological": 6149,
  "ecially": 6150,
  " suggest": 6151,
  "treat": 6152,
  "upted": 6153,
  "ikel": 6154,
  "ikelihood": 6155,
  "Des": 6156,
  "aria": 6157,
  "Many": 6158,
  " germs": 6159,
  " mainly": 6160,
  " environment": 6161,
  "doctors": 6162,
  "doub": 6163,
  "ibiotic": 6164,
  " bloodst": 6165,
  " bion": 6166,
  " bionic": 6167,
  " October": 6168,
  "pond": 6169,
  " dangers": 6170,
  "contin": 6171,
  " Throughout": 6172,
  "polit": 6173,
  " room": 6174,
  "moment": 6175,
  "ken": 6176,
  "abetes": 6177,
  "ivable": 6178,
  " peaceful": 6179,
  "-based": 6180,
  "ufact": 6181,
  "China": 6182,
  " California": 6183,
  " dollars": 6184,
  " hi": 6185,
  " giants": 6186,
  " Apple": 6187,
  " software": 6188,
  "going": 6189,
  "Germany": 6190,
  "stances": 6191,
  " scenario": 6192,
  " Phil": 6193,
  " fantasy": 6194,
  " strategy": 6195,
  "ago": 6196,
  " shut": 6197,
  " distance": 6198,
  " controlling": 6199,
  "kh": 6200,
  " emperors": 6201,
  " sooner": 6202,
  "breaking": 6203,
  "apable": 6204,
  " Moscow": 6205,
  " qual": 6206,
  "-C": 6207,
  " chaos": 6208,
  " fly": 6209,
  " Afghanistan": 6210,
  " extermin": 6211,
  " accom": 6212,
  " bound": 6213,
  " entirely": 6214,
  " raw": 6215,
  " myri": 6216,
  " myriad": 6217,
  " bankers": 6218,
  " Having": 6219,
  " saved": 6220,
  " grip": 6221,
  "Re": 6222,
  " stops": 6223,
  "problems": 6224,
  " ,": 6225,
  "Pr": 6226,
  " genet": 6227,
  " nanotechnology": 6228,
  " asks": 6229,
  "ancer": 6230,
  "icip": 6231,
  " minor": 6232,
  " speak": 6233,
  " ambit": 6234,
  " ambitious": 6235,
  " Using": 6236,
  " analog": 6237,
  "repreneurs": 6238,
  "already": 6239,
  " mort": 6240,
  " Which": 6241,
  "riages": 6242,
  "still": 6243,
  " journalist": 6244,
  " Vict": 6245,
  "een": 6246,
  "angel": 6247,
  " jungle": 6248,
  " Ser": 6249,
  "probably": 6250,
  " dynam": 6251,
  " ideological": 6252,
  "commit": 6253,
  " profits": 6254,
  " exciting": 6255,
  "pay": 6256,
  " everlasting": 6257,
  " artistic": 6258,
  " screen": 6259,
  " Hollywood": 6260,
  " laboratories": 6261,
  "confl": 6262,
  " ahead": 6263,
  " drives": 6264,
  " miser": 6265,
  "entham": 6266,
  " established": 6267,
  " mathematics": 6268,
  " calculate": 6269,
  "command": 6270,
  " wound": 6271,
  " Otto": 6272,
  " Lake": 6273,
  " dairy": 6274,
  " dissatisfied": 6275,
  " Sing": 6276,
  "apore": 6277,
  "DH": 6278,
  " defined": 6279,
  " Zeal": 6280,
  " Zealand": 6281,
  "whereas": 6282,
  "average": 6283,
  "terday": 6284,
  " recognition": 6285,
  " neg": 6286,
  "iling": 6287,
  " transl": 6288,
  " biochemistry": 6289,
  "thodox": 6290,
  " bodily": 6291,
  " Nobody": 6292,
  " suffers": 6293,
  " tension": 6294,
  "agine": 6295,
  " team": 6296,
  " fill": 6297,
  " storm": 6298,
  " unexpect": 6299,
  " unexpected": 6300,
  "Similarly": 6301,
  " wonderful": 6302,
  " nice": 6303,
  "standing": 6304,
  " excit": 6305,
  " excitement": 6306,
  "haust": 6307,
  " Perhaps": 6308,
  " determined": 6309,
  " mundane": 6310,
  " hy": 6311,
  " performance": 6312,
  " lies": 6313,
  "dated": 6314,
  " Two": 6315,
  " connection": 6316,
  " Australian": 6317,
  "cules": 6318,
  " companies": 6319,
  " resh": 6320,
  " electrical": 6321,
  "ints": 6322,
  " issue": 6323,
  " definition": 6324,
  " producing": 6325,
  "necessary": 6326,
  "ems": 6327,
  " godlike": 6328,
  "atum": 6329,
  " rely": 6330,
  "-organic": 6331,
  " feet": 6332,
  " leaving": 6333,
  "geon": 6334,
  " moving": 6335,
  "enter": 6336,
  " micro": 6337,
  "ords": 6338,
  " altogether": 6339,
  " replaced": 6340,
  "revolution": 6341,
  "completely": 6342,
  "athom": 6343,
  " implications": 6344,
  " uphe": 6345,
  " grasp": 6346,
  "sub": 6347,
  " sounds": 6348,
  " descend": 6349,
  " spr": 6350,
  "fortun": 6351,
  " complicated": 6352,
  "faces": 6353,
  "ibilities": 6354,
  " becoming": 6355,
  " Neanderth": 6356,
  " tennis": 6357,
  " phone": 6358,
  "ension": 6359,
  "ushing": 6360,
  " seeing": 6361,
  " intr": 6362,
  " somehow": 6363,
  " legs": 6364,
  " enh": 6365,
  "gery": 6366,
  " offspring": 6367,
  "birth": 6368,
  " replac": 6369,
  " version": 6370,
  " tube": 6371,
  "position": 6372,
  " genius": 6373,
  "experim": 6374,
  "Of": 6375,
  " Parad": 6376,
  " banks": 6377,
  " behave": 6378,
  " mention": 6379,
  " Based": 6380,
  " ending": 6381,
  "alysis": 6382,
  "hard": 6383,
  "communism": 6384,
  " motto": 6385,
  " Capital": 6386,
  " pace": 6387,
  " Lawn": 6388,
  "vert": 6389,
  " battles": 6390,
  " observing": 6391,
  "pressed": 6392,
  " grass": 6393,
  " precious": 6394,
  " tur": 6395,
  " strictly": 6396,
  " row": 6397,
  " enth": 6398,
  "ux": 6399,
  "owed": 6400,
  " Spirit": 6401,
  "useum": 6402,
  " square": 6403,
  "abs": 6404,
  " logical": 6405,
  "apters": 6406,
  " resulting": 6407,
  "really": 6408,
  "integr": 6409,
  " cousins": 6410,
  "roads": 6411,
  " foundations": 6412,
  "ilosoph": 6413,
  "itness": 6414,
  " Egyptian": 6415,
  " deeply": 6416,
  "books": 6417,
  "Kh": 6418,
  " mortal": 6419,
  "steroid": 6420,
  " fixed": 6421,
  "made": 6422,
  " ocean": 6423,
  " mammoths": 6424,
  "Not": 6425,
  "iping": 6426,
  "throp": 6427,
  " concerned": 6428,
  " animist": 6429,
  " Nayaka": 6430,
  "anny": 6431,
  " hurt": 6432,
  "ferior": 6433,
  " Eden": 6434,
  "ruits": 6435,
  "itic": 6436,
  " listening": 6437,
  " types": 6438,
  " boars": 6439,
  " farms": 6440,
  "armers": 6441,
  "surv": 6442,
  " Evolutionary": 6443,
  " surround": 6444,
  "factory": 6445,
  " named": 6446,
  " crates": 6447,
  " concrete": 6448,
  " slight": 6449,
  "mother": 6450,
  "Europe": 6451,
  " concept": 6452,
  " Sl": 6453,
  "oons": 6454,
  "everything": 6455,
  " od": 6456,
  " correctly": 6457,
  " compassion": 6458,
  "sky": 6459,
  " images": 6460,
  " causing": 6461,
  "parents": 6462,
  " magazine": 6463,
  " isolated": 6464,
  "universe": 6465,
  "ivals": 6466,
  " syn": 6467,
  "inging": 6468,
  " rivers": 6469,
  " Jesus": 6470,
  " Egyptians": 6471,
  " proof": 6472,
  " painful": 6473,
  " Buddhism": 6474,
  " hierarch": 6475,
  " sell": 6476,
  " savannah": 6477,
  " Development": 6478,
  " disregard": 6479,
  " secre": 6480,
  " privile": 6481,
  " insp": 6482,
  " Alternatively": 6483,
  " dark": 6484,
  "light": 6485,
  " closely": 6486,
  " existed": 6487,
  " employed": 6488,
  " Rob": 6489,
  "cribe": 6490,
  " philosophy": 6491,
  "esthetics": 6492,
  " electrochemical": 6493,
  " dreaming": 6494,
  " emerge": 6495,
  "feeling": 6496,
  "sign": 6497,
  " shares": 6498,
  "evolutionary": 6499,
  " remembers": 6500,
  " contempl": 6501,
  " prior": 6502,
  "May": 6503,
  "la": 6504,
  " keeps": 6505,
  "sup": 6506,
  "acity": 6507,
  "ett": 6508,
  " engines": 6509,
  " stuff": 6510,
  " regimes": 6511,
  "orious": 6512,
  " someone": 6513,
  "biology": 6514,
  "band": 6515,
  " proto": 6516,
  " fifteen": 6517,
  "armacology": 6518,
  " winter": 6519,
  " narratives": 6520,
  "uv": 6521,
  " claims": 6522,
  "lever": 6523,
  " researchers": 6524,
  " board": 6525,
  " couldn": 6526,
  " presented": 6527,
  " Os": 6528,
  "usive": 6529,
  "udes": 6530,
  "ees": 6531,
  "arper": 6532,
  " flex": 6533,
  "cooper": 6534,
  " Bucharest": 6535,
  " Romanian": 6536,
  "ena": 6537,
  " audience": 6538,
  "tz": 6539,
  " quiet": 6540,
  " truly": 6541,
  " wished": 6542,
  " propaganda": 6543,
  "ocratic": 6544,
  " colleagues": 6545,
  " advantage": 6546,
  "vere": 6547,
  " intimate": 6548,
  "obos": 6549,
  " Bon": 6550,
  "whether": 6551,
  " Ul": 6552,
  " Game": 6553,
  "nob": 6554,
  " dollar": 6555,
  "ref": 6556,
  " cucumber": 6557,
  "comfortable": 6558,
  " shaping": 6559,
  " Bel": 6560,
  "118": 6561,
  "ader": 6562,
  "pon": 6563,
  "iest": 6564,
  " knight": 6565,
  " radio": 6566,
  "ictions": 6567,
  " papers": 6568,
  "-K": 6569,
  "En": 6570,
  "-know": 6571,
  "-knowing": 6572,
  "phis": 6573,
  " required": 6574,
  "artificial": 6575,
  " arch": 6576,
  " sho": 6577,
  " administr": 6578,
  " Mendes": 6579,
  "bureaucr": 6580,
  "yer": 6581,
  " educational": 6582,
  " overall": 6583,
  " supposed": 6584,
  "’an": 6585,
  " rif": 6586,
  " critical": 6587,
  " court": 6588,
  " judge": 6589,
  " pick": 6590,
  "Our": 6591,
  "poll": 6592,
  "Rel": 6593,
  "cel": 6594,
  " deals": 6595,
  " Protestant": 6596,
  " dogmas": 6597,
  "ortion": 6598,
  " repeatedly": 6599,
  "-tr": 6600,
  "144": 6601,
  "aditional": 6602,
  " gal": 6603,
  " maxim": 6604,
  "oler": 6605,
  "venant": 6606,
  " sects": 6607,
  " materials": 6608,
  "hi": 6609,
  " narrow": 6610,
  "law": 6611,
  " philosophical": 6612,
  "isten": 6613,
  " Good": 6614,
  " Stat": 6615,
  " Greg": 6616,
  "-dr": 6617,
  " Mountain": 6618,
  " socialists": 6619,
  " Italy": 6620,
  " Sym": 6621,
  " Symphony": 6622,
  " Mor": 6623,
  " militarily": 6624,
  "mann": 6625,
  " Sudan": 6626,
  " lasted": 6627,
  "ayananda": 6628,
  "gies": 6629,
  "freedom": 6630,
  " Free": 6631,
  "Animal": 6632,
  " Direct": 6633,
  " Kahneman": 6634,
  " volun": 6635,
  " volunte": 6636,
  " volunteers": 6637,
  "uration": 6638,
  "Sw": 6639,
  " Quixote": 6640,
  " Ben": 6641,
  " bits": 6642,
  " Species": 6643,
  " Harvard": 6644,
  "Press": 6645,
  "BM": 6646,
  "tersight": 6647,
  " program": 6648,
  "125": 6649,
  " Bach": 6650,
  " Public": 6651,
  "arson": 6652,
  "72": 6653,
  " biometric": 6654,
  " Study": 6655,
  " Likes": 6656,
  "ormative": 6657,
  "requency": 6658,
  "ihaly": 6659,
  "iatry": 6660,
  " Dataists": 6661,
  " Hy": 6662,
  " Freedom": 6663,
  " Pengu": 6664,
  " Penguin": 6665,
  " Bullet": 6666,
  " Bulletin": 6667,
  "358": 6668,
  "/how": 6669,
  " Influenza": 6670,
  " Anthony": 6671,
  " Studies": 6672,
  "170": 6673,
  "/f": 6674,
  " Post": 6675,
  "106": 6676,
  " Archae": 6677,
  "web": 6678,
  "/in": 6679,
  "(New": 6680,
  " Neuroscience": 6681,
  "142": 6682,
  ".eom": 6683,
  "-F": 6684,
  " Trends": 6685,
  "Neuro": 6686,
  "45": 6687,
  "afauna": 6688,
  "343": 6689,
  "171": 6690,
  "327": 6691,
  " retrieved": 6692,
  "103": 6693,
  "140": 6694,
  "332": 6695,
  "301": 6696,
  "165": 6697,
  "229": 6698,
  "93": 6699,
  "364": 6700,
  "336": 6701,
  "175": 6702,
  "376": 6703,
  "114": 6704,
  "172": 6705,
  "232": 6706,
  "354": 6707,
  "281": 6708,
  "uval": 6709,
  "HarperCollins": 6710,
  "gements": 6711,
  " vit": 6712,
  " Photo": 6713,
  " Library": 6714,
  "bing": 6715,
  " Rem": 6716,
  "Let": 6717,
  "changed": 6718,
  " integr": 6719,
  " solved": 6720,
  "hens": 6721,
  " presidents": 6722,
  "Os": 6723,
  " crises": 6724,
  " horizons": 6725,
  " providing": 6726,
  " Syria": 6727,
  " Iraq": 6728,
  " Biological": 6729,
  " Until": 6730,
  " below": 6731,
  " destroyed": 6732,
  " stup": 6733,
  " perished": 6734,
  " transport": 6735,
  " suffici": 6736,
  " populations": 6737,
  " filled": 6738,
  " dying": 6739,
  " ox": 6740,
  " Louis": 6741,
  " killing": 6742,
  " Fin": 6743,
  " diet": 6744,
  " ric": 6745,
  " wake": 6746,
  "France": 6747,
  " disast": 6748,
  "leg": 6749,
  " miracle": 6750,
  "inked": 6751,
  " bed": 6752,
  "ground": 6753,
  "133": 6754,
  " bacter": 6755,
  "antic": 6756,
  " fairies": 6757,
  "ada": 6758,
  "IA": 6759,
  " Mexico": 6760,
  "yard": 6761,
  " towns": 6762,
  " refugees": 6763,
  " Pen": 6764,
  " magic": 6765,
  "appro": 6766,
  " entered": 6767,
  "lan": 6768,
  "ropolis": 6769,
  " masters": 6770,
  " meas": 6771,
  "177": 6772,
  " James": 6773,
  "ubercul": 6774,
  "uberculosis": 6775,
  "Ep": 6776,
  " tren": 6777,
  " mines": 6778,
  " labourers": 6779,
  "andemic": 6780,
  "decades": 6781,
  " combination": 6782,
  "therefore": 6783,
  "iological": 6784,
  " gone": 6785,
  " improved": 6786,
  "aign": 6787,
  "Every": 6788,
  " alarm": 6789,
  " spir": 6790,
  "evertheless": 6791,
  " damage": 6792,
  " traged": 6793,
  " moved": 6794,
  "Despite": 6795,
  "each": 6796,
  " corner": 6797,
  "These": 6798,
  "path": 6799,
  "design": 6800,
  " announced": 6801,
  " nano": 6802,
  " bloodstream": 6803,
  " evolve": 6804,
  "ffective": 6805,
  " heads": 6806,
  "itial": 6807,
  " criticism": 6808,
  "div": 6809,
  " inherent": 6810,
  " ruthless": 6811,
  "according": 6812,
  "opt": 6813,
  " slaughter": 6814,
  "inded": 6815,
  "corpor": 6816,
  " acquire": 6817,
  " manufact": 6818,
  "240": 6819,
  " Microsoft": 6820,
  " buying": 6821,
  "olese": 6822,
  "think": 6823,
  "umstances": 6824,
  " Philipp": 6825,
  " Peace": 6826,
  "astern": 6827,
  " corporation": 6828,
  " aside": 6829,
  "isters": 6830,
  "except": 6831,
  " developments": 6832,
  "abil": 6833,
  "countries": 6834,
  " actors": 6835,
  " collide": 6836,
  "Throughout": 6837,
  "ustomed": 6838,
  " terrorism": 6839,
  "force": 6840,
  " finds": 6841,
  "add": 6842,
  "usse": 6843,
  " attacks": 6844,
  "oke": 6845,
  " reactions": 6846,
  " violent": 6847,
  "stop": 6848,
  " perpet": 6849,
  "twentieth": 6850,
  " Given": 6851,
  " carries": 6852,
  " vacu": 6853,
  "ilib": 6854,
  "ilibrium": 6855,
  "been": 6856,
  " sacrifices": 6857,
  " Would": 6858,
  " poet": 6859,
  " reduced": 6860,
  "immortality": 6861,
  "oured": 6862,
  " manifest": 6863,
  "iaments": 6864,
  " courts": 6865,
  "after": 6866,
  "against": 6867,
  " metaph": 6868,
  " embr": 6869,
  "nation": 6870,
  " figure": 6871,
  " pump": 6872,
  "uscript": 6873,
  " grant": 6874,
  " Grey": 6875,
  " Kurzweil": 6876,
  " Technology": 6877,
  "novation": 6878,
  " launched": 6879,
  "-bel": 6880,
  " cash": 6881,
  " Peter": 6882,
  " street": 6883,
  " chances": 6884,
  "arent": 6885,
  "isode": 6886,
  " careers": 6887,
  "profess": 6888,
  " obviously": 6889,
  " ninety": 6890,
  " Think": 6891,
  " stick": 6892,
  "alin": 6893,
  " ruling": 6894,
  "123": 6895,
  " proven": 6896,
  "olate": 6897,
  "aped": 6898,
  "ended": 6899,
  "everyone": 6900,
  " lifetime": 6901,
  " willing": 6902,
  "enjoy": 6903,
  " cer": 6904,
  " cerem": 6905,
  " elderly": 6906,
  " Happ": 6907,
  "def": 6908,
  " Greece": 6909,
  " apart": 6910,
  " miserable": 6911,
  " Jeremy": 6912,
  " Bentham": 6913,
  " aimed": 6914,
  " literate": 6915,
  " code": 6916,
  "rades": 6917,
  " swamp": 6918,
  " bureaucrats": 6919,
  " office": 6920,
  " chief": 6921,
  " Jeff": 6922,
  "lim": 6923,
  "ender": 6924,
  " produces": 6925,
  " survey": 6926,
  " increases": 6927,
  "suffering": 6928,
  "educ": 6929,
  " authoritarian": 6930,
  " annual": 6931,
  " stom": 6932,
  " stomach": 6933,
  " income": 6934,
  " rose": 6935,
  " overcoming": 6936,
  " radical": 6937,
  " orthodox": 6938,
  "went": 6939,
  "ression": 6940,
  "versely": 6941,
  " getting": 6942,
  " watching": 6943,
  " kiss": 6944,
  "apted": 6945,
  "edu": 6946,
  "anqu": 6947,
  " status": 6948,
  " mountains": 6949,
  " ^": 6950,
  " Ju": 6951,
  "sters": 6952,
  " advent": 6953,
  "orse": 6954,
  " arguments": 6955,
  "mies": 6956,
  " distress": 6957,
  " boo": 6958,
  " hormones": 6959,
  "mares": 6960,
  "event": 6961,
  " reported": 6962,
  " mole": 6963,
  " universities": 6964,
  " pharm": 6965,
  " Buddha": 6966,
  " meaningless": 6967,
  "ophers": 6968,
  "games": 6969,
  " smartphones": 6970,
  " smartphone": 6971,
  "emotions": 6972,
  " till": 6973,
  "connected": 6974,
  " implanted": 6975,
  "progr": 6976,
  " online": 6977,
  "Stock": 6978,
  " wave": 6979,
  "ervative": 6980,
  "intelligent": 6981,
  "virtual": 6982,
  " worlds": 6983,
  " biot": 6984,
  "avals": 6985,
  "fuci": 6986,
  " compre": 6987,
  " comprehen": 6988,
  " prediction": 6989,
  "mis": 6990,
  " consist": 6991,
  " descendants": 6992,
  " communicate": 6993,
  "spe": 6994,
  "pse": 6995,
  "fortunately": 6996,
  " sheep": 6997,
  " Alas": 6998,
  " breath": 6999,
  "increasing": 7000,
  " output": 7001,
  "’m": 7002,
  "gods": 7003,
  "onomy": 7004,
  " Thanks": 7005,
  " deity": 7006,
  " drinking": 7007,
  "onders": 7008,
  " genome": 7009,
  " interfaces": 7010,
  "arlie": 7011,
  " player": 7012,
  "beyond": 7013,
  "rie": 7014,
  " university": 7015,
  " organisations": 7016,
  "living": 7017,
  "perts": 7018,
  "First": 7019,
  " Differ": 7020,
  " vice": 7021,
  " absorb": 7022,
  "pieces": 7023,
  "iques": 7024,
  " defect": 7025,
  " Sex": 7026,
  " Nobel": 7027,
  "Yes": 7028,
  "andid": 7029,
  " carrying": 7030,
  "itochond": 7031,
  " separate": 7032,
  "asible": 7033,
  "nuclear": 7034,
  " Bloom": 7035,
  " purely": 7036,
  "arliament": 7037,
  " indicates": 7038,
  " push": 7039,
  " artists": 7040,
  " potentially": 7041,
  "before": 7042,
  " elites": 7043,
  " beat": 7044,
  " pal": 7045,
  " discussion": 7046,
  "Im": 7047,
  "iant": 7048,
  " prolet": 7049,
  "headed": 7050,
  " handful": 7051,
  "ietnam": 7052,
  " Ev": 7053,
  " defeated": 7054,
  " theore": 7055,
  "tically": 7056,
  "agricultural": 7057,
  "iation": 7058,
  " normally": 7059,
  " neck": 7060,
  "thereby": 7061,
  "Stone": 7062,
  "ijing": 7063,
  "public": 7064,
  " habit": 7065,
  " symb": 7066,
  " setting": 7067,
  " attr": 7068,
  "awns": 7069,
  " enthusi": 7070,
  "industrial": 7071,
  " church": 7072,
  " \n\n\n\n\n\n": 7073,
  "ris": 7074,
  "dream": 7075,
  " cultural": 7076,
  "car": 7077,
  " rock": 7078,
  " flawed": 7079,
  "based": 7080,
  " disintegr": 7081,
  " creed": 7082,
  "ographic": 7083,
  " film": 7084,
  "pop": 7085,
  " mostly": 7086,
  " awareness": 7087,
  "leist": 7088,
  "leistocene": 7089,
  " Off": 7090,
  " appearance": 7091,
  "izard": 7092,
  " asteroid": 7093,
  "rest": 7094,
  " area": 7095,
  " reacted": 7096,
  "ography": 7097,
  "rabb": 7098,
  "aveh": 7099,
  "alks": 7100,
  " automatically": 7101,
  " serpent": 7102,
  " Eve": 7103,
  " reptiles": 7104,
  " tribes": 7105,
  " Genesis": 7106,
  "ogue": 7107,
  "uthors": 7108,
  "erved": 7109,
  " heavenly": 7110,
  "animal": 7111,
  "term": 7112,
  "protect": 7113,
  " trem": 7114,
  "various": 7115,
  " mothers": 7116,
  " instinct": 7117,
  "swe": 7118,
  " territories": 7119,
  " ol": 7120,
  " gest": 7121,
  "ipped": 7122,
  " fulfilled": 7123,
  " Algorith": 7124,
  " reci": 7125,
  " doz": 7126,
  "using": 7127,
  "cribed": 7128,
  "tons": 7129,
  " mark": 7130,
  "onsider": 7131,
  " calculating": 7132,
  " probabilities": 7133,
  " probability": 7134,
  "estimate": 7135,
  " abstract": 7136,
  "anding": 7137,
  " spouses": 7138,
  "logical": 7139,
  " Pigs": 7140,
  "famil": 7141,
  "familiar": 7142,
  " Mamm": 7143,
  "generation": 7144,
  " whales": 7145,
  " psychologists": 7146,
  " Freud": 7147,
  "iled": 7148,
  "must": 7149,
  " bonds": 7150,
  " assumption": 7151,
  " everywhere": 7152,
  "umbers": 7153,
  " Creat": 7154,
  "Christian": 7155,
  " devote": 7156,
  " Luck": 7157,
  " founding": 7158,
  "interests": 7159,
  " creatures": 7160,
  "face": 7161,
  " Tal": 7162,
  " cover": 7163,
  " superiority": 7164,
  "orms": 7165,
  " opinions": 7166,
  " Years": 7167,
  " secrets": 7168,
  " lower": 7169,
  " okay": 7170,
  " spark": 7171,
  " distingu": 7172,
  " legal": 7173,
  " undermine": 7174,
  "story": 7175,
  "antum": 7176,
  "clear": 7177,
  " cher": 7178,
  "ey": 7179,
  "hundreds": 7180,
  " currently": 7181,
  " mindless": 7182,
  " howls": 7183,
  "makes": 7184,
  " scans": 7185,
  "looking": 7186,
  " selling": 7187,
  " Car": 7188,
  " additional": 7189,
  " ignorance": 7190,
  " firing": 7191,
  " adrenaline": 7192,
  " centre": 7193,
  " nerve": 7194,
  "mus": 7195,
  "hematical": 7196,
  " empir": 7197,
  " empirical": 7198,
  " ge": 7199,
  " join": 7200,
  " Daniel": 7201,
  " factories": 7202,
  "movements": 7203,
  "psychology": 7204,
  " predeterm": 7205,
  " predetermined": 7206,
  " Web": 7207,
  "merely": 7208,
  "221": 7209,
  "Turing": 7210,
  " Rats": 7211,
  " sceptics": 7212,
  " indicate": 7213,
  " burden": 7214,
  "comes": 7215,
  "hib": 7216,
  " parliament": 7217,
  "Ad": 7218,
  " &": 7219,
  "Behavior": 7220,
  " description": 7221,
  "-like": 7222,
  " momentary": 7223,
  "ache": 7224,
  " Swed": 7225,
  " opened": 7226,
  " straw": 7227,
  " arms": 7228,
  " overwhelmed": 7229,
  " Problem": 7230,
  " disag": 7231,
  "chimpanze": 7232,
  "angers": 7233,
  " watched": 7234,
  " mine": 7235,
  "akers": 7236,
  " Twenty": 7237,
  "superior": 7238,
  "asse": 7239,
  "-scale": 7240,
  " organised": 7241,
  "ulg": 7242,
  " Sec": 7243,
  "phone": 7244,
  "iks": 7245,
  "acked": 7246,
  "National": 7247,
  " leaders": 7248,
  " trium": 7249,
  " triumph": 7250,
  " hall": 7251,
  " bon": 7252,
  " finan": 7253,
  "amentally": 7254,
  " Ultim": 7255,
  " Ultimatum": 7256,
  "enture": 7257,
  " classical": 7258,
  "cap": 7259,
  " stone": 7260,
  "kingdom": 7261,
  "essed": 7262,
  "derick": 7263,
  " armed": 7264,
  " fasc": 7265,
  "things": 7266,
  "sacrific": 7267,
  "hell": 7268,
  " nationalism": 7269,
  " issu": 7270,
  " meaningful": 7271,
  " utter": 7272,
  "adin": 7273,
  "earable": 7274,
  " Grand": 7275,
  " knights": 7276,
  " iPh": 7277,
  " allows": 7278,
  "changes": 7279,
  "reality": 7280,
  " inspir": 7281,
  " dual": 7282,
  " Cognitive": 7283,
  "adv": 7284,
  " tit": 7285,
  "entities": 7286,
  " loans": 7287,
  " canals": 7288,
  " clothes": 7289,
  "araonic": 7290,
  " Memphis": 7291,
  " contained": 7292,
  " bureaucracy": 7293,
  " records": 7294,
  "opin": 7295,
  "criptions": 7296,
  " holding": 7297,
  "exp": 7298,
  " pyram": 7299,
  " Gorges": 7300,
  " visas": 7301,
  "ortug": 7302,
  " clock": 7303,
  " demands": 7304,
  " protests": 7305,
  " evaluate": 7306,
  " favourite": 7307,
  "odot": 7308,
  "odotus": 7309,
  " analysing": 7310,
  "-do": 7311,
  " factory": 7312,
  " block": 7313,
  "ocracy": 7314,
  "rupt": 7315,
  "iction": 7316,
  " markets": 7317,
  " premodern": 7318,
  "spiritual": 7319,
  " supernatural": 7320,
  "religious": 7321,
  " Religions": 7322,
  "give": 7323,
  "151": 7324,
  " door": 7325,
  "name": 7326,
  "uhamm": 7327,
  "uhammad": 7328,
  " abortion": 7329,
  " debates": 7330,
  " Dev": 7331,
  " guidel": 7332,
  "Constantine": 7333,
  "alla": 7334,
  " fourth": 7335,
  "317": 7336,
  "-H": 7337,
  "iah": 7338,
  " interpreted": 7339,
  "riors": 7340,
  " galax": 7341,
  " nationalists": 7342,
  "ultural": 7343,
  " covenant": 7344,
  " affair": 7345,
  " Wars": 7346,
  " allian": 7347,
  " alliance": 7348,
  " stagn": 7349,
  "ira": 7350,
  " foxes": 7351,
  "enders": 7352,
  " vampires": 7353,
  "gged": 7354,
  "iche": 7355,
  "capitalism": 7356,
  " Civil": 7357,
  " Synd": 7358,
  " internal": 7359,
  "Global": 7360,
  "January": 7361,
  "tech": 7362,
  "away": 7363,
  " chaotic": 7364,
  "top": 7365,
  "ousse": 7366,
  "ousseau": 7367,
  " professions": 7368,
  " marry": 7369,
  " La": 7370,
  "dist": 7371,
  " beholder": 7372,
  "uchamp": 7373,
  "Humanism": 7374,
  "Humanist": 7375,
  " Economics": 7376,
  "mental": 7377,
  "260": 7378,
  " Step": 7379,
  "vivor": 7380,
  " issues": 7381,
  " Walter": 7382,
  "nayers": 7383,
  "iu": 7384,
  "ilitary": 7385,
  " Vir": 7386,
  "liberalism": 7387,
  " Liberals": 7388,
  "rums": 7389,
  " rank": 7390,
  " pa": 7391,
  " heartbe": 7392,
  " heartbeat": 7393,
  " volume": 7394,
  " roll": 7395,
  "SA": 7396,
  " democracies": 7397,
  "keley": 7398,
  " Wood": 7399,
  "eminism": 7400,
  "individualism": 7401,
  " economically": 7402,
  "ailroads": 7403,
  " Dayananda": 7404,
  " distributed": 7405,
  " individualism": 7406,
  " determin": 7407,
  " button": 7408,
  "acker": 7409,
  "impl": 7410,
  " stimulators": 7411,
  "dee": 7412,
  "hemisp": 7413,
  "-end": 7414,
  " Borges": 7415,
  "agement": 7416,
  "209": 7417,
  " taxi": 7418,
  "Ob": 7419,
  "Deep": 7420,
  " teams": 7421,
  " drivers": 7422,
  " Ancient": 7423,
  " Annie": 7424,
  "ancreas": 7425,
  " Angelina": 7426,
  "omy": 7427,
  "eline": 7428,
  "-making": 7429,
  "vereign": 7430,
  " Co": 7431,
  " WEIRD": 7432,
  "https": 7433,
  ".Or": 7434,
  ".Org": 7435,
  " echoloc": 7436,
  " moth": 7437,
  "luc": 7438,
  "ysenk": 7439,
  "ysenko": 7440,
  " Sciences": 7441,
  " Open": 7442,
  "plo": 7443,
  "STO": 7444,
  "STOR": 7445,
  "04": 7446,
  " paradigm": 7447,
  "53": 7448,
  "63": 7449,
  " Economic": 7450,
  " William": 7451,
  " Publishers": 7452,
  " Drug": 7453,
  " Reviews": 7454,
  "Ant": 7455,
  "/n": 7456,
  " CN": 7457,
  ".cn": 7458,
  ".cnn": 7459,
  "09": 7460,
  ".gov": 7461,
  "235": 7462,
  " Current": 7463,
  " System": 7464,
  "uffington": 7465,
  "/;": 7466,
  "374": 7467,
  "Ass": 7468,
  " Megafauna": 7469,
  " Extinction": 7470,
  " Sus": 7471,
  " Cre": 7472,
  " Relations": 7473,
  "219": 7474,
  " Psychiatry": 7475,
  "/world": 7476,
  "?,": 7477,
  "215": 7478,
  " Compar": 7479,
  "334": 7480,
  "308": 7481,
  "146": 7482,
  "119": 7483,
  " Information": 7484,
  "372": 7485,
  "390": 7486,
  "324": 7487,
  "282": 7488,
  "369": 7489,
  "391": 7490,
  "392": 7491,
  "230": 7492,
  "349": 7493,
  "382": 7494,
  "241": 7495,
  "371": 7496,
  "selling": 7497,
  "\n\n\n": 7498,
  " Meaning": 7499,
  " Story": 7500,
  "omb": 7501,
  "oratory": 7502,
  " About": 7503,
  "opyright": 7504,
  " vitro": 7505,
  " mushroom": 7506,
  " wr": 7507,
  " coffee": 7508,
  "occup": 7509,
  "compre": 7510,
  "comprehens": 7511,
  "fight": 7512,
  "question": 7513,
  "billions": 7514,
  "mist": 7515,
  " sentence": 7516,
  " stupid": 7517,
  " Prov": 7518,
  " accounts": 7519,
  " described": 7520,
  "aying": 7521,
  "eat": 7522,
  " cats": 7523,
  "Other": 7524,
  "sl": 7525,
  " gran": 7526,
  " dro": 7527,
  "unch": 7528,
  " holiday": 7529,
  " saf": 7530,
  " safety": 7531,
  " separating": 7532,
  "urance": 7533,
  "network": 7534,
  " droughts": 7535,
  " starve": 7536,
  "short": 7537,
  " obtain": 7538,
  " occur": 7539,
  " regime": 7540,
  " Forward": 7541,
  " routinely": 7542,
  " Food": 7543,
  " apocaly": 7544,
  "ulous": 7545,
  " heading": 7546,
  " greatly": 7547,
  "uce": 7548,
  "mad": 7549,
  "rock": 7550,
  " breeding": 7551,
  " Asia": 7552,
  " started": 7553,
  "Med": 7554,
  "/A": 7555,
  " authorities": 7556,
  " prayers": 7557,
  "icious": 7558,
  " predators": 7559,
  " minus": 7560,
  " arr": 7561,
  "result": 7562,
  "152": 7563,
  " tick": 7564,
  " burst": 7565,
  "cat": 7566,
  "oca": 7567,
  "iests": 7568,
  "aths": 7569,
  "ashed": 7570,
  " bury": 7571,
  "population": 7572,
  " fleet": 7573,
  " blow": 7574,
  " exposed": 7575,
  " introdu": 7576,
  " tuberculosis": 7577,
  "sequent": 7578,
  " added": 7579,
  "oa": 7580,
  " regular": 7581,
  " reaching": 7582,
  " vaccinations": 7583,
  "medical": 7584,
  " campaign": 7585,
  "had": 7586,
  "HO": 7587,
  " stopped": 7588,
  "itially": 7589,
  "wide": 7590,
  "gency": 7591,
  "Africa": 7592,
  " dies": 7593,
  " immune": 7594,
  "posing": 7595,
  " especially": 7596,
  "aware": 7597,
  " effective": 7598,
  " likelihood": 7599,
  "fectious": 7600,
  "overcome": 7601,
  " fort": 7602,
  " hoping": 7603,
  " accumulate": 7604,
  " disco": 7605,
  " discovery": 7606,
  "high": 7607,
  " nav": 7608,
  " navig": 7609,
  " gaining": 7610,
  " investig": 7611,
  "lled": 7612,
  " stood": 7613,
  " governed": 7614,
  " Whenever": 7615,
  " invade": 7616,
  "gun": 7617,
  " importantly": 7618,
  "corporations": 7619,
  " immediate": 7620,
  "powers": 7621,
  " Simultaneously": 7622,
  " assets": 7623,
  "fields": 7624,
  "parts": 7625,
  "wanda": 7626,
  "neighb": 7627,
  " mob": 7628,
  " earned": 7629,
  " prevail": 7630,
  " Congolese": 7631,
  "peace": 7632,
  " Philippines": 7633,
  "udget": 7634,
  " defence": 7635,
  " finance": 7636,
  "agh": 7637,
  " (‘": 7638,
  " codes": 7639,
  " peac": 7640,
  " motiv": 7641,
  " destruction": 7642,
  "Law": 7643,
  "khov": 7644,
  " appeared": 7645,
  " accustomed": 7646,
  " parade": 7647,
  " display": 7648,
  "violence": 7649,
  " capt": 7650,
  "asion": 7651,
  " shop": 7652,
  " starts": 7653,
  "fundamental": 7654,
  "establish": 7655,
  "understanding": 7656,
  " challenges": 7657,
  " miracles": 7658,
  " exterminate": 7659,
  " Those": 7660,
  "defe": 7661,
  " vain": 7662,
  " sends": 7663,
  "plish": 7664,
  " appre": 7665,
  " appreci": 7666,
  " vacuum": 7667,
  "idences": 7668,
  " largely": 7669,
  " equilibrium": 7670,
  "big": 7671,
  " investors": 7672,
  " poetry": 7673,
  "levels": 7674,
  "current": 7675,
  " struggles": 7676,
  "upgrade": 7677,
  " Str": 7678,
  "ugg": 7679,
  " carry": 7680,
  "contemporary": 7681,
  "iversal": 7682,
  " UN": 7683,
  " wage": 7684,
  " downright": 7685,
  " insisted": 7686,
  " depicted": 7687,
  " shoulder": 7688,
  " finger": 7689,
  " Wa": 7690,
  " lung": 7691,
  "aches": 7692,
  " instructions": 7693,
  " manuscript": 7694,
  "image": 7695,
  "otherap": 7696,
  " precisely": 7697,
  " genetics": 7698,
  "become": 7699,
  " physic": 7700,
  " impression": 7701,
  " automatic": 7702,
  "heim": 7703,
  " examples": 7704,
  " mission": 7705,
  "-belie": 7706,
  " Ventures": 7707,
  "answer": 7708,
  " port": 7709,
  " analogy": 7710,
  " Pay": 7711,
  "inated": 7712,
  "estim": 7713,
  " fost": 7714,
  " opt": 7715,
  "prop": 7716,
  "gets": 7717,
  " walking": 7718,
  " immortal": 7719,
  " Unlike": 7720,
  " mortals": 7721,
  " anxious": 7722,
  " gam": 7723,
  "least": 7724,
  " raising": 7725,
  " episode": 7726,
  " circumstances": 7727,
  " professional": 7728,
  " reinvent": 7729,
  " schol": 7730,
  " sphere": 7731,
  "utin": 7732,
  "strong": 7733,
  " son": 7734,
  " prophecies": 7735,
  " bitter": 7736,
  "-se": 7737,
  " Isa": 7738,
  "Newton": 7739,
  " eighty": 7740,
  " Michel": 7741,
  "angelo": 7742,
  "-engineer": 7743,
  " encourage": 7744,
  " establishment": 7745,
  "discover": 7746,
  "uting": 7747,
  " assumed": 7748,
  "stit": 7749,
  " compose": 7750,
  " fu": 7751,
  " Allen": 7752,
  " career": 7753,
  " apartment": 7754,
  " nationalist": 7755,
  " refuse": 7756,
  "ift": 7757,
  " Without": 7758,
  "cluded": 7759,
  " founded": 7760,
  " teenagers": 7761,
  " von": 7762,
  " pioneered": 7763,
  "ensions": 7764,
  " Found": 7765,
  "pur": 7766,
  " pursue": 7767,
  "choice": 7768,
  "actually": 7769,
  " Singapore": 7770,
  "whose": 7771,
  " Ric": 7772,
  "riend": 7773,
  " comfort": 7774,
  "lives": 7775,
  " stable": 7776,
  "OO": 7777,
  " invested": 7778,
  " refr": 7779,
  " refriger": 7780,
  " refrigerators": 7781,
  " yesterday": 7782,
  " Cold": 7783,
  " trillion": 7784,
  "flood": 7785,
  "leph": 7786,
  " lifest": 7787,
  "angs": 7788,
  " Any": 7789,
  " fool": 7790,
  "prom": 7791,
  " winning": 7792,
  " Cup": 7793,
  " Final": 7794,
  " dread": 7795,
  "inian": 7796,
  "oooooo": 7797,
  " volcan": 7798,
  " hug": 7799,
  " Berlin": 7800,
  " reacting": 7801,
  " spine": 7802,
  " position": 7803,
  " rewards": 7804,
  "hemer": 7805,
  "hemeral": 7806,
  " blissful": 7807,
  " Techn": 7808,
  " rew": 7809,
  " nuts": 7810,
  "asm": 7811,
  " groundbreaking": 7812,
  " pra": 7813,
  " range": 7814,
  " tranqu": 7815,
  " tranquill": 7816,
  " pressing": 7817,
  " video": 7818,
  " exhaust": 7819,
  " despair": 7820,
  " bore": 7821,
  " remembering": 7822,
  " manipulate": 7823,
  "bioc": 7824,
  "deb": 7825,
  " occasional": 7826,
  "italin": 7827,
  "DHD": 7828,
  "attention": 7829,
  " original": 7830,
  "upils": 7831,
  " outdated": 7832,
  " altern": 7833,
  " Fear": 7834,
  " traum": 7835,
  " nightmares": 7836,
  "related": 7837,
  "asy": 7838,
  "ucy": 7839,
  "onds": 7840,
  " studying": 7841,
  " regulate": 7842,
  " calm": 7843,
  "aceut": 7844,
  "aceutical": 7845,
  "iminal": 7846,
  " crave": 7847,
  "achieve": 7848,
  "need": 7849,
  " accelerate": 7850,
  "Budd": 7851,
  " philosophers": 7852,
  " cream": 7853,
  "engineering": 7854,
  " organs": 7855,
  " relied": 7856,
  " merging": 7857,
  " insight": 7858,
  " transform": 7859,
  " spaceships": 7860,
  "onal": 7861,
  " rewrite": 7862,
  "holm": 7863,
  "ternet": 7864,
  "reading": 7865,
  " hub": 7866,
  " store": 7867,
  " disp": 7868,
  " shapes": 7869,
  " upheavals": 7870,
  " Confuci": 7871,
  "-sh": 7872,
  "sapiens": 7873,
  " comprehend": 7874,
  "Though": 7875,
  "sum": 7876,
  "anches": 7877,
  "mn": 7878,
  "mnip": 7879,
  "mnipot": 7880,
  " Ze": 7881,
  " grander": 7882,
  " specific": 7883,
  "bo": 7884,
  " Niger": 7885,
  "wu": 7886,
  " destination": 7887,
  "itter": 7888,
  " messages": 7889,
  " Old": 7890,
  " hearts": 7891,
  "berspace": 7892,
  " wonders": 7893,
  " pan": 7894,
  "grading": 7895,
  " identity": 7896,
  "rick": 7897,
  " Ido": 7898,
  " showing": 7899,
  " funds": 7900,
  " calling": 7901,
  " shield": 7902,
  " understands": 7903,
  " loss": 7904,
  " older": 7905,
  " Vi": 7906,
  " facial": 7907,
  "wealth": 7908,
  " embry": 7909,
  " meeting": 7910,
  " Dun": 7911,
  "movement": 7912,
  " eggs": 7913,
  "bab": 7914,
  " fut": 7915,
  "volves": 7916,
  " mitochond": 7917,
  " mitochondrial": 7918,
  " feasible": 7919,
  " Sa": 7920,
  "called": 7921,
  " allowing": 7922,
  "legal": 7923,
  " replacement": 7924,
  " gene": 7925,
  " justification": 7926,
  " reply": 7927,
  " momentous": 7928,
  " restrict": 7929,
  "technological": 7930,
  " guns": 7931,
  "Pre": 7932,
  " adult": 7933,
  "agger": 7934,
  " obliv": 7935,
  " forecast": 7936,
  "oxically": 7937,
  "function": 7938,
  " proletari": 7939,
  " spear": 7940,
  " Marxist": 7941,
  " classes": 7942,
  "gl": 7943,
  "marised": 7944,
  " slowly": 7945,
  " tom": 7946,
  " benefit": 7947,
  " predicting": 7948,
  " historians": 7949,
  " possibilities": 7950,
  "liber": 7951,
  " shake": 7952,
  "Stud": 7953,
  " differently": 7954,
  " horr": 7955,
  "itect": 7956,
  "Because": 7957,
  "beaut": 7958,
  " buildings": 7959,
  " demanded": 7960,
  "oor": 7961,
  "ateau": 7962,
  " college": 7963,
  " student": 7964,
  " sport": 7965,
  "iro": 7966,
  "ois": 7967,
  " lux": 7968,
  " swit": 7969,
  "/Sh": 7970,
  "/Shutter": 7971,
  "/Shutterstock": 7972,
  "Brid": 7973,
  "Bridg": 7974,
  "Bridgeman": 7975,
  "eches": 7976,
  " associ": 7977,
  " wide": 7978,
  " Arab": 7979,
  " require": 7980,
  " hij": 7981,
  "dest": 7982,
  " dilemmas": 7983,
  " Despite": 7984,
  " Due": 7985,
  " limits": 7986,
  " mechanisms": 7987,
  " destinations": 7988,
  " witness": 7989,
  " Humanism": 7990,
  " pharaohs": 7991,
  "ney": 7992,
  " confron": 7993,
  " border": 7994,
  "Scient": 7995,
  " agent": 7996,
  " tect": 7997,
  " plate": 7998,
  " producers": 7999,
  "adical": 8000,
  "aur": 8001,
  " strange": 8002,
  " confined": 8003,
  "spects": 8004,
  " unit": 8005,
  " trick": 8006,
  " understood": 8007,
  "erts": 8008,
  " coin": 8009,
  " Comp": 8010,
  " tro": 8011,
  " youngsters": 8012,
  " Rabb": 8013,
  "sequences": 8014,
  "host": 8015,
  " Naveh": 8016,
  " Indian": 8017,
  "kes": 8018,
  " inferior": 8019,
  " rejects": 8020,
  "king": 8021,
  " gathering": 8022,
  "sn": 8023,
  " disaster": 8024,
  "emale": 8025,
  " maintained": 8026,
  " prim": 8027,
  " core": 8028,
  " authors": 8029,
  " acknowledge": 8030,
  " Him": 8031,
  "iveness": 8032,
  " fewer": 8033,
  " searching": 8034,
  " shel": 8035,
  " shelter": 8036,
  "crocod": 8037,
  " factors": 8038,
  " forms": 8039,
  " ensuring": 8040,
  "theory": 8041,
  " instincts": 8042,
  "uous": 8043,
  " decrees": 8044,
  "-controlled": 8045,
  " reproduce": 8046,
  "iosity": 8047,
  " urges": 8048,
  " sow": 8049,
  "mut": 8050,
  " measuring": 8051,
  "imet": 8052,
  " suck": 8053,
  "aned": 8054,
  " herself": 8055,
  "European": 8056,
  " commonly": 8057,
  "Ag": 8058,
  " fish": 8059,
  " explaining": 8060,
  " resolve": 8061,
  " recipe": 8062,
  " soup": 8063,
  " remains": 8064,
  " coins": 8065,
  " prey": 8066,
  "cil": 8067,
  " mouth": 8068,
  " hairs": 8069,
  " muscles": 8070,
  " Hel": 8071,
  " passion": 8072,
  " thinks": 8073,
  "mill": 8074,
  "desires": 8075,
  " neurological": 8076,
  " frightened": 8077,
  " Lat": 8078,
  " Latin": 8079,
  " bre": 8080,
  " breast": 8081,
  "Left": 8082,
  " warm": 8083,
  " Infant": 8084,
  " infant": 8085,
  " Harry": 8086,
  "low": 8087,
  " capable": 8088,
  " industries": 8089,
  " justify": 8090,
  " mel": 8091,
  "-ending": 8092,
  " sacrificed": 8093,
  " crocodiles": 8094,
  "Egyptian": 8095,
  " exploit": 8096,
  " Moreover": 8097,
  " apex": 8098,
  "ressed": 8099,
  " worthless": 8100,
  " wicked": 8101,
  " calf": 8102,
  "inical": 8103,
  "serv": 8104,
  " Jain": 8105,
  " sentient": 8106,
  " hierarchy": 8107,
  " band": 8108,
  " controlled": 8109,
  " horse": 8110,
  "ansan": 8111,
  " torture": 8112,
  " asking": 8113,
  " Nazism": 8114,
  " firms": 8115,
  "iology": 8116,
  " villagers": 8117,
  " monotheist": 8118,
  " namely": 8119,
  "zeal": 8120,
  " relat": 8121,
  "umerous": 8122,
  " distinguish": 8123,
  " sensors": 8124,
  " devoid": 8125,
  "Anot": 8126,
  "Another": 8127,
  " reject": 8128,
  " akin": 8129,
  " identified": 8130,
  "More": 8131,
  " points": 8132,
  " traders": 8133,
  " pointless": 8134,
  " pointing": 8135,
  "Bl": 8136,
  "ounce": 8137,
  " gland": 8138,
  "happens": 8139,
  " Lew": 8140,
  " Where": 8141,
  "mathematical": 8142,
  "Maybe": 8143,
  "sometimes": 8144,
  "stance": 8145,
  " \n\n\n\n\n\n\n\n": 8146,
  "individuals": 8147,
  " nail": 8148,
  "anis": 8149,
  "haene": 8150,
  " answered": 8151,
  " refer": 8152,
  "wrong": 8153,
  "bon": 8154,
  " release": 8155,
  "ulates": 8156,
  " trap": 8157,
  " unless": 8158,
  " compare": 8159,
  "ventions": 8160,
  " shows": 8161,
  "athered": 8162,
  "chemical": 8163,
  "uses": 8164,
  "athetic": 8165,
  " particip": 8166,
  "-for": 8167,
  " Let": 8168,
  "-consciousness": 8169,
  " hiding": 8170,
  " Sweden": 8171,
  "’?": 8172,
  " election": 8173,
  "ceeded": 8174,
  "prison": 8175,
  " preferred": 8176,
  "arkable": 8177,
  "oof": 8178,
  " err": 8179,
  " unfamiliar": 8180,
  " ho": 8181,
  "History": 8182,
  "cooperation": 8183,
  "ottom": 8184,
  "Communist": 8185,
  " Russia": 8186,
  " organisation": 8187,
  " Nic": 8188,
  "cony": 8189,
  " YouT": 8190,
  " YouTube": 8191,
  " shout": 8192,
  " sat": 8193,
  " camer": 8194,
  "sider": 8195,
  " available": 8196,
  " flooded": 8197,
  " Brother": 8198,
  " soci": 8199,
  "Take": 8200,
  "nobody": 8201,
  " venture": 8202,
  "unf": 8203,
  "bserv": 8204,
  "kingdoms": 8205,
  "revol": 8206,
  " Frederick": 8207,
  " existing": 8208,
  " suppose": 8209,
  " scan": 8210,
  " option": 8211,
  "My": 8212,
  "belie": 8213,
  "isk": 8214,
  " Acc": 8215,
  " union": 8216,
  " Saladin": 8217,
  " crusader": 8218,
  "heaven": 8219,
  "Mus": 8220,
  " Henry": 8221,
  " castle": 8222,
  "idels": 8223,
  " girls": 8224,
  " crusades": 8225,
  "Holy": 8226,
  " tour": 8227,
  " Bank": 8228,
  "intersubjective": 8229,
  " disput": 8230,
  " Bur": 8231,
  " Smith": 8232,
  "td": 8233,
  "Since": 8234,
  " spirits": 8235,
  " temples": 8236,
  " hire": 8237,
  " Inanna": 8238,
  " collecting": 8239,
  "yrus": 8240,
  "ervo": 8241,
  "Pres": 8242,
  "doc": 8243,
  "ecial": 8244,
  " Sen": 8245,
  " lake": 8246,
  "argest": 8247,
  " crocodile": 8248,
  "etsuch": 8249,
  "etsuchos": 8250,
  "usted": 8251,
  "umm": 8252,
  "whe": 8253,
  " shovel": 8254,
  " bare": 8255,
  " Portug": 8256,
  " Arist": 8257,
  " cared": 8258,
  " operation": 8259,
  " ladder": 8260,
  "Chinese": 8261,
  "yerere": 8262,
  "anzan": 8263,
  " matters": 8264,
  "urate": 8265,
  " extent": 8266,
  "anges": 8267,
  " incorpor": 8268,
  " Germans": 8269,
  " wid": 8270,
  " yardsticks": 8271,
  "akespe": 8272,
  "akespeare": 8273,
  "scriptures": 8274,
  " commandments": 8275,
  " Ved": 8276,
  "uchad": 8277,
  " Qian": 8278,
  " Du": 8279,
  " plot": 8280,
  " benefits": 8281,
  " Corpor": 8282,
  " Cat": 8283,
  " superst": 8284,
  "Religion": 8285,
  " spirituality": 8286,
  "economics": 8287,
  " helping": 8288,
  " instructs": 8289,
  " Ger": 8290,
  "Luc": 8291,
  " rit": 8292,
  " rituals": 8293,
  "interpre": 8294,
  " vi": 8295,
  " guid": 8296,
  " guidance": 8297,
  "olphin": 8298,
  "prin": 8299,
  "alah": 8300,
  "alahari": 8301,
  " print": 8302,
  "derful": 8303,
  " inspired": 8304,
  " Levitic": 8305,
  " Leviticus": 8306,
  "-on": 8307,
  " interested": 8308,
  " partly": 8309,
  "oving": 8310,
  "£": 8311,
  "uations": 8312,
  " vampire": 8313,
  "whom": 8314,
  "iac": 8315,
  " rev": 8316,
  "Lenin": 8317,
  "ura": 8318,
  " ham": 8319,
  " expression": 8320,
  "dent": 8321,
  " Soon": 8322,
  " hot": 8323,
  "enh": 8324,
  " Rat": 8325,
  "Eng": 8326,
  " Rousseau": 8327,
  " Political": 8328,
  " directed": 8329,
  "useums": 8330,
  " guild": 8331,
  "customer": 8332,
  "ota": 8333,
  "ersson": 8334,
  "aretz": 8335,
  "omi": 8336,
  "freely": 8337,
  " Sol": 8338,
  "duc": 8339,
  " Rod": 8340,
  " ut": 8341,
  ".),": 8342,
  "rush": 8343,
  "iking": 8344,
  " yin": 8345,
  " novels": 8346,
  " Stephen": 8347,
  "othy": 8348,
  " galaxy": 8349,
  "-D": 8350,
  " Bre": 8351,
  "feld": 8352,
  "tra": 8353,
  "inent": 8354,
  " Loc": 8355,
  "350": 8356,
  " communal": 8357,
  " dance": 8358,
  "Liberal": 8359,
  "186": 8360,
  " reasoning": 8361,
  " breathing": 8362,
  " rac": 8363,
  "Experience": 8364,
  "list": 8365,
  "itory": 8366,
  " Deep": 8367,
  " oh": 8368,
  " Goode": 8369,
  " initiation": 8370,
  " Liberalism": 8371,
  " dictatorships": 8372,
  " Emer": 8373,
  "Washington": 8374,
  "interest": 8375,
  "Islam": 8376,
  " innov": 8377,
  " infall": 8378,
  " Mahdi": 8379,
  " Computer": 8380,
  " Cyborg": 8381,
  " page": 8382,
  " Decisions": 8383,
  " poison": 8384,
  "-rat": 8385,
  " training": 8386,
  " Effect": 8387,
  " drone": 8388,
  " Adee": 8389,
  " transcranial": 8390,
  " hemispheres": 8391,
  "cape": 8392,
  "°": 8393,
  "°C": 8394,
  "-water": 8395,
  " cuts": 8396,
  " duration": 8397,
  " Doctors": 8398,
  " Aviv": 8399,
  " gym": 8400,
  " Luis": 8401,
  " lie": 8402,
  " Bus": 8403,
  "ilson": 8404,
  " Digital": 8405,
  " clinic": 8406,
  " Blue": 8407,
  " Beane": 8408,
  "ITAL": 8409,
  " Larson": 8410,
  " Machine": 8411,
  " Carl": 8412,
  "ae": 8413,
  "87": 8414,
  " iPhone": 8415,
  "ectomy": 8416,
  " database": 8417,
  " statistics": 8418,
  " biotech": 8419,
  " individuality": 8420,
  "Techn": 8421,
  "-normative": 8422,
  " Personality": 8423,
  "NC": 8424,
  "edia": 8425,
  "oz": 8426,
  " uncomfortable": 8427,
  " Romeo": 8428,
  "riedrich": 8429,
  "-T": 8430,
  " Lysenko": 8431,
  " Board": 8432,
  " Kim": 8433,
  " Bar": 8434,
  "thew": 8435,
  "atern": 8436,
  "Swartz": 8437,
  "uer": 8438,
  "uplo": 8439,
  " JSTOR": 8440,
  " park": 8441,
  " Ide": 8442,
  " Inter": 8443,
  " https": 8444,
  " Dise": 8445,
  "alnutrition": 8446,
  " Birth": 8447,
  " Century": 8448,
  " Mother": 8449,
  " Pandemic": 8450,
  "rd": 8451,
  " Population": 8452,
  "/m": 8453,
  "303": 8454,
  "iley": 8455,
  ".who": 8456,
  ".int": 8457,
  "/ind": 8458,
  "/index": 8459,
  " Use": 8460,
  "nd": 8461,
  " Det": 8462,
  " Kelly": 8463,
  " CNN": 8464,
  " Welfare": 8465,
  " Psychological": 8466,
  " Gregg": 8467,
  "243": 8468,
  " Turn": 8469,
  "opharmacology": 8470,
  "/H": 8471,
  " Report": 8472,
  " Mac": 8473,
  "116": 8474,
  " Plastic": 8475,
  "/science": 8476,
  " Compet": 8477,
  "(Cambridge": 8478,
  "Journal": 8479,
  "incet": 8480,
  "inceton": 8481,
  "135": 8482,
  "blog": 8483,
  " Ecology": 8484,
  "Assessing": 8485,
  "292": 8486,
  "imism": 8487,
  " Environment": 8488,
  " Cognition": 8489,
  " Behaviour": 8490,
  "archive": 8491,
  " Dolphins": 8492,
  " Really": 8493,
  " Smart": 8494,
  "-Infant": 8495,
  "Trans": 8496,
  "361": 8497,
  "214": 8498,
  " Christopher": 8499,
  "01": 8500,
  "-its": 8501,
  "311": 8502,
  "',": 8503,
  "348": 8504,
  "/j": 8505,
  "335": 8506,
  "127": 8507,
  "213": 8508,
  "389": 8509,
  "373": 8510,
  "379": 8511,
  "328": 8512,
  "286": 8513,
  "325": 8514,
  "122": 8515,
  "255": 8516,
  "208": 8517,
  "396": 8518,
  "252": 8519,
  "320": 8520,
  "222": 8521,
  ".harper": 8522,
  ".harperc": 8523,
  ".harpercollins": 8524,
  " Tomorrow": 8525,
  " Laboratory": 8526,
  " Ocean": 8527,
  "cknow": 8528,
  "cknowled": 8529,
  " Author": 8530,
  " \n\n\n\n\n\n\n\n\n\n\n\n\n\n\n\n\n\n\n": 8531,
  " fertilisation": 8532,
  "Comput": 8533,
  "Computer": 8534,
  " limbs": 8535,
  " awful": 8536,
  " clou": 8537,
  " clouds": 8538,
  " diary": 8539,
  " pray": 8540,
  " prophets": 8541,
  " concluded": 8542,
  " integral": 8543,
  "True": 8544,
  " failures": 8545,
  " shoulders": 8546,
  " commission": 8547,
  "iry": 8548,
  " calam": 8549,
  "aed": 8550,
  " CE": 8551,
  " lift": 8552,
  " prosperous": 8553,
  " ing": 8554,
  " doubly": 8555,
  "Before": 8556,
  "famine": 8557,
  "rage": 8558,
  " na": 8559,
  " naive": 8560,
  " concerns": 8561,
  " succ": 8562,
  " crop": 8563,
  " famines": 8564,
  "Open": 8565,
  "auv": 8566,
  " roots": 8567,
  " Bad": 8568,
  " weather": 8569,
  " granaries": 8570,
  " charged": 8571,
  "Ab": 8572,
  " XIV": 8573,
  " Est": 8574,
  " Scot": 8575,
  " veget": 8576,
  " exceptional": 8577,
  "ivate": 8578,
  " insurance": 8579,
  " schem": 8580,
  "international": 8581,
  " calories": 8582,
  " tsun": 8583,
  " tsunam": 8584,
  " richest": 8585,
  "healthy": 8586,
  " Leap": 8587,
  "problem": 8588,
  "conven": 8589,
  " scenarios": 8590,
  " catastrophe": 8591,
  "tt": 8592,
  " piz": 8593,
  " pizza": 8594,
  " enemy": 8595,
  " plagues": 8596,
  " pilgr": 8597,
  " Flore": 8598,
  " Florence": 8599,
  "-called": 8600,
  "-dwell": 8601,
  " shores": 8602,
  " Between": 8603,
  " dropped": 8604,
  "ieter": 8605,
  "pless": 8606,
  " blamed": 8607,
  " bacteria": 8608,
  " viruses": 8609,
  "cule": 8610,
  " sett": 8611,
  "Mexico": 8612,
  " multip": 8613,
  " Ref": 8614,
  "zt": 8615,
  "ztec": 8616,
  " Priests": 8617,
  " lay": 8618,
  " ordered": 8619,
  " collapsed": 8620,
  "tit": 8621,
  "ificent": 8622,
  " emperor": 8623,
  " Captain": 8624,
  " Hawai": 8625,
  " islands": 8626,
  " introduced": 8627,
  "hern": 8628,
  "Spanish": 8629,
  " hitherto": 8630,
  " grain": 8631,
  " Argentina": 8632,
  "exchange": 8633,
  " Children": 8634,
  "child": 8635,
  "hun": 8636,
  "-four": 8637,
  "ructure": 8638,
  " WHO": 8639,
  "inating": 8640,
  " raised": 8641,
  " ended": 8642,
  "Nevertheless": 8643,
  "exican": 8644,
  " tragedy": 8645,
  "few": 8646,
  " uniquely": 8647,
  "patient": 8648,
  "kill": 8649,
  "dif": 8650,
  "difficult": 8651,
  "sent": 8652,
  "treatment": 8653,
  " erupted": 8654,
  "alling": 8655,
  "however": 8656,
  " ow": 8657,
  "highly": 8658,
  " revolutionary": 8659,
  " sweep": 8660,
  " committe": 8661,
  " uns": 8662,
  "effici": 8663,
  "urther": 8664,
  "nevertheless": 8665,
  "divine": 8666,
  "iotechnology": 8667,
  " territory": 8668,
  " occupy": 8669,
  "finally": 8670,
  " broken": 8671,
  " deaths": 8672,
  "suicide": 8673,
  " resource": 8674,
  " Central": 8675,
  "ashion": 8676,
  " colt": 8677,
  " coltan": 8678,
  "alley": 8679,
  "commer": 8680,
  " acquired": 8681,
  " possibility": 8682,
  " worried": 8683,
  " minister": 8684,
  " seat": 8685,
  " inde": 8686,
  " indefinite": 8687,
  " destabil": 8688,
  " Chic": 8689,
  " Chicago": 8690,
  " Iran": 8691,
  " Chekhov": 8692,
  " restr": 8693,
  " Ter": 8694,
  "rorists": 8695,
  " strength": 8696,
  " poses": 8697,
  " oblig": 8698,
  "zz": 8699,
  " flour": 8700,
  "avoid": 8701,
  " disappeared": 8702,
  " imply": 8703,
  "invest": 8704,
  " encouraging": 8705,
  "undant": 8706,
  " Humankind": 8707,
  " pollution": 8708,
  "improve": 8709,
  "prefer": 8710,
  " content": 8711,
  " achievement": 8712,
  " satisfaction": 8713,
  " reminded": 8714,
  "achers": 8715,
  " parliaments": 8716,
  " closest": 8717,
  " ideologies": 8718,
  " sanctify": 8719,
  " earthly": 8720,
  " viewed": 8721,
  " metaphysical": 8722,
  " breathe": 8723,
  " sham": 8724,
  " embrace": 8725,
  " myst": 8726,
  " Medieval": 8727,
  " fairy": 8728,
  " NO": 8729,
  " decreed": 8730,
  " pumping": 8731,
  " muscle": 8732,
  "otherapy": 8733,
  " engaged": 8734,
  "goes": 8735,
  "ctor": 8736,
  "cancer": 8737,
  " hur": 8738,
  " policy": 8739,
  " Ray": 8740,
  " appointed": 8741,
  " Maris": 8742,
  "umin": 8743,
  " influential": 8744,
  " entrepreneurs": 8745,
  "estimated": 8746,
  " wall": 8747,
  " possessing": 8748,
  " regener": 8749,
  " pleth": 8750,
  " plethora": 8751,
  "medic": 8752,
  "superhumans": 8753,
  " unlike": 8754,
  " infin": 8755,
  " trend": 8756,
  " intens": 8757,
  " assume": 8758,
  " generally": 8759,
  " shaken": 8760,
  " boss": 8761,
  " Victor": 8762,
  "airman": 8763,
  " Eliz": 8764,
  " Elizab": 8765,
  " Elizabeth": 8766,
  " inher": 8767,
  "121": 8768,
  " George": 8769,
  " wer": 8770,
  " weren": 8771,
  " Isaac": 8772,
  " cry": 8773,
  " sanctity": 8774,
  " opportunity": 8775,
  "smart": 8776,
  " trained": 8777,
  " fuelled": 8778,
  " hoped": 8779,
  " ceremonies": 8780,
  "agon": 8781,
  "anche": 8782,
  " fan": 8783,
  "atics": 8784,
  " trig": 8785,
  " Polit": 8786,
  " Countr": 8787,
  " obedi": 8788,
  " reasonable": 8789,
  " mechanics": 8790,
  " wounded": 8791,
  " comrades": 8792,
  " cler": 8793,
  " clerks": 8794,
  " swamps": 8795,
  " originally": 8796,
  "ismar": 8797,
  "ismarck": 8798,
  " Jefferson": 8799,
  " City": 8800,
  " farmer": 8801,
  "mor": 8802,
  " evaluating": 8803,
  "plement": 8804,
  "duction": 8805,
  " productive": 8806,
  "productive": 8807,
  " warned": 8808,
  " disciples": 8809,
  " drink": 8810,
  " moder": 8811,
  " curb": 8812,
  "friend": 8813,
  " guide": 8814,
  "ancestors": 8815,
  "prosper": 8816,
  " enjoys": 8817,
  " compens": 8818,
  " Still": 8819,
  " televisions": 8820,
  " bored": 8821,
  "invent": 8822,
  " Women": 8823,
  "Americans": 8824,
  " shown": 8825,
  " fastest": 8826,
  "yles": 8827,
  "cond": 8828,
  "determined": 8829,
  "pain": 8830,
  " Stu": 8831,
  " deduce": 8832,
  "himself": 8833,
  " orthodoxy": 8834,
  " divor": 8835,
  " sensation": 8836,
  "iating": 8837,
  " Imagine": 8838,
  " dreaded": 8839,
  " excited": 8840,
  " chest": 8841,
  " kick": 8842,
  "collapse": 8843,
  " promotion": 8844,
  " received": 8845,
  "umble": 8846,
  " adapted": 8847,
  "reproduction": 8848,
  " ephemeral": 8849,
  " tastes": 8850,
  " bothe": 8851,
  " bothered": 8852,
  "-looking": 8853,
  " partners": 8854,
  " receiving": 8855,
  " pleasures": 8856,
  " Somet": 8857,
  " tranquillity": 8858,
  " enabl": 8859,
  " enabling": 8860,
  " pedal": 8861,
  " laure": 8862,
  " solely": 8863,
  " boredom": 8864,
  " lasting": 8865,
  " rig": 8866,
  " psychiatric": 8867,
  "activity": 8868,
  " disorder": 8869,
  " Whether": 8870,
  " pet": 8871,
  " alternatives": 8872,
  "Armies": 8873,
  "idepressants": 8874,
  "difference": 8875,
  " fed": 8876,
  "aine": 8877,
  "try": 8878,
  " molecules": 8879,
  "born": 8880,
  " manipulations": 8881,
  " accelerates": 8882,
  " reshape": 8883,
  "society": 8884,
  " stimuli": 8885,
  "method": 8886,
  " manipulation": 8887,
  " alter": 8888,
  "biochemical": 8889,
  " highest": 8890,
  "hist": 8891,
  " arise": 8892,
  " monks": 8893,
  " caves": 8894,
  " Earth": 8895,
  "uality": 8896,
  "tools": 8897,
  " station": 8898,
  " erect": 8899,
  "pressive": 8900,
  " outcome": 8901,
  " hormonal": 8902,
  "uits": 8903,
  " diagnose": 8904,
  " ears": 8905,
  "contrast": 8906,
  " Monkeys": 8907,
  " remote": 8908,
  "chen": 8909,
  "programmed": 8910,
  "mets": 8911,
  " chips": 8912,
  " initiative": 8913,
  "job": 8914,
  "assum": 8915,
  " centres": 8916,
  " limitations": 8917,
  " wand": 8918,
  "wild": 8919,
  " Fore": 8920,
  " pose": 8921,
  " pages": 8922,
  "amlet": 8923,
  " ours": 8924,
  " details": 8925,
  " omnipot": 8926,
  " Zeus": 8927,
  " mo": 8928,
  " moves": 8929,
  "ukwu": 8930,
  " sprink": 8931,
  "manent": 8932,
  " Twitter": 8933,
  " dim": 8934,
  "metaph": 8935,
  " punishments": 8936,
  " dece": 8937,
  " Lord": 8938,
  "uter": 8939,
  "iterr": 8940,
  "iterrane": 8941,
  "iterranean": 8942,
  " distant": 8943,
  " panic": 8944,
  " gradual": 8945,
  " Charlie": 8946,
  " explanations": 8947,
  "poss": 8948,
  " contribute": 8949,
  " collectively": 8950,
  " Neanderthals": 8951,
  " Nowadays": 8952,
  " babies": 8953,
  " fifty": 8954,
  "aks": 8955,
  "said": 8956,
  "overnments": 8957,
  " pension": 8958,
  "experts": 8959,
  " brakes": 8960,
  " connecting": 8961,
  "fluence": 8962,
  " intricate": 8963,
  " rush": 8964,
  "Secondly": 8965,
  " holidays": 8966,
  " endless": 8967,
  " enhance": 8968,
  " separates": 8969,
  " healing": 8970,
  " saving": 8971,
  "agra": 8972,
  "pressure": 8973,
  " normal": 8974,
  " plastic": 8975,
  " Harold": 8976,
  " Gill": 8977,
  "began": 8978,
  " inj": 8979,
  "wealthy": 8980,
  " puts": 8981,
  "dead": 8982,
  " defective": 8983,
  "-than": 8984,
  " respond": 8985,
  " candid": 8986,
  " Parliament": 8987,
  "Once": 8988,
  "hind": 8989,
  "thlet": 8990,
  "experiment": 8991,
  " successfully": 8992,
  " psy": 8993,
  " psyche": 8994,
  " Design": 8995,
  " regarding": 8996,
  " plough": 8997,
  " slum": 8998,
  " Twentieth": 8999,
  "politics": 9000,
  " oblivious": 9001,
  " competitors": 9002,
  "novel": 9003,
  " Karl": 9004,
  " brill": 9005,
  " brilliant": 9006,
  " spearheaded": 9007,
  "disci": 9008,
  "rents": 9009,
  "capitalists": 9010,
  "gn": 9011,
  " diagnosis": 9012,
  " CIA": 9013,
  " Vietnam": 9014,
  "cher": 9015,
  " summarised": 9016,
  "ustb": 9017,
  "ustbin": 9018,
  " loses": 9019,
  "levance": 9020,
  " disasters": 9021,
  " tomorrow": 9022,
  "itate": 9023,
  "istorians": 9024,
  " futures": 9025,
  " emerges": 9026,
  "osen": 9027,
  " options": 9028,
  "riarch": 9029,
  " entrance": 9030,
  "adow": 9031,
  "Roman": 9032,
  " residences": 9033,
  "became": 9034,
  " turf": 9035,
  " symbol": 9036,
  " proclaimed": 9037,
  "avag": 9038,
  " trouble": 9039,
  "pal": 9040,
  "rated": 9041,
  "proclaimed": 9042,
  " sports": 9043,
  " conceivable": 9044,
  " subur": 9045,
  "ourge": 9046,
  "ourgeois": 9047,
  "along": 9048,
  " neglect": 9049,
  "oire": 9050,
  "teenth": 9051,
  " honour": 9052,
  "bank": 9053,
  " \n\n\n\n\n\n\n\n\n\n\n": 9054,
  " Roberts": 9055,
  " Bart": 9056,
  " associate": 9057,
  "endous": 9058,
  " Mean": 9059,
  " Meanwhile": 9060,
  " chapters": 9061,
  " suggested": 9062,
  " bizar": 9063,
  " bizarre": 9064,
  " describes": 9065,
  "search": 9066,
  " signs": 9067,
  " popes": 9068,
  " afraid": 9069,
  "Earth": 9070,
  "ba": 9071,
  " Wol": 9072,
  " brother": 9073,
  " roam": 9074,
  "domesticated": 9075,
  "600": 9076,
  " kil": 9077,
  " divide": 9078,
  " epoch": 9079,
  " Pleistocene": 9080,
  "olocene": 9081,
  " mighty": 9082,
  " tectonic": 9083,
  " tons": 9084,
  " anxiet": 9085,
  " anxieties": 9086,
  " din": 9087,
  "changing": 9088,
  "imental": 9089,
  " Persian": 9090,
  " broke": 9091,
  " barri": 9092,
  "ependent": 9093,
  " tool": 9094,
  "rabbits": 9095,
  " hunt": 9096,
  "separ": 9097,
  " belonged": 9098,
  "follow": 9099,
  "hosts": 9100,
  " Danny": 9101,
  " snake": 9102,
  " walks": 9103,
  "forest": 9104,
  "actly": 9105,
  "night": 9106,
  " animistic": 9107,
  " attitude": 9108,
  "Bible": 9109,
  "begin": 9110,
  " convers": 9111,
  " conversation": 9112,
  " forbidden": 9113,
  " expuls": 9114,
  " bears": 9115,
  " fruits": 9116,
  " talking": 9117,
  " hides": 9118,
  " snakes": 9119,
  "rot": 9120,
  "imist": 9121,
  " Wild": 9122,
  " threatened": 9123,
  " competing": 9124,
  " cru": 9125,
  " Farmers": 9126,
  " cages": 9127,
  "stro": 9128,
  " dig": 9129,
  "ocolate": 9130,
  "survive": 9131,
  "communicate": 9132,
  " curiosity": 9133,
  " voc": 9134,
  "iate": 9135,
  " Penn": 9136,
  " Pennsy": 9137,
  " Pennsyl": 9138,
  " Pennsylvan": 9139,
  " Pennsylvania": 9140,
  " gestation": 9141,
  " slightly": 9142,
  " wider": 9143,
  " nur": 9144,
  " nurse": 9145,
  " typical": 9146,
  " locked": 9147,
  " acute": 9148,
  "ustration": 9149,
  " lesson": 9150,
  "omberg": 9151,
  " safely": 9152,
  " demonstr": 9153,
  "phonies": 9154,
  "appear": 9155,
  "culation": 9156,
  " dozens": 9157,
  "bod": 9158,
  "bodies": 9159,
  "provide": 9160,
  " prep": 9161,
  " prepare": 9162,
  " buttons": 9163,
  "milk": 9164,
  " mechanical": 9165,
  " hanging": 9166,
  " tree": 9167,
  " risks": 9168,
  " cow": 9169,
  " calculator": 9170,
  "bling": 9171,
  " standing": 9172,
  " expanding": 9173,
  " confused": 9174,
  " transmit": 9175,
  "inas": 9176,
  " excell": 9177,
  " excellent": 9178,
  "iery": 9179,
  " concerning": 9180,
  " emotion": 9181,
  "-infant": 9182,
  "ser": 9183,
  "_b": 9184,
  " Freudian": 9185,
  " Care": 9186,
  "instruct": 9187,
  "emotional": 9188,
  " Harlow": 9189,
  "ummy": 9190,
  " cloth": 9191,
  "worth": 9192,
  "ags": 9193,
  "bonds": 9194,
  " abandoned": 9195,
  " affect": 9196,
  " grew": 9197,
  "needs": 9198,
  " infl": 9199,
  " justified": 9200,
  " fest": 9201,
  " synag": 9202,
  " snow": 9203,
  "sal": 9204,
  "ooked": 9205,
  "asted": 9206,
  " flies": 9207,
  " spends": 9208,
  " opera": 9209,
  " colour": 9210,
  "requently": 9211,
  " sne": 9212,
  " Firstly": 9213,
  "explained": 9214,
  " Creator": 9215,
  "ushed": 9216,
  " sidel": 9217,
  "cks": 9218,
  " promised": 9219,
  "plied": 9220,
  " expense": 9221,
  "esop": 9222,
  "esopot": 9223,
  "esopotam": 9224,
  " Gil": 9225,
  " Luckily": 9226,
  " Enki": 9227,
  " instructed": 9228,
  " spot": 9229,
  " smelled": 9230,
  " sweet": 9231,
  "written": 9232,
  " ruin": 9233,
  " Non": 9234,
  " sake": 9235,
  " resol": 9236,
  "gave": 9237,
  " commanded": 9238,
  " Yeh": 9239,
  " Yehuda": 9240,
  " pushed": 9241,
  "demonstr": 9242,
  " shalt": 9243,
  " deer": 9244,
  " subject": 9245,
  " mansan": 9246,
  " bear": 9247,
  " decip": 9248,
  " deciphe": 9249,
  " deciphered": 9250,
  " Wool": 9251,
  "sthor": 9252,
  "sthorpe": 9253,
  " apple": 9254,
  " launch": 9255,
  "initi": 9256,
  "cur": 9257,
  "told": 9258,
  " rip": 9259,
  "While": 9260,
  "amped": 9261,
  "pract": 9262,
  "superhuman": 9263,
  " valuing": 9264,
  " magical": 9265,
  "collective": 9266,
  " journeys": 9267,
  "irm": 9268,
  "show": 9269,
  " deg": 9270,
  "creation": 9271,
  "zealots": 9272,
  " insist": 9273,
  " relativity": 9274,
  " quantum": 9275,
  " twist": 9276,
  " cherished": 9277,
  " assembl": 9278,
  "ivisible": 9279,
  "numerous": 9280,
  "step": 9281,
  "composed": 9282,
  "-by": 9283,
  " female": 9284,
  " secure": 9285,
  " Has": 9286,
  " Nor": 9287,
  " flash": 9288,
  " sort": 9289,
  "reason": 9290,
  " collapses": 9291,
  " unconscious": 9292,
  "escart": 9293,
  "escartes": 9294,
  " subsequent": 9295,
  " brief": 9296,
  " perception": 9297,
  " lights": 9298,
  " describe": 9299,
  "overs": 9300,
  "unct": 9301,
  " flee": 9302,
  " stimulate": 9303,
  " ate": 9304,
  " spont": 9305,
  "works": 9306,
  "signals": 9307,
  "holds": 9308,
  " repres": 9309,
  "-three": 9310,
  " roads": 9311,
  "oles": 9312,
  " ether": 9313,
  "MA": 9314,
  "/Corb": 9315,
  "/Corbis": 9316,
  "love": 9317,
  " rape": 9318,
  "soever": 9319,
  " carbon": 9320,
  "steam": 9321,
  " container": 9322,
  " builds": 9323,
  " complain": 9324,
  "shr": 9325,
  " victim": 9326,
  "reports": 9327,
  "ersed": 9328,
  " Minds": 9329,
  " Alan": 9330,
  " fet": 9331,
  " canine": 9332,
  " monkey": 9333,
  "brains": 9334,
  " otherwise": 9335,
  " convinc": 9336,
  " convincing": 9337,
  "-ev": 9338,
  "phys": 9339,
  "strates": 9340,
  " capacity": 9341,
  " intent": 9342,
  " shift": 9343,
  "onding": 9344,
  "atory": 9345,
  " exposes": 9346,
  " protocol": 9347,
  "point": 9348,
  " notion": 9349,
  " Ob": 9350,
  " rivals": 9351,
  " urge": 9352,
  " unclear": 9353,
  "verbal": 9354,
  "rots": 9355,
  " chimpanzee": 9356,
  "Sant": 9357,
  "arters": 9358,
  " recognising": 9359,
  "inf": 9360,
  " consciously": 9361,
  "soldier": 9362,
  " annoy": 9363,
  " dolphins": 9364,
  " tal": 9365,
  " talents": 9366,
  " remarkable": 9367,
  "Hans": 9368,
  " Pruss": 9369,
  "members": 9370,
  "terf": 9371,
  " strangers": 9372,
  "loc": 9373,
  "apping": 9374,
  "Clever": 9375,
  "conduct": 9376,
  " exists": 9377,
  " defines": 9378,
  " champ": 9379,
  "ignificant": 9380,
  " lacking": 9381,
  "unk": 9382,
  " solar": 9383,
  " smarter": 9384,
  " chimp": 9385,
  " Intelligence": 9386,
  "sophisticated": 9387,
  " faces": 9388,
  "oration": 9389,
  " tsar": 9390,
  "gained": 9391,
  " eastern": 9392,
  " ri": 9393,
  " riots": 9394,
  " Tim": 9395,
  "anged": 9396,
  " feared": 9397,
  "Ceau": 9398,
  ".y": 9399,
  " disobe": 9400,
  "leaders": 9401,
  "ello": 9402,
  " crowds": 9403,
  "willing": 9404,
  "ounding": 9405,
  " hijacked": 9406,
  " wing": 9407,
  " ll": 9408,
  "iescu": 9409,
  " owned": 9410,
  " Government": 9411,
  " elected": 9412,
  "inate": 9413,
  "ubar": 9414,
  "ubarak": 9415,
  "airo": 9416,
  " hide": 9417,
  " Violence": 9418,
  " moon": 9419,
  " bonobos": 9420,
  " cement": 9421,
  " financial": 9422,
  " fundamentally": 9423,
  " division": 9424,
  "reflect": 9425,
  " bands": 9426,
  "uchin": 9427,
  " reward": 9428,
  "apes": 9429,
  " invaded": 9430,
  " presence": 9431,
  " served": 9432,
  " rebellion": 9433,
  " threaten": 9434,
  " sets": 9435,
  "orough": 9436,
  "cedures": 9437,
  " Money": 9438,
  " baker": 9439,
  " cashiers": 9440,
  "awk": 9441,
  "anmar": 9442,
  " Win": 9443,
  " issued": 9444,
  "believes": 9445,
  " Ram": 9446,
  "near": 9447,
  " spun": 9448,
  " utterly": 9449,
  " Crus": 9450,
  " crusade": 9451,
  "horr": 9452,
  "pa": 9453,
  "holy": 9454,
  "roy": 9455,
  " Sar": 9456,
  " thread": 9457,
  " affairs": 9458,
  "yth": 9459,
  " leng": 9460,
  "watch": 9461,
  " carn": 9462,
  "uddenly": 9463,
  "sight": 9464,
  "socialist": 9465,
  "Amazon": 9466,
  " translated": 9467,
  " merge": 9468,
  "acking": 9469,
  " Poll": 9470,
  " inspiration": 9471,
  "ras": 9472,
  " Foundation": 9473,
  "antage": 9474,
  "arming": 9475,
  " encountered": 9476,
  " tithes": 9477,
  " Sumerian": 9478,
  "ruk": 9479,
  " salaries": 9480,
  " dams": 9481,
  "number": 9482,
  " businesses": 9483,
  " rent": 9484,
  "riting": 9485,
  "pharaoh": 9486,
  "biological": 9487,
  " Desert": 9488,
  " scroll": 9489,
  " construction": 9490,
  " reservo": 9491,
  " usual": 9492,
  "orship": 9493,
  "ollar": 9494,
  "iterate": 9495,
  " thick": 9496,
  " databases": 9497,
  "opinions": 9498,
  " hospit": 9499,
  " hospitals": 9500,
  "-god": 9501,
  "emhat": 9502,
  " largest": 9503,
  " Greeks": 9504,
  " Petsuchos": 9505,
  "-en": 9506,
  "bull": 9507,
  " aliens": 9508,
  "experiencing": 9509,
  " mushrooms": 9510,
  " Nazis": 9511,
  " Spain": 9512,
  "uese": 9513,
  "perate": 9514,
  " Min": 9515,
  " consul": 9516,
  " Nazi": 9517,
  " barely": 9518,
  " documents": 9519,
  "tes": 9520,
  " effects": 9521,
  " dram": 9522,
  " adding": 9523,
  " Nyerere": 9524,
  "-such": 9525,
  " President": 9526,
  "porter": 9527,
  "accurate": 9528,
  "bureaucracies": 9529,
  " lines": 9530,
  " conflicting": 9531,
  " interior": 9532,
  "reements": 9533,
  "yardst": 9534,
  " Hunter": 9535,
  "grad": 9536,
  "Shakespeare": 9537,
  " final": 9538,
  " Gallery": 9539,
  " literature": 9540,
  " Qur": 9541,
  " delicate": 9542,
  " compete": 9543,
  " welcome": 9544,
  " Much": 9545,
  "valuable": 9546,
  "ector": 9547,
  " pays": 9548,
  " chooses": 9549,
  "-power": 9550,
  " cares": 9551,
  "ebuchad": 9552,
  "ebuchadne": 9553,
  "ebuchadnez": 9554,
  "ebuchadnezzar": 9555,
  " commer": 9556,
  " independent": 9557,
  " Herodotus": 9558,
  "ucyd": 9559,
  "ucydides": 9560,
  " Sima": 9561,
  "Accordingly": 9562,
  " keen": 9563,
  "large": 9564,
  " Works": 9565,
  "eria": 9566,
  "rigation": 9567,
  "-Khe": 9568,
  "-Khety": 9569,
  "holding": 9570,
  "Suppose": 9571,
  "set": 9572,
  "ishn": 9573,
  " pork": 9574,
  "anke": 9575,
  "oung": 9576,
  "conflict": 9577,
  " Class": 9578,
  "conv": 9579,
  " begins": 9580,
  "studies": 9581,
  " legacy": 9582,
  " Satan": 9583,
  " seeks": 9584,
  " indulg": 9585,
  " listed": 9586,
  "Luther": 9587,
  "happened": 9588,
  "institutions": 9589,
  " generating": 9590,
  " conception": 9591,
  " heretics": 9592,
  "practical": 9593,
  " depth": 9594,
  "-reaching": 9595,
  " Valla": 9596,
  " forged": 9597,
  "underm": 9598,
  "acting": 9599,
  "similar": 9600,
  " warriors": 9601,
  " bother": 9602,
  "value": 9603,
  "Berlin": 9604,
  "reement": 9605,
  "produced": 9606,
  " intoler": 9607,
  "centration": 9608,
  "unn": 9609,
  "Paris": 9610,
  "romise": 9611,
  " decides": 9612,
  " downlo": 9613,
  "software": 9614,
  "growing": 9615,
  "107": 9616,
  " obsessed": 9617,
  " stagnation": 9618,
  " Fund": 9619,
  "istants": 9620,
  " dys": 9621,
  "Cr": 9622,
  " rates": 9623,
  " preced": 9624,
  "Evolutionary": 9625,
  " meditation": 9626,
  " resentment": 9627,
  " Year": 9628,
  " revival": 9629,
  " Modi": 9630,
  "dogan": 9631,
  "onsense": 9632,
  " dismant": 9633,
  "ongs": 9634,
  " Capitalism": 9635,
  "cing": 9636,
  " commandment": 9637,
  " emerging": 9638,
  " Ark": 9639,
  "lu": 9640,
  "eltdown": 9641,
  "oil": 9642,
  " slowing": 9643,
  "’ve": 9644,
  "Man": 9645,
  " Dream": 9646,
  " greenhouse": 9647,
  " gas": 9648,
  "United": 9649,
  " card": 9650,
  " prejud": 9651,
  " prejudices": 9652,
  " convince": 9653,
  " disciplines": 9654,
  " advantages": 9655,
  "uft": 9656,
  "uftis": 9657,
  " sust": 9658,
  " ends": 9659,
  " vanish": 9660,
  "ometres": 9661,
  "uding": 9662,
  " opinion": 9663,
  " truths": 9664,
  "bury": 9665,
  "Listen": 9666,
  " Statistical": 9667,
  "SM": 9668,
  "amar": 9669,
  "amarital": 9670,
  " Thou": 9671,
  " Hebdo": 9672,
  " Muhammad": 9673,
  " Syndicate": 9674,
  "’.-": 9675,
  " innerm": 9676,
  " innermost": 9677,
  " Ur": 9678,
  " dove": 9679,
  " amp": 9680,
  " ampull": 9681,
  " ampulla": 9682,
  " IX": 9683,
  " echo": 9684,
  " chants": 9685,
  " Reg": 9686,
  " aesthe": 9687,
  " bottom": 9688,
  " Duchamp": 9689,
  "Art": 9690,
  " museums": 9691,
  "oyota": 9692,
  " designers": 9693,
  "genetic": 9694,
  "rowing": 9695,
  " Haaretz": 9696,
  " confronted": 9697,
  "ulture": 9698,
  "eming": 9699,
  "ietz": 9700,
  "ietzs": 9701,
  "ietzsche": 9702,
  " =": 9703,
  " x": 9704,
  " scann": 9705,
  "ometry": 9706,
  " wizard": 9707,
  "ensitivity": 9708,
  "sensitivity": 9709,
  " yang": 9710,
  " heroes": 9711,
  "cesses": 9712,
  "Survivor": 9713,
  " Billy": 9714,
  "ustav": 9715,
  " Adolph": 9716,
  " Breit": 9717,
  " Breiten": 9718,
  " Breitenfeld": 9719,
  " painting": 9720,
  "oeuv": 9721,
  " heretical": 9722,
  " Snayers": 9723,
  " Here": 9724,
  " Met": 9725,
  " Down": 9726,
  "rieg": 9727,
  " Yard": 9728,
  " Stare": 9729,
  " {": 9730,
  " Military": 9731,
  " Virgin": 9732,
  "whole": 9733,
  "oots": 9734,
  " encompass": 9735,
  " Pal": 9736,
  " contradictions": 9737,
  " Locke": 9738,
  "national": 9739,
  "azz": 9740,
  " develops": 9741,
  " owns": 9742,
  "connection": 9743,
  "Michel": 9744,
  " Lie": 9745,
  "Three": 9746,
  "oken": 9747,
  "Person": 9748,
  " Shawn": 9749,
  "elson": 9750,
  " versions": 9751,
  " musicology": 9752,
  " professor": 9753,
  " Oper": 9754,
  " eard": 9755,
  " eardrums": 9756,
  " auditory": 9757,
  "woooooo": 9758,
  "traditional": 9759,
  "oyager": 9760,
  " sample": 9761,
  "Johnny": 9762,
  "colon": 9763,
  "By": 9764,
  "erical": 9765,
  " oppon": 9766,
  " opponents": 9767,
  "-col": 9768,
  "rushche": 9769,
  "rushchev": 9770,
  " Book": 9771,
  " Gi": 9772,
  " excl": 9773,
  " Kh": 9774,
  " sanctifies": 9775,
  "becoming": 9776,
  "-religions": 9777,
  "nan": 9778,
  " Anal": 9779,
  " billionaires": 9780,
  " railroads": 9781,
  " telegraph": 9782,
  " Pius": 9783,
  " Xiu": 9784,
  " Xiuqu": 9785,
  " Xiuquan": 9786,
  "aiping": 9787,
  "ringe": 9788,
  " reactive": 9789,
  " creative": 9790,
  "ouc": 9791,
  "oucault": 9792,
  " Haraway": 9793,
  " debating": 9794,
  " deterministic": 9795,
  " influenced": 9796,
  " accidents": 9797,
  "pothes": 9798,
  "choose": 9799,
  "idea": 9800,
  " robo": 9801,
  "-mill": 9802,
  " Talwar": 9803,
  "Experim": 9804,
  "agnetic": 9805,
  " rifle": 9806,
  " putting": 9807,
  " distr": 9808,
  " aver": 9809,
  " concludes": 9810,
  " Donald": 9811,
  "elme": 9812,
  "elmeier": 9813,
  " Child": 9814,
  " Medical": 9815,
  "gas": 9816,
  "fa": 9817,
  " Jorge": 9818,
  " Die": 9819,
  "onzo": 9820,
  "700": 9821,
  " Business": 9822,
  " Scott": 9823,
  "bert": 9824,
  "inker": 9825,
  " Wilson": 9826,
  " Computers": 9827,
  "-driving": 9828,
  " manufacturing": 9829,
  " automation": 9830,
  "ackers": 9831,
  " Associ": 9832,
  " Trade": 9833,
  "42": 9834,
  "ojo": 9835,
  "sym": 9836,
  " check": 9837,
  " IBM": 9838,
  " costs": 9839,
  "armacists": 9840,
  " Mattersight": 9841,
  " Algorithm": 9842,
  " beads": 9843,
  " Garry": 9844,
  "Mind": 9845,
  " managers": 9846,
  "akland": 9847,
  " VITAL": 9848,
  " Night": 9849,
  "borne": 9850,
  " Employment": 9851,
  "-world": 9852,
  " Nick": 9853,
  "ostrom": 9854,
  " monitors": 9855,
  " Di": 9856,
  "artis": 9857,
  " testing": 9858,
  "Microsoft": 9859,
  "antified": 9860,
  "rik": 9861,
  "edpost": 9862,
  " mastectomy": 9863,
  "RC": 9864,
  " zone": 9865,
  "BC": 9866,
  "-fiction": 9867,
  " Fit": 9868,
  "andMe": 9869,
  "417": 9870,
  " sovereign": 9871,
  " oracle": 9872,
  "pollution": 9873,
  " Amazon": 9874,
  "spectrum": 9875,
  "orenz": 9876,
  "orenzayan": 9877,
  "68": 9878,
  "UC": 9879,
  "EA": 9880,
  ".s": 9881,
  "agel": 9882,
  "siks": 9883,
  "siksz": 9884,
  "sikszent": 9885,
  "sikszentm": 9886,
  "sikszentmihaly": 9887,
  "sikszentmihalyi": 9888,
  " Juliet": 9889,
  " consumers": 9890,
  " Friedrich": 9891,
  " processor": 9892,
  " Acad": 9893,
  " Washington": 9894,
  " Increasing": 9895,
  " Agriculture": 9896,
  " Aaron": 9897,
  " Access": 9898,
  "ilosophical": 9899,
  " Have": 9900,
  " Historical": 9901,
  "/pdf": 9902,
  " Fight": 9903,
  " Risk": 9904,
  "ancet": 9905,
  "/global": 9906,
  "Obesity": 9907,
  " Telegraph": 9908,
  ".te": 9909,
  ".telegraph": 9910,
  "296": 9911,
  "-as": 9912,
  "Tel": 9913,
  " Simon": 9914,
  "Berkeley": 9915,
  "167": 9916,
  " Threat": 9917,
  " HarperCollins": 9918,
  " Facts": 9919,
  " Origins": 9920,
  "Res": 9921,
  " Matthew": 9922,
  " Brad": 9923,
  "302": 9924,
  "ifa": 9925,
  " Archaeology": 9926,
  " Warfare": 9927,
  " Publishing": 9928,
  "/tech": 9929,
  "/articles": 9930,
  "/technology": 9931,
  " Perspective": 9932,
  ")’,": 9933,
  " Fe": 9934,
  " Random": 9935,
  " Oliver": 9936,
  "rugs": 9937,
  "EE": 9938,
  " Office": 9939,
  "eport": 9940,
  "content": 9941,
  " Crime": 9942,
  ".b": 9943,
  " Issues": 9944,
  "EP": 9945,
  "148": 9946,
  "York": 9947,
  " Royal": 9948,
  "204": 9949,
  " Guard": 9950,
  " Guardian": 9951,
  ".theguard": 9952,
  ".theguardian": 9953,
  "-v": 9954,
  " Ident": 9955,
  ".i": 9956,
  "panion": 9957,
  "/s": 9958,
  "nos": 9959,
  "115": 9960,
  "Effects": 9961,
  " Domestic": 9962,
  "212": 9963,
  " Lewis": 9964,
  ".asp": 9965,
  " Miller": 9966,
  " Field": 9967,
  "-G": 9968,
  "59": 9969,
  " Learning": 9970,
  " Memory": 9971,
  "US": 9972,
  "urley": 9973,
  "312": 9974,
  "337": 9975,
  " Experience": 9976,
  " Columbia": 9977,
  " Nort": 9978,
  " Norton": 9979,
  " Cohen": 9980,
  "iterature": 9981,
  "126": 9982,
  "141": 9983,
  "218": 9984,
  "riverless": 9985,
  " Cars": 9986,
  "02": 9987,
  "-says": 9988,
  "?_": 9989,
  "imming": 9990,
  " Antidepressant": 9991,
  "Mark": 9992,
  " Comparative": 9993,
  "249": 9994,
  " Shows": 9995,
  " Charge": 9996,
  ".nature": 9997,
  "week": 9998,
  " Stimulation": 9999,
  "285": 10000,
  "236": 10001,
  " Trading": 10002,
  " Markets": 10003,
  "216": 10004,
  "lucose": 10005,
  "-develop": 10006,
  "-google": 10007,
  "314": 10008,
  "124": 10009,
  "166": 10010,
  "288": 10011,
  "259": 10012,
  "384": 10013,
  " Corporation": 10014,
  "341": 10015,
  "331": 10016,
  "291": 10017,
  "297": 10018,
  "267": 10019,
  "378": 10020,
  "380": 10021,
  "362": 10022,
  "347": 10023,
  "272": 10024,
  "386": 10025,
  "Yuval": 10026,
  " Brief": 10027,
  "print": 10028,
  "wW": 10029,
  " Agenda": 10030,
  " _": 10031,
  " Spark": 10032,
  " Storytell": 10033,
  " Storytellers": 10034,
  " Odd": 10035,
  " Couple": 10036,
  " Coven": 10037,
  " Covenant": 10038,
  " Bomb": 10039,
  " Decoupling": 10040,
  " Yuval": 10041,
  " Copyright": 10042,
  "SI": 10043,
  " wakes": 10044,
  "rub": 10045,
  " barb": 10046,
  " wire": 10047,
  " Oh": 10048,
  " preoccup": 10049,
  " preoccupied": 10050,
  " Famine": 10051,
  " angel": 10052,
  "challen": 10053,
  " rescue": 10054,
  " notable": 10055,
  " inqu": 10056,
  " crimin": 10057,
  " criminals": 10058,
  "comb": 10059,
  " McDon": 10060,
  " McDonald": 10061,
  " CEOs": 10062,
  " bringing": 10063,
  "armon": 10064,
  " urgent": 10065,
  " answering": 10066,
  "stri": 10067,
  " exploring": 10068,
  " succumb": 10069,
  " starved": 10070,
  "ortune": 10071,
  " stupidity": 10072,
  " expensive": 10073,
  " sufficient": 10074,
  " horrific": 10075,
  "ais": 10076,
  " consume": 10077,
  " oxen": 10078,
  "slaughter": 10079,
  " herbs": 10080,
  "Similar": 10081,
  " scenes": 10082,
  " ruined": 10083,
  "har": 10084,
  " spring": 10085,
  "rices": 10086,
  "About": 10087,
  "resses": 10088,
  "illes": 10089,
  "onia": 10090,
  " Scotland": 10091,
  " eaten": 10092,
  "days": 10093,
  " clue": 10094,
  " torment": 10095,
  "developments": 10096,
  "planet": 10097,
  "possible": 10098,
  " shortages": 10099,
  " cheaply": 10100,
  "quakes": 10101,
  "almost": 10102,
  " insec": 10103,
  " nutrition": 10104,
  "alked": 10105,
  " Emper": 10106,
  " Emperor": 10107,
  "rous": 10108,
  " predicted": 10109,
  " Conference": 10110,
  " treated": 10111,
  " apocalypt": 10112,
  " apocalyptic": 10113,
  " lifted": 10114,
  " recorded": 10115,
  " advised": 10116,
  "star": 10117,
  " ran": 10118,
  " residents": 10119,
  " gorge": 10120,
  "urg": 10121,
  " overwe": 10122,
  " overweight": 10123,
  " Half": 10124,
  " combined": 10125,
  " obesity": 10126,
  " linked": 10127,
  " merch": 10128,
  " merchants": 10129,
  " pilgrims": 10130,
  " Athen": 10131,
  "epidemic": 10132,
  "ersin": 10133,
  "ersinia": 10134,
  " pest": 10135,
  " pestis": 10136,
  " infecting": 10137,
  "lantic": 10138,
  " Eur": 10139,
  "habit": 10140,
  "Medieval": 10141,
  "comprehension": 10142,
  "gel": 10143,
  " Pieter": 10144,
  "/Alam": 10145,
  "/Alamy": 10146,
  " helpless": 10147,
  " organising": 10148,
  "spread": 10149,
  "existence": 10150,
  " minuscule": 10151,
  "beknown": 10152,
  " explor": 10153,
  " ships": 10154,
  "arms": 10155,
  " slaves": 10156,
  " multiply": 10157,
  " Cem": 10158,
  " Cempo": 10159,
  " Cempoall": 10160,
  " Cempoallan": 10161,
  " grave": 10162,
  " Aztec": 10163,
  "bit": 10164,
  "earing": 10165,
  " daring": 10166,
  "approach": 10167,
  " Ent": 10168,
  " gates": 10169,
  " Ten": 10170,
  " magnificent": 10171,
  "uit": 10172,
  " enrich": 10173,
  "Tw": 10174,
  " Hawaii": 10175,
  " dense": 10176,
  " Cook": 10177,
  "smallpox": 10178,
  "idemics": 10179,
  "named": 10180,
  "Brit": 10181,
  " bee": 10182,
  " rubber": 10183,
  "killed": 10184,
  " Tah": 10185,
  " lacked": 10186,
  " adul": 10187,
  "thood": 10188,
  "epidemics": 10189,
  " Toky": 10190,
  " Tokyo": 10191,
  "provided": 10192,
  "ygi": 10193,
  "ygiene": 10194,
  " infr": 10195,
  "astructure": 10196,
  " wipe": 10197,
  " alarmed": 10198,
  "Ebola": 10199,
  "measures": 10200,
  " incidents": 10201,
  "’.—": 10202,
  "killing": 10203,
  "waves": 10204,
  " anxiety": 10205,
  " nowhere": 10206,
  " failure": 10207,
  "ilitating": 10208,
  " HIV": 10209,
  "positive": 10210,
  " destroys": 10211,
  " admitted": 10212,
  " evident": 10213,
  " hal": 10214,
  " proport": 10215,
  "passing": 10216,
  "established": 10217,
  " malaria": 10218,
  " temporary": 10219,
  " cousin": 10220,
  " guarantee": 10221,
  "ogen": 10222,
  " genomes": 10223,
  " resist": 10224,
  "semin": 10225,
  "due": 10226,
  " fortune": 10227,
  " debt": 10228,
  " chemicals": 10229,
  "ubes": 10230,
  "sch": 10231,
  " labs": 10232,
  " navigate": 10233,
  "ancerous": 10234,
  " Micro": 10235,
  "fighting": 10236,
  " summer": 10237,
  " terrifying": 10238,
  "Organization": 10239,
  " branch": 10240,
  " leve": 10241,
  "respond": 10242,
  " tip": 10243,
  "omsday": 10244,
  "continue": 10245,
  " disappearing": 10246,
  "everybody": 10247,
  "politicians": 10248,
  " Arct": 10249,
  " Arctic": 10250,
  " Sug": 10251,
  " Sugar": 10252,
  " incon": 10253,
  " inconce": 10254,
  " inconceivable": 10255,
  " superpowers": 10256,
  "viously": 10257,
  " sources": 10258,
  " restric": 10259,
  " restricted": 10260,
  "economies": 10261,
  " Rwanda": 10262,
  " seize": 10263,
  "neighbouring": 10264,
  "erves": 10265,
  "somehow": 10266,
  " silicon": 10267,
  "ooting": 10268,
  " earn": 10269,
  " absence": 10270,
  " foresee": 10271,
  " breaking": 10272,
  " Poland": 10273,
  "onesia": 10274,
  " Power": 10275,
  " sales": 10276,
  " Brazilian": 10277,
  " conven": 10278,
  "inable": 10279,
  " fist": 10280,
  " ministers": 10281,
  " regions": 10282,
  " root": 10283,
  " indefinitely": 10284,
  "country": 10285,
  " trains": 10286,
  "igan": 10287,
  "logic": 10288,
  " peacetime": 10289,
  " confuse": 10290,
  " motivation": 10291,
  " temptation": 10292,
  "Cold": 10293,
  " missiles": 10294,
  " destiny": 10295,
  " Getty": 10296,
  " restraint": 10297,
  " destruct": 10298,
  " destructive": 10299,
  " worrying": 10300,
  "rorism": 10301,
  " spreading": 10302,
  "obesity": 10303,
  " related": 10304,
  "oking": 10305,
  "atre": 10306,
  " orche": 10307,
  " orchestr": 10308,
  " displ": 10309,
  " displays": 10310,
  " invasion": 10311,
  " buzz": 10312,
  " toppled": 10313,
  " Sadd": 10314,
  " Saddam": 10315,
  "ussein": 10316,
  "Inst": 10317,
  "Instead": 10318,
  "Middle": 10319,
  " Eastern": 10320,
  " flourish": 10321,
  "Famine": 10322,
  " perpetu": 10323,
  " achieved": 10324,
  "reforms": 10325,
  "ponsibility": 10326,
  " accomplish": 10327,
  " magnitude": 10328,
  "mess": 10329,
  " tolerate": 10330,
  "agenda": 10331,
  "mater": 10332,
  " begun": 10333,
  " stability": 10334,
  "unlikely": 10335,
  "bigger": 10336,
  " possesses": 10337,
  "ourselves": 10338,
  " pushing": 10339,
  " targ": 10340,
  " targets": 10341,
  " positively": 10342,
  " Last": 10343,
  " bid": 10344,
  "hon": 10345,
  " Universal": 10346,
  " cate": 10347,
  "consequently": 10348,
  " Grim": 10349,
  " clo": 10350,
  " appears": 10351,
  " taps": 10352,
  " please": 10353,
  "ses": 10354,
  "fat": 10355,
  " Germs": 10356,
  " lungs": 10357,
  "ygen": 10358,
  " reaches": 10359,
  " settled": 10360,
  " gee": 10361,
  " geeks": 10362,
  " tradition": 10363,
  "electric": 10364,
  " implant": 10365,
  "why": 10366,
  " researching": 10367,
  " accident": 10368,
  " prevented": 10369,
  " commander": 10370,
  " wiser": 10371,
  "suits": 10372,
  "zheim": 10373,
  "zheimer": 10374,
  " enterpr": 10375,
  " Aub": 10376,
  " Aubrey": 10377,
  " poly": 10378,
  " Calico": 10379,
  " stated": 10380,
  "fol": 10381,
  "foot": 10382,
  "football": 10383,
  "ounder": 10384,
  " deny": 10385,
  "dominated": 10386,
  " acceptance": 10387,
  "Thiel": 10388,
  " estimated": 10389,
  "neck": 10390,
  "imistic": 10391,
  "prophe": 10392,
  " shot": 10393,
  " march": 10394,
  " tre": 10395,
  " swim": 10396,
  " sea": 10397,
  "azy": 10398,
  " gamble": 10399,
  " doubled": 10400,
  "-parent": 10401,
  " revolves": 10402,
  " fundamentalists": 10403,
  " retire": 10404,
  " aspir": 10405,
  " aspirations": 10406,
  "eral": 10407,
  " scholar": 10408,
  " formulated": 10409,
  " Stalin": 10410,
  " Chairman": 10411,
  " sitting": 10412,
  " prem": 10413,
  " disappoint": 10414,
  " unw": 10415,
  " escaped": 10416,
  " ripe": 10417,
  "plants": 10418,
  "structures": 10419,
  "-found": 10420,
  " Serge": 10421,
  " Sergey": 10422,
  " Larry": 10423,
  " dynamics": 10424,
  "relent": 10425,
  "happy": 10426,
  "remember": 10427,
  "resist": 10428,
  " harnessed": 10429,
  " substit": 10430,
  " symphony": 10431,
  "ernal": 10432,
  " creativity": 10433,
  " commitment": 10434,
  "aping": 10435,
  " pulling": 10436,
  " aval": 10437,
  " fanatics": 10438,
  " burning": 10439,
  " flowing": 10440,
  " ageing": 10441,
  " elix": 10442,
  " elixir": 10443,
  "conflicts": 10444,
  " Happiness": 10445,
  " philosopher": 10446,
  " rejected": 10447,
  "anism": 10448,
  " planning": 10449,
  "-def": 10450,
  " Countries": 10451,
  " measured": 10452,
  " gig": 10453,
  "serve": 10454,
  " eighteen": 10455,
  "jectory": 10456,
  " operate": 10457,
  "sets": 10458,
  " tanks": 10459,
  "building": 10460,
  " sew": 10461,
  " sewage": 10462,
  " lying": 10463,
  " planned": 10464,
  " Bismarck": 10465,
  " loyal": 10466,
  " counted": 10467,
  "pursuit": 10468,
  " note": 10469,
  " Independ": 10470,
  " Independence": 10471,
  " guaranteed": 10472,
  "rucially": 10473,
  " interven": 10474,
  " capita": 10475,
  " yardstick": 10476,
  "osta": 10477,
  " domestic": 10478,
  " Production": 10479,
  "Would": 10480,
  "goal": 10481,
  " fren": 10482,
  " frenz": 10483,
  "lined": 10484,
  " dos": 10485,
  "Epic": 10486,
  " Being": 10487,
  " Switz": 10488,
  " Switzer": 10489,
  " Switzerland": 10490,
  " Koreans": 10491,
  " dictatorship": 10492,
  " educated": 10493,
  " nine": 10494,
  " tri": 10495,
  " dispos": 10496,
  "included": 10497,
  " prepar": 10498,
  "six": 10499,
  " sceptical": 10500,
  " attaining": 10501,
  " starving": 10502,
  " Victory": 10503,
  " slice": 10504,
  "oupled": 10505,
  " ceiling": 10506,
  " shatter": 10507,
  "satisf": 10508,
  " matches": 10509,
  "conditions": 10510,
  " translate": 10511,
  " contentment": 10512,
  "sit": 10513,
  "main": 10514,
  " Stuart": 10515,
  "depression": 10516,
  " heat": 10517,
  " Got": 10518,
  "113": 10519,
  "apsed": 10520,
  " seven": 10521,
  "-out": 10522,
  " fans": 10523,
  " stad": 10524,
  " stadium": 10525,
  "metres": 10526,
  " Argentinian": 10527,
  " drops": 10528,
  "rac": 10529,
  " Mun": 10530,
  " tears": 10531,
  "gart": 10532,
  " dissol": 10533,
  " balls": 10534,
  " jumping": 10535,
  "perhaps": 10536,
  " orgas": 10537,
  " orgasms": 10538,
  " rewiring": 10539,
  " lucky": 10540,
  "squ": 10541,
  "seldom": 10542,
  " Mount": 10543,
  " Ever": 10544,
  " conducting": 10545,
  "zes": 10546,
  " Sometimes": 10547,
  "educes": 10548,
  " thr": 10549,
  " alert": 10550,
  " tasty": 10551,
  " pressed": 10552,
  " exhaustion": 10553,
  "attr": 10554,
  "ivities": 10555,
  " Juan": 10556,
  " fing": 10557,
  " Dow": 10558,
  " adventures": 10559,
  " Worse": 10560,
  " reforms": 10561,
  " Fifty": 10562,
  "igma": 10563,
  " schoolchildren": 10564,
  "Ritalin": 10565,
  " medications": 10566,
  "ADHD": 10567,
  "ficit": 10568,
  " hyper": 10569,
  " disorders": 10570,
  " pupils": 10571,
  "crow": 10572,
  " quar": 10573,
  "education": 10574,
  " agreed": 10575,
  " sleeping": 10576,
  " trauma": 10577,
  " traps": 10578,
  "isons": 10579,
  " prison": 10580,
  "hol": 10581,
  " bloody": 10582,
  " encouraged": 10583,
  " pharmaceutical": 10584,
  " criminal": 10585,
  " manipulating": 10586,
  " sending": 10587,
  " approp": 10588,
  " appropri": 10589,
  " spots": 10590,
  " blue": 10591,
  "guided": 10592,
  "centuries": 10593,
  " teaching": 10594,
  " fleeting": 10595,
  "constant": 10596,
  "constantly": 10597,
  " pursu": 10598,
  " disappears": 10599,
  "matter": 10600,
  " tolerance": 10601,
  "reases": 10602,
  "avours": 10603,
  " debate": 10604,
  "seems": 10605,
  " involve": 10606,
  "everlasting": 10607,
  " Plan": 10608,
  " qualities": 10609,
  " paths": 10610,
  " realising": 10611,
  " erectus": 10612,
  " flint": 10613,
  " Bio": 10614,
  "Cyborg": 10615,
  " pairs": 10616,
  "thought": 10617,
  "fluous": 10618,
  " scal": 10619,
  " scalp": 10620,
  " disconnected": 10621,
  "-control": 10622,
  "-reading": 10623,
  "unctions": 10624,
  "itchen": 10625,
  " helmets": 10626,
  "workers": 10627,
  " phot": 10628,
  "Soon": 10629,
  " Hann": 10630,
  "lad": 10631,
  " conservative": 10632,
  "enses": 10633,
  " surf": 10634,
  " compound": 10635,
  " fathom": 10636,
  "irts": 10637,
  " worthwhile": 10638,
  "misery": 10639,
  " branches": 10640,
  "):": 10641,
  " Div": 10642,
  " vague": 10643,
  "quality": 10644,
  " theirs": 10645,
  " acquiring": 10646,
  " Nigeria": 10647,
  " corpse": 10648,
  " Unfortunately": 10649,
  " tired": 10650,
  " garb": 10651,
  "making": 10652,
  " permanent": 10653,
  "itted": 10654,
  " Testament": 10655,
  " season": 10656,
  " careful": 10657,
  "uteronomy": 10658,
  "Test": 10659,
  "isers": 10660,
  " modified": 10661,
  "Israel": 10662,
  "fac": 10663,
  "ulties": 10664,
  " cyberspace": 10665,
  " revolt": 10666,
  " laug": 10667,
  " Chap": 10668,
  " gradually": 10669,
  " features": 10670,
  " Please": 10671,
  "Cal": 10672,
  "gic": 10673,
  " Whatever": 10674,
  " Neanderthal": 10675,
  "hunter": 10676,
  "da": 10677,
  " academic": 10678,
  "umbled": 10679,
  "Like": 10680,
  " pastime": 10681,
  "governments": 10682,
  " threatens": 10683,
  " expert": 10684,
  " dots": 10685,
  " Different": 10686,
  "influence": 10687,
  " versa": 10688,
  " encourages": 10689,
  " limitless": 10690,
  "icable": 10691,
  "-how": 10692,
  " Viagra": 10693,
  " Gillies": 10694,
  "geons": 10695,
  " techniques": 10696,
  " ug": 10697,
  " ugly": 10698,
  " billionaire": 10699,
  " embryo": 10700,
  "ubiqu": 10701,
  "ubiquit": 10702,
  "ubiquitous": 10703,
  "lot": 10704,
  "phal": 10705,
  " Pri": 10706,
  " Prize": 10707,
  " Anat": 10708,
  " Duncan": 10709,
  "ugen": 10710,
  "ugenics": 10711,
  " responded": 10712,
  "limited": 10713,
  "uristic": 10714,
  " dyst": 10715,
  " dystop": 10716,
  "contain": 10717,
  " problematic": 10718,
  "genes": 10719,
  " technically": 10720,
  "arin": 10721,
  " Alana": 10722,
  "woman": 10723,
  " voted": 10724,
  " il": 10725,
  "Follow": 10726,
  "endment": 10727,
  "erting": 10728,
  "alleng": 10729,
  "ormal": 10730,
  " catalog": 10731,
  " initial": 10732,
  " professors": 10733,
  "breakthrough": 10734,
  " forbid": 10735,
  " clar": 10736,
  " unjust": 10737,
  "focus": 10738,
  " sword": 10739,
  " palaces": 10740,
  "-dwellers": 10741,
  " kills": 10742,
  "Third": 10743,
  "aggerated": 10744,
  " prophecy": 10745,
  " computing": 10746,
  "Imagine": 10747,
  " behavi": 10748,
  " behaviours": 10749,
  " proletariat": 10750,
  "got": 10751,
  "fire": 10752,
  "brands": 10753,
  " Das": 10754,
  " Kapital": 10755,
  " adopting": 10756,
  "analysis": 10757,
  " analysed": 10758,
  " Chile": 10759,
  " voting": 10760,
  "elections": 10761,
  " Labour": 10762,
  " beds": 10763,
  " dustbin": 10764,
  "behaviour": 10765,
  "faster": 10766,
  "Cent": 10767,
  " increased": 10768,
  " theoretically": 10769,
  " dynast": 10770,
  "repe": 10771,
  " Scholars": 10772,
  "unknown": 10773,
  " norms": 10774,
  "utable": 10775,
  "events": 10776,
  "assume": 10777,
  " loosen": 10778,
  "shape": 10779,
  "ovements": 10780,
  " oppressed": 10781,
  " string": 10782,
  " recount": 10783,
  "beautiful": 10784,
  " Tem": 10785,
  " Temple": 10786,
  "Beijing": 10787,
  " nurt": 10788,
  " arist": 10789,
  " aristocr": 10790,
  "kept": 10791,
  " neat": 10792,
  " chateau": 10793,
  "fs": 10794,
  " extravag": 10795,
  "ukes": 10796,
  "illot": 10797,
  " desert": 10798,
  " Provided": 10799,
  " rising": 10800,
  " luxuries": 10801,
  "Industrial": 10802,
  " switched": 10803,
  " neglected": 10804,
  " wides": 10805,
  " widesp": 10806,
  " widespread": 10807,
  " Chamb": 10808,
  " Loire": 10809,
  " sixteenth": 10810,
  "uns": 10811,
  "/Bridgeman": 10812,
  " visited": 10813,
  " speeches": 10814,
  " fres": 10815,
  " fresh": 10816,
  " robes": 10817,
  "Having": 10818,
  " loud": 10819,
  " downfall": 10820,
  "comprom": 10821,
  "compromising": 10822,
  "compl": 10823,
  "complicated": 10824,
  " deflect": 10825,
  "empting": 10826,
  " origins": 10827,
  " cyborgs": 10828,
  "ordinary": 10829,
  " conclusions": 10830,
  " attempts": 10831,
  "acly": 10832,
  "aclysm": 10833,
  " id": 10834,
  " clues": 10835,
  "-believers": 10836,
  "necessarily": 10837,
  " horrified": 10838,
  "King": 10839,
  "allah": 10840,
  "PAR": 10841,
  "PART": 10842,
  " tig": 10843,
  " tigers": 10844,
  " Little": 10845,
  " Wolf": 10846,
  " tiger": 10847,
  " buff": 10848,
  "alo": 10849,
  "ecological": 10850,
  "Scientists": 10851,
  "itself": 10852,
  "extinction": 10853,
  " volcanic": 10854,
  " eru": 10855,
  "omass": 10856,
  " asteroids": 10857,
  " ape": 10858,
  "species": 10859,
  " dinos": 10860,
  "restrial": 10861,
  "selection": 10862,
  "remained": 10863,
  " extend": 10864,
  "acted": 10865,
  "collection": 10866,
  "angar": 10867,
  " evol": 10868,
  " evolving": 10869,
  " barriers": 10870,
  "throughout": 10871,
  " wooden": 10872,
  "-cross": 10873,
  " continent": 10874,
  "Already": 10875,
  " metal": 10876,
  " bred": 10877,
  " survived": 10878,
  " troop": 10879,
  " numbered": 10880,
  "doz": 10881,
  "mammoth": 10882,
  " wiping": 10883,
  " consequences": 10884,
  " furry": 10885,
  "Anthrop": 10886,
  " archae": 10887,
  " animists": 10888,
  "surround": 10889,
  " ghosts": 10890,
  " Out": 10891,
  "emer": 10892,
  " binding": 10893,
  " oak": 10894,
  " trop": 10895,
  " tropical": 10896,
  " forests": 10897,
  " anthrop": 10898,
  " refused": 10899,
  " spouse": 10900,
  " strikes": 10901,
  " traditions": 10902,
  "vels": 10903,
  " initiates": 10904,
  " fruit": 10905,
  " Adam": 10906,
  " foragers": 10907,
  "Eden": 10908,
  "bread": 10909,
  "incidence": 10910,
  "anguages": 10911,
  " ancest": 10912,
  "bow": 10913,
  " Westerners": 10914,
  "Parad": 10915,
  "istine": 10916,
  " dial": 10917,
  "unique": 10918,
  " Bu": 10919,
  "nant": 10920,
  " argues": 10921,
  " Need": 10922,
  " phase": 10923,
  "inctions": 10924,
  " Although": 10925,
  "boars": 10926,
  " slaughtered": 10927,
  "crocodile": 10928,
  " hars": 10929,
  " Theore": 10930,
  " Theoretically": 10931,
  "protected": 10932,
  " cruel": 10933,
  "Unfortunately": 10934,
  " tremendous": 10935,
  " maintains": 10936,
  " instant": 10937,
  " stands": 10938,
  "lost": 10939,
  " sensory": 10940,
  " chocolate": 10941,
  "lessly": 10942,
  " sites": 10943,
  " risked": 10944,
  " stuck": 10945,
  " surroundings": 10946,
  " indiffer": 10947,
  " vocal": 10948,
  " olfactory": 10949,
  "anley": 10950,
  "outs": 10951,
  " cycle": 10952,
  " continues": 10953,
  "Agricultural": 10954,
  "Sows": 10955,
  "zi": 10956,
  "ganisms": 10957,
  "cribing": 10958,
  "chapters": 10959,
  "Algorith": 10960,
  "calcul": 10961,
  " calculation": 10962,
  " potat": 10963,
  " marked": 10964,
  " boiling": 10965,
  "water": 10966,
  "Over": 10967,
  " copies": 10968,
  " gears": 10969,
  " circuits": 10970,
  " baboons": 10971,
  " awake": 10972,
  " Green": 10973,
  " odds": 10974,
  "baboon": 10975,
  " tim": 10976,
  " underestimate": 10977,
  "probabilities": 10978,
  "ocket": 10979,
  "Jesus": 10980,
  "machine": 10981,
  " convert": 10982,
  " habitats": 10983,
  " differences": 10984,
  " Mammal": 10985,
  " calves": 10986,
  " Conversely": 10987,
  " giraff": 10988,
  " giraffes": 10989,
  " mammal": 10990,
  " Berg": 10991,
  "relations": 10992,
  "Child": 10993,
  " adults": 10994,
  "],": 10995,
  " discipline": 10996,
  " crying": 10997,
  " shock": 10998,
  " shortly": 10999,
  " formed": 11000,
  " objects": 11001,
  " blocks": 11002,
  " appreciate": 11003,
  "Harl": 11004,
  "Harlow": 11005,
  " whims": 11006,
  "commandments": 11007,
  " dealt": 11008,
  " synagogue": 11009,
  " sang": 11010,
  " perf": 11011,
  " alt": 11012,
  " altar": 11013,
  " bell": 11014,
  " gushing": 11015,
  " odours": 11016,
  "biblical": 11017,
  "lephants": 11018,
  "acters": 11019,
  " silent": 11020,
  " jack": 11021,
  " knife": 11022,
  " safeguard": 11023,
  " multi": 11024,
  "epal": 11025,
  "esopotamian": 11026,
  "gamesh": 11027,
  " epic": 11028,
  " relatives": 11029,
  " subs": 11030,
  " /": 11031,
  " offering": 11032,
  " Never": 11033,
  "teach": 11034,
  " protecting": 11035,
  " intrins": 11036,
  " punishment": 11037,
  " pel": 11038,
  " lady": 11039,
  " etern": 11040,
  " eternity": 11041,
  " tale": 11042,
  " refuge": 11043,
  " Rabbi": 11044,
  "Go": 11045,
  "sweep": 11046,
  "compassion": 11047,
  " Jainism": 11048,
  " empath": 11049,
  " empathy": 11050,
  " emphasise": 11051,
  " foremost": 11052,
  " mou": 11053,
  " claimed": 11054,
  " ride": 11055,
  "outhern": 11056,
  " leaves": 11057,
  " exec": 11058,
  " execute": 11059,
  " frequently": 11060,
  "&amp": 11061,
  " plag": 11062,
  " Woolsthorpe": 11063,
  " grav": 11064,
  "bringing": 11065,
  " gains": 11066,
  " circle": 11067,
  "Gree": 11068,
  "Greek": 11069,
  " judged": 11070,
  "extreme": 11071,
  " prevailing": 11072,
  " sear": 11073,
  " rubb": 11074,
  " rubbish": 11075,
  " coop": 11076,
  "help": 11077,
  " cramped": 11078,
  " likes": 11079,
  "cine": 11080,
  " Killing": 11081,
  " citizen": 11082,
  " geop": 11083,
  " geopolitical": 11084,
  "dam": 11085,
  " trace": 11086,
  " subjected": 11087,
  " contradicts": 11088,
  " hat": 11089,
  " Gallup": 11090,
  "supervision": 11091,
  "idently": 11092,
  " zealots": 11093,
  "energy": 11094,
  "inste": 11095,
  "instein": 11096,
  "enberg": 11097,
  " rests": 11098,
  " hum": 11099,
  " innoc": 11100,
  " scand": 11101,
  " relative": 11102,
  " secular": 11103,
  "-divid": 11104,
  "-dividual": 11105,
  " assemblage": 11106,
  " indivisible": 11107,
  " ceaselessly": 11108,
  " corne": 11109,
  "micro": 11110,
  " darkness": 11111,
  " bright": 11112,
  " squared": 11113,
  " incapable": 11114,
  "reject": 11115,
  " interl": 11116,
  " interlinked": 11117,
  " constitute": 11118,
  " Robots": 11119,
  " sensor": 11120,
  "charge": 11121,
  " battery": 11122,
  "-date": 11123,
  " initiate": 11124,
  " ascribe": 11125,
  " Descartes": 11126,
  "aesthetics": 11127,
  "reactions": 11128,
  " links": 11129,
  "electrical": 11130,
  " discovering": 11131,
  " epony": 11132,
  " eponym": 11133,
  " eponymous": 11134,
  "duce": 11135,
  " jams": 11136,
  " influences": 11137,
  " tang": 11138,
  " Pic": 11139,
  " deciphering": 11140,
  " chase": 11141,
  " Subjective": 11142,
  " sufficiently": 11143,
  " glands": 11144,
  " motor": 11145,
  " spontaneously": 11146,
  "danger": 11147,
  " unrelated": 11148,
  " Plat": 11149,
  " pops": 11150,
  "ifty": 11151,
  " plaus": 11152,
  " plausible": 11153,
  "esla": 11154,
  "rians": 11155,
  " obst": 11156,
  " surrounding": 11157,
  "autonomous": 11158,
  " fulfils": 11159,
  " reple": 11160,
  " replete": 11161,
  " concepts": 11162,
  "supposed": 11163,
  "supposedly": 11164,
  " phenomena": 11165,
  " peer": 11166,
  " eman": 11167,
  " supporting": 11168,
  "ournals": 11169,
  " relevance": 11170,
  "ennett": 11171,
  "anislas": 11172,
  "studying": 11173,
  "neuro": 11174,
  "Fin": 11175,
  "Finally": 11176,
  "engines": 11177,
  "gression": 11178,
  " recruits": 11179,
  "states": 11180,
  " indicated": 11181,
  "responsible": 11182,
  " Already": 11183,
  "simul": 11184,
  "since": 11185,
  " conventions": 11186,
  " Take": 11187,
  "Then": 11188,
  "period": 11189,
  " acts": 11190,
  " mattered": 11191,
  "usually": 11192,
  "deep": 11193,
  " attach": 11194,
  " systematically": 11195,
  " mice": 11196,
  "proof": 11197,
  " meantime": 11198,
  "atom": 11199,
  "exhib": 11200,
  " shifting": 11201,
  " legally": 11202,
  " hus": 11203,
  " husband": 11204,
  "lab": 11205,
  " subjects": 11206,
  " statistical": 11207,
  " extra": 11208,
  "given": 11209,
  " struggling": 11210,
  "above": 11211,
  "Conscious": 11212,
  " Chimpanze": 11213,
  " depressed": 11214,
  " snif": 11215,
  " sniff": 11216,
  "rad": 11217,
  " parrots": 11218,
  "ustr": 11219,
  " Zoo": 11220,
  " hob": 11221,
  " zoo": 11222,
  " advance": 11223,
[...]
